<unk>	0
<s>	0
</s>	0
▁t	-0
▁th	-1
▁a	-2
▁the	-3
▁s	-4
in	-5
▁w	-6
re	-7
▁o	-8
▁c	-9
▁i	-10
en	-11
er	-12
▁b	-13
ou	-14
le	-15
at	-16
▁p	-17
▁to	-18
on	-19
ing	-20
▁h	-21
or	-22
▁f	-23
▁m	-24
an	-25
▁d	-26
▁an	-27
es	-28
▁e	-29
▁be	-30
▁and	-31
ar	-32
ent	-33
▁in	-34
ot	-35
▁of	-36
ll	-37
om	-38
▁n	-39
us	-40
it	-41
ct	-42
▁st	-43
ed	-44
as	-45
▁g	-46
▁that	-47
ve	-48
ld	-49
▁is	-50
▁y	-51
▁wh	-52
▁it	-53
is	-54
ch	-55
al	-56
▁l	-57
ion	-58
▁you	-59
ould	-60
▁v	-61
▁on	-62
dent	-63
ic	-64
ol	-65
▁ha	-66
ut	-67
▁for	-68
ay	-69
▁they	-70
et	-71
▁re	-72
ow	-73
▁stu	-74
ke	-75
op	-76
▁student	-77
id	-78
ir	-79
▁are	-80
▁have	-81
ce	-82
ro	-83
lect	-84
▁can	-85
ver	-86
▁elect	-87
st	-88
▁not	-89
el	-90
▁we	-91
un	-92
ome	-93
ge	-94
ig	-95
use	-96
ur	-97
▁do	-98
▁students	-99
res	-100
▁vot	-101
▁mo	-102
ers	-103
▁sh	-104
th	-105
▁li	-106
▁as	-107
▁would	-108
▁pe	-109
▁or	-110
ad	-111
ly	-112
▁this	-113
▁te	-114
▁al	-115
▁peop	-116
ill	-117
▁people	-118
ith	-119
im	-120
▁bec	-121
▁if	-122
▁with	-123
▁elector	-124
▁pro	-125
▁le	-126
ri	-127
ause	-128
▁go	-129
se	-130
▁their	-131
▁sch	-132
ool	-133
am	-134
ul	-135
▁ne	-136
▁school	-137
▁because	-138
▁ex	-139
▁ch	-140
▁ab	-141
▁com	-142
all	-143
▁all	-144
▁but	-145
▁ma	-146
▁at	-147
ate	-148
▁will	-149
▁k	-150
▁cl	-151
▁fa	-152
▁more	-153
▁so	-154
ant	-155
▁con	-156
▁wor	-157
▁some	-158
▁su	-159
▁j	-160
▁there	-161
ect	-162
ation	-163
▁electoral	-164
ity	-165
ter	-166
▁car	-167
▁should	-168
▁get	-169
▁pres	-170
ra	-171
ust	-172
▁de	-173
▁them	-174
ere	-175
nt	-176
▁like	-177
▁col	-178
ach	-179
▁se	-180
one	-181
igh	-182
▁what	-183
out	-184
▁colle	-185
elp	-186
ident	-187
▁help	-188
ass	-189
rom	-190
▁by	-191
▁was	-192
od	-193
▁pl	-194
▁college	-195
▁vote	-196
king	-197
▁when	-198
pp	-199
iv	-200
ort	-201
▁your	-202
end	-203
▁could	-204
▁un	-205
ally	-206
▁tim	-207
ions	-208
▁r	-209
▁from	-210
ble	-211
▁one	-212
▁thin	-213
ice	-214
▁president	-215
ss	-216
▁who	-217
ff	-218
▁oth	-219
▁ta	-220
▁just	-221
▁think	-222
▁dri	-223
ight	-224
est	-225
▁class	-226
▁kn	-227
gh	-228
▁how	-229
so	-230
▁out	-231
ates	-232
▁about	-233
▁know	-234
ci	-235
▁also	-236
ist	-237
▁time	-238
▁teach	-239
▁u	-240
▁man	-241
▁ev	-242
ject	-243
ple	-244
ive	-245
and	-246
arn	-247
▁ven	-248
▁us	-249
ment	-250
▁want	-251
ough	-252
▁learn	-253
▁make	-254
▁venus	-255
▁ever	-256
▁he	-257
▁whi	-258
▁has	-259
em	-260
▁up	-261
▁way	-262
▁project	-263
ving	-264
▁sp	-265
▁tr	-266
▁ad	-267
▁thing	-268
art	-269
▁act	-270
ign	-271
▁exp	-272
oo	-273
um	-274
▁many	-275
▁don	-276
eth	-277
▁our	-278
▁fe	-279
▁other	-280
▁need	-281
▁even	-282
ces	-283
▁di	-284
qu	-285
▁work	-286
▁may	-287
▁every	-288
▁ar	-289
ain	-290
il	-291
▁me	-292
ure	-293
▁im	-294
ine	-295
are	-296
ular	-297
ide	-298
▁no	-299
▁en	-300
▁som	-301
▁po	-302
▁bet	-303
og	-304
mer	-305
▁ph	-306
▁my	-307
▁states	-308
▁say	-309
▁pers	-310
▁then	-311
ie	-312
ck	-313
▁good	-314
oun	-315
ies	-316
vice	-317
▁cars	-318
▁comm	-319
ens	-320
▁op	-321
▁home	-322
▁than	-323
▁any	-324
ag	-325
▁comp	-326
▁most	-327
▁person	-328
▁des	-329
▁see	-330
de	-331
▁int	-332
her	-333
▁chan	-334
reat	-335
ars	-336
▁why	-337
▁face	-338
ard	-339
fe	-340
▁sa	-341
ound	-342
▁take	-343
▁votes	-344
ans	-345
▁only	-346
▁better	-347
ason	-348
unity	-349
ting	-350
ind	-351
▁electors	-352
age	-353
for	-354
▁reason	-355
▁diff	-356
▁gr	-357
ress	-358
ong	-359
ame	-360
▁its	-361
▁pop	-362
ue	-363
ery	-364
▁over	-365
▁sy	-366
▁these	-367
our	-368
▁able	-369
▁dec	-370
os	-371
ose	-372
▁driver	-373
stem	-374
▁system	-375
▁use	-376
way	-377
ult	-378
ep	-379
ace	-380
▁which	-381
ast	-382
▁plan	-383
▁ac	-384
ount	-385
ore	-386
▁things	-387
▁new	-388
der	-389
▁em	-390
▁very	-391
▁someth	-392
▁being	-393
▁feel	-394
▁something	-395
▁part	-396
▁imp	-397
▁happ	-398
▁learning	-399
ous	-400
▁sum	-401
▁2	-402
▁ide	-403
form	-404
▁were	-405
▁summer	-406
ree	-407
line	-408
▁state	-409
▁community	-410
iz	-411
▁life	-412
▁tech	-413
▁had	-414
▁per	-415
du	-416
▁teacher	-417
▁ye	-418
▁popular	-419
▁online	-420
▁going	-421
▁differe	-422
olog	-423
▁planet	-424
▁hum	-425
wn	-426
less	-427
ook	-428
▁day	-429
▁techn	-430
ade	-431
ial	-432
▁ke	-433
▁1	-434
▁off	-435
▁projects	-436
▁activ	-437
▁mu	-438
▁classes	-439
▁dis	-440
▁teachers	-441
▁might	-442
▁att	-443
▁ear	-444
▁ser	-445
▁cand	-446
▁really	-447
ology	-448
▁design	-449
riend	-450
▁much	-451
able	-452
▁election	-453
▁own	-454
ves	-455
▁different	-456
▁friend	-457
▁candid	-458
▁ben	-459
▁while	-460
▁win	-461
▁bel	-462
▁opin	-463
▁emot	-464
ities	-465
▁does	-466
ef	-467
other	-468
▁been	-469
▁sm	-470
cess	-471
ence	-472
▁keep	-473
led	-474
▁allow	-475
▁exam	-476
▁ag	-477
ated	-478
▁kid	-479
ance	-480
ry	-481
▁technology	-482
▁earth	-483
▁ro	-484
▁did	-485
▁res	-486
▁pre	-487
▁ass	-488
ip	-489
▁dist	-490
▁doing	-491
▁benef	-492
ang	-493
▁idea	-494
oc	-495
▁example	-496
▁show	-497
kes	-498
▁having	-499
ack	-500
▁aut	-501
▁am	-502
ess	-503
▁now	-504
▁af	-505
cial	-506
▁ext	-507
ying	-508
ick	-509
ful	-510
▁less	-511
▁mars	-512
▁belie	-513
▁best	-514
▁comput	-515
▁stud	-516
▁well	-517
▁count	-518
▁another	-519
▁lot	-520
▁someone	-521
▁driving	-522
ones	-523
ph	-524
ire	-525
▁giv	-526
ub	-527
ert	-528
▁land	-529
▁under	-530
▁kids	-531
▁after	-532
▁into	-533
▁though	-534
▁service	-535
▁thr	-536
▁qu	-537
blem	-538
▁look	-539
if	-540
▁problem	-541
▁great	-542
▁still	-543
▁voting	-544
▁where	-545
▁advice	-546
int	-547
▁jo	-548
▁right	-549
les	-550
▁acc	-551
▁cont	-552
▁ask	-553
▁ali	-554
pport	-555
▁world	-556
ab	-557
act	-558
▁voters	-559
sel	-560
vel	-561
ways	-562
▁par	-563
cent	-564
▁driverless	-565
▁his	-566
duc	-567
▁sur	-568
▁too	-569
▁same	-570
▁rep	-571
▁phones	-572
ually	-573
ely	-574
▁she	-575
thing	-576
▁tell	-577
▁made	-578
▁auth	-579
▁sport	-580
▁each	-581
▁believe	-582
ish	-583
▁eas	-584
▁tal	-585
▁change	-586
▁others	-587
▁author	-588
▁designed	-589
uring	-590
▁inst	-591
▁let	-592
00	-593
▁art	-594
ible	-595
▁choo	-596
cl	-597
xt	-598
▁wr	-599
▁those	-600
ited	-601
▁making	-602
▁through	-603
ell	-604
▁fir	-605
▁give	-606
▁everyone	-607
ric	-608
▁cho	-609
▁first	-610
pt	-611
▁around	-612
▁expl	-613
▁assign	-614
▁br	-615
▁cons	-616
▁3	-617
▁read	-618
ict	-619
▁bas	-620
icle	-621
▁always	-622
▁import	-623
▁year	-624
▁won	-625
ical	-626
▁friends	-627
▁during	-628
▁extra	-629
▁candidate	-630
ild	-631
▁co	-632
▁dont	-633
oy	-634
▁hard	-635
▁such	-636
te	-637
ning	-638
▁human	-639
▁dang	-640
▁put	-641
stand	-642
▁tw	-643
▁phone	-644
▁requ	-645
day	-646
▁benefit	-647
▁important	-648
▁bad	-649
▁fact	-650
▁computer	-651
▁her	-652
▁sim	-653
▁mat	-654
▁comple	-655
ily	-656
▁big	-657
▁creat	-658
▁cell	-659
▁find	-660
▁schools	-661
fore	-662
▁high	-663
▁pol	-664
own	-665
▁educ	-666
▁pr	-667
ak	-668
ments	-669
▁activities	-670
▁understand	-671
ase	-672
▁emotions	-673
cur	-674
ever	-675
▁exper	-676
▁long	-677
▁said	-678
ite	-679
▁ca	-680
▁play	-681
▁fun	-682
▁decis	-683
▁getting	-684
ber	-685
▁eff	-686
▁back	-687
ru	-688
▁tra	-689
▁app	-690
ations	-691
▁percent	-692
ner	-693
ract	-694
ors	-695
▁gen	-696
▁poss	-697
▁happen	-698
ft	-699
▁5	-700
▁conf	-701
raph	-702
▁nas	-703
▁nasa	-704
▁point	-705
ond	-706
jor	-707
▁attend	-708
▁form	-709
▁real	-710
▁sit	-711
ures	-712
etim	-713
▁partic	-714
▁unf	-715
▁major	-716
▁without	-717
▁bu	-718
▁sci	-719
ved	-720
ib	-721
▁gener	-722
▁inform	-723
▁mult	-724
▁experi	-725
▁reasons	-726
dit	-727
▁opinion	-728
ution	-729
be	-730
▁sports	-731
▁end	-732
▁come	-733
▁el	-734
▁choice	-735
▁education	-736
▁choose	-737
ren	-738
ier	-739
▁fut	-740
ertain	-741
▁actually	-742
▁process	-743
room	-744
air	-745
ced	-746
▁run	-747
ention	-748
▁adv	-749
lic	-750
▁cle	-751
▁sometim	-752
ead	-753
▁start	-754
▁require	-755
▁using	-756
ious	-757
▁fam	-758
▁aliens	-759
ost	-760
iple	-761
ricular	-762
▁pass	-763
▁express	-764
ise	-765
▁multiple	-766
▁pict	-767
▁talk	-768
▁article	-769
▁classroom	-770
▁place	-771
▁la	-772
arent	-773
▁amer	-774
▁however	-775
▁arg	-776
▁sk	-777
▁americ	-778
▁ve	-779
ince	-780
▁parag	-781
▁lead	-782
▁opinions	-783
▁cause	-784
ating	-785
▁future	-786
▁landform	-787
▁humans	-788
▁stress	-789
▁cal	-790
▁sl	-791
▁reg	-792
▁cre	-793
▁united	-794
▁away	-795
▁fin	-796
▁hand	-797
▁parent	-798
pe	-799
ists	-800
▁particip	-801
iss	-802
▁down	-803
▁years	-804
▁says	-805
▁sometimes	-806
▁activity	-807
als	-808
▁sol	-809
ety	-810
▁rel	-811
ather	-812
▁unfair	-813
▁facial	-814
urn	-815
▁information	-816
▁two	-817
▁extracur	-818
▁spe	-819
erest	-820
▁paragraph	-821
ize	-822
▁top	-823
▁study	-824
ility	-825
▁extracurricular	-826
▁bre	-827
▁decision	-828
itt	-829
▁env	-830
▁times	-831
▁country	-832
ram	-833
ons	-834
oth	-835
▁mon	-836
▁cam	-837
▁again	-838
▁job	-839
▁try	-840
▁never	-841
ary	-842
selves	-843
▁opt	-844
▁since	-845
ional	-846
▁maybe	-847
▁ob	-848
▁grad	-849
▁child	-850
▁interest	-851
ody	-852
▁cit	-853
▁stay	-854
▁chance	-855
▁taking	-856
▁drive	-857
▁fo	-858
▁sec	-859
▁pick	-860
▁got	-861
ia	-862
▁wrong	-863
▁scient	-864
▁resp	-865
▁used	-866
▁enough	-867
ether	-868
▁care	-869
ding	-870
▁break	-871
read	-872
▁citiz	-873
▁happy	-874
▁trying	-875
▁found	-876
▁before	-877
▁cr	-878
▁support	-879
▁instead	-880
▁foc	-881
▁sour	-882
▁nat	-883
ory	-884
▁num	-885
ile	-886
ove	-887
per	-888
elf	-889
▁makes	-890
▁thought	-891
▁free	-892
▁feeling	-893
▁prov	-894
▁ways	-895
▁likely	-896
▁certain	-897
▁distance	-898
▁focus	-899
▁dem	-900
▁mean	-901
▁become	-902
▁done	-903
▁prog	-904
ix	-905
▁anything	-906
▁winner	-907
ural	-908
▁themselves	-909
▁space	-910
▁name	-911
▁envir	-912
▁situ	-913
▁due	-914
usion	-915
▁aver	-916
▁bus	-917
▁turn	-918
▁sub	-919
▁repres	-920
▁last	-921
▁rec	-922
▁vide	-923
▁parents	-924
▁danger	-925
▁fair	-926
▁sure	-927
▁val	-928
▁concl	-929
▁topic	-930
▁second	-931
ull	-932
ger	-933
▁meth	-934
▁experience	-935
ublic	-936
▁road	-937
▁method	-938
▁attention	-939
▁few	-940
▁prob	-941
▁chang	-942
▁majority	-943
erm	-944
wor	-945
▁average	-946
ically	-947
▁represent	-948
ouse	-949
ared	-950
▁citizens	-951
ied	-952
▁pay	-953
ably	-954
ours	-955
▁19	-956
ac	-957
icy	-958
rect	-959
▁next	-960
▁working	-961
iting	-962
▁chall	-963
ys	-964
▁distract	-965
▁candidates	-966
▁source	-967
▁lar	-968
▁him	-969
▁sen	-970
red	-971
ward	-972
▁inv	-973
▁participate	-974
▁200	-975
▁opport	-976
▁lim	-977
ks	-978
ives	-979
▁grade	-980
▁skill	-981
▁challen	-982
▁det	-983
▁environ	-984
sure	-985
▁program	-986
▁bring	-987
icial	-988
▁dr	-989
▁litt	-990
ual	-991
▁test	-992
▁problems	-993
▁both	-994
ower	-995
▁little	-996
▁saf	-997
velop	-998
▁shows	-999
▁const	-1000
▁environment	-1001
▁lu	-1002
▁mus	-1003
work	-1004
▁ho	-1005
▁develop	-1006
▁video	-1007
▁av	-1008
ready	-1009
▁natural	-1010
▁already	-1011
▁mind	-1012
▁sc	-1013
▁text	-1014
▁clos	-1015
▁possible	-1016
▁9	-1017
ath	-1018
▁picture	-1019
▁inc	-1020
▁enj	-1021
▁generic	-1022
oney	-1023
though	-1024
▁effect	-1025
▁live	-1026
▁trans	-1027
▁policy	-1028
▁given	-1029
▁money	-1030
▁although	-1031
oring	-1032
▁asking	-1033
een	-1034
▁doesn	-1035
▁fl	-1036
▁worth	-1037
pl	-1038
▁bl	-1039
▁cur	-1040
▁pos	-1041
▁accident	-1042
body	-1043
▁surf	-1044
▁pur	-1045
▁needs	-1046
hing	-1047
▁democ	-1048
ty	-1049
▁seem	-1050
▁helps	-1051
▁cong	-1052
▁inter	-1053
▁wouldn	-1054
ron	-1055
ten	-1056
▁family	-1057
▁enjoy	-1058
▁conclusion	-1059
▁presidential	-1060
▁means	-1061
iew	-1062
▁ru	-1063
su	-1064
▁quest	-1065
▁today	-1066
▁call	-1067
▁agree	-1068
▁hu	-1069
▁miss	-1070
▁stop	-1071
▁grades	-1072
▁amount	-1073
used	-1074
▁sw	-1075
ater	-1076
▁must	-1077
▁rather	-1078
▁ind	-1079
self	-1080
▁probably	-1081
ative	-1082
ian	-1083
side	-1084
▁tex	-1085
▁didn	-1086
▁public	-1087
gg	-1088
pa	-1089
ope	-1090
▁thats	-1091
▁helping	-1092
▁rese	-1093
▁select	-1094
▁consid	-1095
▁social	-1096
▁dep	-1097
▁club	-1098
rat	-1099
▁bo	-1100
▁complete	-1101
arch	-1102
ledge	-1103
▁safe	-1104
▁skills	-1105
▁suc	-1106
ered	-1107
▁condit	-1108
▁contr	-1109
▁decide	-1110
▁option	-1111
▁surface	-1112
▁meet	-1113
ices	-1114
oup	-1115
▁wal	-1116
▁situation	-1117
▁everything	-1118
▁opportunity	-1119
▁create	-1120
▁easier	-1121
▁else	-1122
▁congress	-1123
▁ty	-1124
▁ra	-1125
ware	-1126
ave	-1127
▁fre	-1128
cy	-1129
ets	-1130
▁argu	-1131
▁beneficial	-1132
most	-1133
▁team	-1134
▁far	-1135
ken	-1136
idence	-1137
▁elections	-1138
▁rece	-1139
cing	-1140
▁once	-1141
▁alien	-1142
▁rem	-1143
▁group	-1144
▁created	-1145
▁giving	-1146
▁knowledge	-1147
▁prev	-1148
▁children	-1149
▁disc	-1150
▁move	-1151
▁matter	-1152
▁impro	-1153
ides	-1154
aces	-1155
▁veh	-1156
▁almost	-1157
▁def	-1158
▁house	-1159
▁small	-1160
▁assignments	-1161
▁desp	-1162
▁view	-1163
▁ideas	-1164
▁takes	-1165
ash	-1166
▁imag	-1167
▁self	-1168
▁gu	-1169
▁number	-1170
▁atm	-1171
▁wanted	-1172
▁dangerous	-1173
▁based	-1174
▁three	-1175
▁gives	-1176
▁present	-1177
▁democrat	-1178
pect	-1179
ween	-1180
▁required	-1181
▁close	-1182
▁saying	-1183
▁air	-1184
▁equ	-1185
▁join	-1186
▁action	-1187
oud	-1188
▁between	-1189
▁cow	-1190
▁dangers	-1191
▁conditions	-1192
▁ent	-1193
▁musc	-1194
oid	-1195
inci	-1196
▁emotion	-1197
▁che	-1198
▁list	-1199
▁often	-1200
▁isn	-1201
▁atmos	-1202
▁side	-1203
▁party	-1204
▁whole	-1205
port	-1206
▁contin	-1207
ics	-1208
▁least	-1209
▁pressure	-1210
▁allows	-1211
▁sad	-1212
▁easy	-1213
atch	-1214
▁control	-1215
▁incl	-1216
▁slate	-1217
▁called	-1218
▁studying	-1219
▁loo	-1220
▁respons	-1221
▁complet	-1222
▁homework	-1223
▁cor	-1224
▁research	-1225
▁nothing	-1226
▁luke	-1227
▁consider	-1228
▁ris	-1229
▁tem	-1230
▁kind	-1231
▁ones	-1232
hip	-1233
▁set	-1234
▁ans	-1235
▁anim	-1236
▁canid	-1237
▁lives	-1238
wh	-1239
ness	-1240
▁hours	-1241
▁spend	-1242
▁coll	-1243
▁here	-1244
ording	-1245
ruct	-1246
▁clear	-1247
▁explain	-1248
▁aff	-1249
atures	-1250
▁avoid	-1251
▁old	-1252
▁smile	-1253
▁commun	-1254
▁whether	-1255
▁fav	-1256
▁needed	-1257
▁wa	-1258
ored	-1259
▁america	-1260
ven	-1261
▁answ	-1262
▁poll	-1263
▁trust	-1264
na	-1265
gin	-1266
▁comes	-1267
▁str	-1268
▁drivers	-1269
▁direct	-1270
icult	-1271
▁days	-1272
ugh	-1273
▁gets	-1274
▁order	-1275
▁computers	-1276
▁tri	-1277
▁clean	-1278
▁shouldn	-1279
▁according	-1280
alth	-1281
fort	-1282
llow	-1283
▁result	-1284
▁assignment	-1285
boy	-1286
▁difficult	-1287
ail	-1288
oming	-1289
▁inclu	-1290
▁taken	-1291
▁evidence	-1292
raft	-1293
▁cod	-1294
sing	-1295
▁campa	-1296
▁cowboy	-1297
ages	-1298
cept	-1299
▁law	-1300
▁against	-1301
ivid	-1302
▁rock	-1303
▁transport	-1304
▁goes	-1305
▁rest	-1306
▁gover	-1307
eren	-1308
▁phot	-1309
▁gas	-1310
ither	-1311
▁campaign	-1312
▁power	-1313
▁health	-1314
▁texting	-1315
▁ey	-1316
▁posit	-1317
▁princi	-1318
▁looking	-1319
▁cour	-1320
ational	-1321
rem	-1322
▁polit	-1323
oing	-1324
▁individ	-1325
▁oc	-1326
▁despite	-1327
ges	-1328
ency	-1329
▁yes	-1330
▁outc	-1331
▁travel	-1332
▁bi	-1333
▁subject	-1334
▁var	-1335
▁allowed	-1336
▁possib	-1337
▁democratic	-1338
ished	-1339
ouble	-1340
▁wants	-1341
▁deg	-1342
▁scientists	-1343
▁appe	-1344
▁question	-1345
ute	-1346
▁fr	-1347
ball	-1348
▁lis	-1349
▁favor	-1350
▁2000	-1351
▁argue	-1352
▁simil	-1353
▁mot	-1354
▁either	-1355
▁talking	-1356
▁therefore	-1357
ap	-1358
▁prep	-1359
▁ri	-1360
▁stuff	-1361
▁swing	-1362
▁alot	-1363
▁places	-1364
▁personal	-1365
av	-1366
▁ability	-1367
rees	-1368
ught	-1369
▁wee	-1370
▁sign	-1371
▁comfort	-1372
▁muscles	-1373
▁beh	-1374
▁usage	-1375
▁winning	-1376
sue	-1377
unch	-1378
vers	-1379
▁opp	-1380
▁7	-1381
aim	-1382
▁large	-1383
▁level	-1384
lo	-1385
▁love	-1386
▁advant	-1387
ided	-1388
▁trouble	-1389
fer	-1390
▁gain	-1391
▁soft	-1392
▁follow	-1393
its	-1394
▁ll	-1395
▁mod	-1396
▁tie	-1397
▁sing	-1398
▁similar	-1399
phere	-1400
▁mona	-1401
▁seag	-1402
ulation	-1403
▁improve	-1404
▁knowing	-1405
ames	-1406
▁youn	-1407
▁build	-1408
▁animals	-1409
ify	-1410
▁soci	-1411
▁outside	-1412
▁communic	-1413
not	-1414
▁nor	-1415
▁yet	-1416
▁helpful	-1417
▁lisa	-1418
▁seagoing	-1419
▁mes	-1420
▁es	-1421
▁stre	-1422
▁incre	-1423
▁continue	-1424
duct	-1425
▁along	-1426
▁claim	-1427
▁true	-1428
▁smart	-1429
▁coding	-1430
▁course	-1431
▁aren	-1432
▁govern	-1433
▁took	-1434
▁book	-1435
▁city	-1436
duce	-1437
▁case	-1438
az	-1439
ned	-1440
ines	-1441
▁grow	-1442
he	-1443
ully	-1444
▁addit	-1445
▁extrem	-1446
▁outcome	-1447
▁expressions	-1448
ense	-1449
▁cannot	-1450
▁20	-1451
▁fur	-1452
aster	-1453
idd	-1454
ient	-1455
▁begin	-1456
▁told	-1457
▁later	-1458
▁mater	-1459
▁common	-1460
cially	-1461
▁lesson	-1462
craft	-1463
▁mesa	-1464
▁watch	-1465
▁atmosphere	-1466
▁cast	-1467
▁valu	-1468
▁anyone	-1469
▁single	-1470
▁running	-1471
▁success	-1472
▁software	-1473
▁fig	-1474
▁everyday	-1475
▁went	-1476
▁provide	-1477
▁material	-1478
▁vis	-1479
▁thinking	-1480
▁pri	-1481
▁asked	-1482
▁transportation	-1483
▁cant	-1484
▁phys	-1485
▁listen	-1486
▁accidents	-1487
▁past	-1488
▁supp	-1489
▁freed	-1490
▁vehicle	-1491
▁scientist	-1492
▁qual	-1493
▁send	-1494
outh	-1495
▁challenge	-1496
ified	-1497
▁simp	-1498
▁furth	-1499
▁benefits	-1500
ents	-1501
▁fac	-1502
wards	-1503
ences	-1504
atives	-1505
▁safety	-1506
▁freedom	-1507
▁exploring	-1508
ific	-1509
reen	-1510
▁eng	-1511
▁inde	-1512
▁keeping	-1513
▁conferen	-1514
▁bra	-1515
▁temper	-1516
▁american	-1517
▁spacecraft	-1518
ne	-1519
▁reading	-1520
▁ment	-1521
▁bored	-1522
itution	-1523
▁simply	-1524
cif	-1525
▁surv	-1526
▁worry	-1527
▁confused	-1528
▁risk	-1529
▁ap	-1530
rict	-1531
▁pot	-1532
▁main	-1533
▁collage	-1534
▁53	-1535
omes	-1536
▁explore	-1537
▁perform	-1538
▁seen	-1539
▁pa	-1540
▁espe	-1541
▁pract	-1542
▁coming	-1543
▁choosing	-1544
▁completely	-1545
70	-1546
▁uni	-1547
▁unt	-1548
▁caus	-1549
▁mill	-1550
▁near	-1551
▁mem	-1552
ized	-1553
▁degrees	-1554
▁overall	-1555
ord	-1556
ging	-1557
iles	-1558
iding	-1559
▁society	-1560
▁add	-1561
▁sun	-1562
▁schooling	-1563
▁five	-1564
▁min	-1565
▁hope	-1566
▁wont	-1567
▁story	-1568
▁strong	-1569
▁pictures	-1570
▁yourself	-1571
▁prop	-1572
▁affect	-1573
▁worthy	-1574
▁learned	-1575
▁eyes	-1576
▁mess	-1577
▁smog	-1578
▁lack	-1579
▁light	-1580
zy	-1581
▁tog	-1582
▁huge	-1583
▁changing	-1584
▁especially	-1585
▁type	-1586
▁issue	-1587
▁princip	-1588
alf	-1589
arm	-1590
osed	-1591
▁neg	-1592
where	-1593
▁passage	-1594
▁ban	-1595
▁hold	-1596
▁answer	-1597
▁figure	-1598
▁enc	-1599
▁lose	-1600
▁stand	-1601
▁voted	-1602
▁stated	-1603
▁seeking	-1604
▁valuable	-1605
▁together	-1606
▁population	-1607
▁head	-1608
ential	-1609
▁hands	-1610
ogn	-1611
▁tas	-1612
ature	-1613
▁lunch	-1614
▁behind	-1615
▁simple	-1616
▁political	-1617
▁imagine	-1618
▁cloud	-1619
▁pursu	-1620
ffic	-1621
▁abol	-1622
▁constitution	-1623
rent	-1624
▁four	-1625
▁sens	-1626
▁camer	-1627
▁specif	-1628
▁allowing	-1629
edu	-1630
▁ir	-1631
▁invol	-1632
▁vi	-1633
▁carb	-1634
▁games	-1635
▁offer	-1636
▁office	-1637
ased	-1638
▁hur	-1639
▁facs	-1640
▁vice	-1641
▁leave	-1642
▁recogn	-1643
▁mom	-1644
▁pain	-1645
▁happened	-1646
▁exc	-1647
▁vol	-1648
▁walk	-1649
▁peoples	-1650
▁emotional	-1651
▁principal	-1652
ling	-1653
▁lost	-1654
▁attending	-1655
ceed	-1656
aring	-1657
▁hot	-1658
▁above	-1659
li	-1660
ote	-1661
ush	-1662
dated	-1663
▁necess	-1664
▁understanding	-1665
▁oce	-1666
▁deal	-1667
▁sense	-1668
▁effort	-1669
rib	-1670
▁lo	-1671
▁ess	-1672
gan	-1673
▁mar	-1674
▁depend	-1675
ama	-1676
▁knows	-1677
▁schedu	-1678
▁ill	-1679
iness	-1680
▁stru	-1681
▁interact	-1682
agree	-1683
▁fail	-1684
▁famil	-1685
▁solar	-1686
▁canidate	-1687
▁government	-1688
▁cap	-1689
▁prom	-1690
ilities	-1691
▁adult	-1692
▁compan	-1693
▁effective	-1694
over	-1695
▁open	-1696
▁changed	-1697
▁throughout	-1698
ases	-1699
▁issu	-1700
▁looks	-1701
▁strugg	-1702
▁founding	-1703
gy	-1704
▁ins	-1705
▁huang	-1706
▁presidents	-1707
▁est	-1708
▁ret	-1709
▁easily	-1710
▁presid	-1711
▁finally	-1712
▁prevent	-1713
▁addition	-1714
▁cost	-1715
▁sick	-1716
▁forced	-1717
▁traffic	-1718
ud	-1719
▁ple	-1720
▁fath	-1721
▁thir	-1722
▁choices	-1723
ries	-1724
▁trip	-1725
▁compared	-1726
▁pollution	-1727
▁ele	-1728
▁differen	-1729
▁disagree	-1730
▁shad	-1731
▁works	-1732
▁issues	-1733
▁fathers	-1734
bal	-1735
ows	-1736
▁until	-1737
▁argument	-1738
▁ang	-1739
▁rid	-1740
▁cent	-1741
▁higher	-1742
▁options	-1743
▁positive	-1744
leep	-1745
▁char	-1746
▁points	-1747
▁outdated	-1748
io	-1749
ivity	-1750
▁sugg	-1751
▁young	-1752
▁distracted	-1753
ts	-1754
▁tru	-1755
▁pursuit	-1756
▁rule	-1757
▁expect	-1758
▁representatives	-1759
▁fear	-1760
▁facts	-1761
get	-1762
▁inf	-1763
▁greater	-1764
▁motiv	-1765
▁impact	-1766
▁living	-1767
▁closest	-1768
▁consists	-1769
cer	-1770
ived	-1771
ross	-1772
▁leg	-1773
▁sent	-1774
ted	-1775
ister	-1776
▁gore	-1777
▁suggest	-1778
▁food	-1779
▁week	-1780
▁image	-1781
▁itself	-1782
▁usually	-1783
iod	-1784
▁da	-1785
gest	-1786
▁individual	-1787
▁solution	-1788
▁decisions	-1789
iddle	-1790
▁size	-1791
icking	-1792
▁specific	-1793
▁teaching	-1794
▁inn	-1795
▁ref	-1796
▁night	-1797
▁ground	-1798
ately	-1799
▁star	-1800
▁paris	-1801
▁closer	-1802
▁factor	-1803
▁middle	-1804
▁faces	-1805
▁nation	-1806
▁responsib	-1807
iety	-1808
▁fix	-1809
▁non	-1810
▁typ	-1811
▁term	-1812
▁obama	-1813
ital	-1814
▁known	-1815
▁happens	-1816
▁00	-1817
▁eur	-1818
▁half	-1819
▁er	-1820
▁model	-1821
▁ago	-1822
▁save	-1823
▁advan	-1824
▁cou	-1825
▁irr	-1826
▁chos	-1827
up	-1828
▁entire	-1829
▁cool	-1830
▁forms	-1831
▁europe	-1832
▁decided	-1833
▁towards	-1834
▁decre	-1835
▁miles	-1836
▁limited	-1837
bers	-1838
▁met	-1839
▁hurt	-1840
▁crash	-1841
▁possibly	-1842
ised	-1843
▁gar	-1844
▁med	-1845
▁plus	-1846
▁teen	-1847
ourses	-1848
▁exact	-1849
▁negative	-1850
▁challenging	-1851
man	-1852
▁age	-1853
▁whe	-1854
▁lets	-1855
▁norm	-1856
▁prefer	-1857
▁interesting	-1858
abl	-1859
▁et	-1860
heit	-1861
oral	-1862
▁201	-1863
▁fine	-1864
▁seems	-1865
▁270	-1866
▁vir	-1867
▁body	-1868
▁basic	-1869
▁plant	-1870
▁sound	-1871
▁courses	-1872
▁features	-1873
▁fall	-1874
▁harm	-1875
▁mach	-1876
▁senat	-1877
▁carbon	-1878
▁viking	-1879
▁comfortable	-1880
pr	-1881
ues	-1882
▁glo	-1883
▁mart	-1884
▁prof	-1885
▁step	-1886
▁cowboys	-1887
of	-1888
ov	-1889
ires	-1890
ition	-1891
▁came	-1892
▁coun	-1893
▁picking	-1894
▁helped	-1895
▁period	-1896
▁conferencing	-1897
▁jobs	-1898
▁pret	-1899
▁room	-1900
▁word	-1901
ination	-1902
▁useful	-1903
▁perspect	-1904
und	-1905
▁taught	-1906
▁telling	-1907
▁limiting	-1908
umb	-1909
umer	-1910
▁desc	-1911
▁didnt	-1912
▁ident	-1913
renheit	-1914
▁irrational	-1915
ood	-1916
urb	-1917
▁occ	-1918
▁final	-1919
▁becoming	-1920
▁ge	-1921
▁199	-1922
▁tax	-1923
▁share	-1924
▁chosen	-1925
▁meaning	-1926
▁planets	-1927
▁putting	-1928
▁expression	-1929
ina	-1930
ired	-1931
▁hon	-1932
▁perf	-1933
▁playing	-1934
▁development	-1935
▁etc	-1936
▁left	-1937
▁stri	-1938
▁effic	-1939
▁establ	-1940
▁assigned	-1941
▁physical	-1942
▁everybody	-1943
▁responsible	-1944
adem	-1945
▁buy	-1946
▁rich	-1947
▁soon	-1948
▁autom	-1949
▁sleep	-1950
▁academ	-1951
ox	-1952
oura	-1953
iment	-1954
▁hist	-1955
▁weather	-1956
▁fah	-1957
▁gone	-1958
iously	-1959
▁truly	-1960
▁camera	-1961
▁elected	-1962
▁countries	-1963
net	-1964
gust	-1965
ensive	-1966
▁situations	-1967
ax	-1968
ores	-1969
▁wheel	-1970
▁green	-1971
▁finish	-1972
▁pretty	-1973
▁000	-1974
▁task	-1975
▁clubs	-1976
▁equal	-1977
▁peers	-1978
▁waste	-1979
▁bigger	-1980
▁started	-1981
▁walking	-1982
▁gave	-1983
▁tend	-1984
▁boring	-1985
▁schedule	-1986
▁advantage	-1987
▁potential	-1988
▁creativity	-1989
▁difference	-1990
akes	-1991
enty	-1992
like	-1993
ured	-1994
▁web	-1995
▁full	-1996
▁lower	-1997
▁trash	-1998
▁access	-1999
▁mental	-2000
▁regard	-2001
▁necessary	-2002
ings	-2003
▁dev	-2004
▁mad	-2005
▁amaz	-2006
▁harder	-2007
▁abolish	-2008
▁perfect	-2009
▁product	-2010
▁purp	-2011
▁rules	-2012
▁correct	-2013
▁further	-2014
▁mist	-2015
▁angry	-2016
▁innov	-2017
▁ready	-2018
▁plumer	-2019
▁sensors	-2020
▁streets	-2021
▁interested	-2022
ape	-2023
ged	-2024
▁laws	-2025
atever	-2026
▁alone	-2027
▁current	-2028
▁whatever	-2029
▁questions	-2030
vey	-2031
▁90	-2032
▁cy	-2033
antly	-2034
round	-2035
▁organ	-2036
▁worse	-2037
▁bal	-2038
▁war	-2039
▁discus	-2040
▁regular	-2041
▁97	-2042
▁determ	-2043
▁instance	-2044
▁fahrenheit	-2045
▁ten	-2046
▁diox	-2047
▁minds	-2048
▁global	-2049
▁receive	-2050
▁wouldnt	-2051
leg	-2052
itch	-2053
▁becu	-2054
▁conv	-2055
▁caused	-2056
▁creative	-2057
▁including	-2058
▁presidency	-2059
tern	-2060
▁fle	-2061
icles	-2062
▁repl	-2063
▁ship	-2064
▁emiss	-2065
▁teens	-2066
▁reduce	-2067
▁ok	-2068
▁month	-2069
▁relax	-2070
▁comprom	-2071
▁va	-2072
▁vo	-2073
▁ups	-2074
▁conn	-2075
▁math	-2076
▁priv	-2077
▁dioxide	-2078
▁science	-2079
▁involved	-2080
ota	-2081
▁doesnt	-2082
▁longer	-2083
▁recognize	-2084
▁personally	-2085
▁lots	-2086
▁event	-2087
▁remem	-2088
▁connect	-2089
▁encoura	-2090
▁showing	-2091
con	-2092
▁appro	-2093
▁photo	-2094
▁value	-2095
▁adults	-2096
▁interests	-2097
ism	-2098
▁busy	-2099
▁cali	-2100
▁reci	-2101
▁accom	-2102
▁quick	-2103
▁history	-2104
▁martian	-2105
▁experiences	-2106
▁distractions	-2107
▁communication	-2108
▁seeing	-2109
▁amazing	-2110
▁extremely	-2111
ked	-2112
▁mostly	-2113
▁within	-2114
▁becuase	-2115
▁million	-2116
▁realize	-2117
▁somebody	-2118
don	-2119
oub	-2120
▁anx	-2121
▁bit	-2122
▁prove	-2123
▁aspect	-2124
▁couple	-2125
▁detect	-2126
▁lastly	-2127
▁thinks	-2128
▁writing	-2129
▁creating	-2130
▁requires	-2131
▁supposed	-2132
▁speed	-2133
▁visit	-2134
▁concept	-2135
▁richard	-2136
ins	-2137
▁197	-2138
▁nice	-2139
▁appeal	-2140
▁oceans	-2141
▁increase	-2142
br	-2143
ior	-2144
ped	-2145
ering	-2146
▁calc	-2147
▁check	-2148
▁mouth	-2149
▁suburb	-2150
▁various	-2151
asc	-2152
▁ast	-2153
▁third	-2154
▁water	-2155
▁succeed	-2156
▁electron	-2157
▁instruct	-2158
aw	-2159
ude	-2160
▁track	-2161
▁causes	-2162
▁disgust	-2163
▁greatly	-2164
ley	-2165
▁bog	-2166
▁sna	-2167
▁hund	-2168
▁short	-2169
▁detail	-2170
▁advanced	-2171
hips	-2172
▁six	-2173
▁essay	-2174
▁occur	-2175
▁resour	-2176
▁systems	-2177
▁canidates	-2178
▁inj	-2179
ction	-2180
▁vaub	-2181
▁roads	-2182
▁cities	-2183
▁clouds	-2184
▁handle	-2185
▁highly	-2186
▁proper	-2187
▁disaster	-2188
▁feelings	-2189
▁compromise	-2190
▁established	-2191
ake	-2192
fact	-2193
▁cat	-2194
▁dra	-2195
▁chose	-2196
▁safer	-2197
▁califor	-2198
▁shadows	-2199
▁district	-2200
ah	-2201
ket	-2202
▁lazy	-2203
▁wasn	-2204
▁assist	-2205
▁explains	-2206
▁selecting	-2207
▁ach	-2208
donia	-2209
▁game	-2210
▁pros	-2211
▁please	-2212
▁meeting	-2213
▁practice	-2214
▁emissions	-2215
yle	-2216
▁ride	-2217
▁twin	-2218
▁talks	-2219
▁hundred	-2220
▁respect	-2221
ney	-2222
▁25	-2223
ains	-2224
ieve	-2225
▁saw	-2226
▁area	-2227
▁bull	-2228
▁town	-2229
▁wins	-2230
▁limit	-2231
▁tells	-2232
▁teenag	-2233
▁setting	-2234
▁studies	-2235
▁successful	-2236
book	-2237
▁abs	-2238
▁cra	-2239
▁lit	-2240
▁myself	-2241
▁lessons	-2242
▁identify	-2243
imin	-2244
▁2001	-2245
▁hear	-2246
▁sort	-2247
▁letting	-2248
▁prepare	-2249
▁advantages	-2250
cil	-2251
nia	-2252
▁bro	-2253
▁disp	-2254
▁heard	-2255
▁cydonia	-2256
▁loc	-2257
▁indep	-2258
ew	-2259
pped	-2260
duced	-2261
▁flaw	-2262
▁recie	-2263
▁vauban	-2264
▁wonder	-2265
▁remember	-2266
▁basically	-2267
▁30	-2268
▁tot	-2269
▁dest	-2270
▁aware	-2271
▁forget	-2272
▁biggest	-2273
▁thoughts	-2274
▁supported	-2275
lu	-2276
▁bush	-2277
▁butte	-2278
▁moder	-2279
▁exactly	-2280
▁prepared	-2281
▁efficient	-2282
▁california	-2283
▁temperature	-2284
▁low	-2285
▁older	-2286
▁reach	-2287
▁terms	-2288
▁inside	-2289
▁colleges	-2290
▁internet	-2291
▁stressful	-2292
▁mount	-2293
▁reality	-2294
▁ran	-2295
▁cert	-2296
▁dens	-2297
▁emer	-2298
▁write	-2299
▁honest	-2300
iar	-2301
isl	-2302
▁goog	-2303
▁exist	-2304
▁parts	-2305
▁families	-2306
▁republic	-2307
ined	-2308
▁rad	-2309
▁germ	-2310
▁hour	-2311
▁alert	-2312
▁texas	-2313
▁posner	-2314
▁topics	-2315
▁discover	-2316
to	-2317
ury	-2318
ricul	-2319
▁knew	-2320
▁manage	-2321
▁modern	-2322
▁provides	-2323
▁temperatures	-2324
uals	-2325
▁tou	-2326
iving	-2327
endent	-2328
▁paper	-2329
▁bogota	-2330
▁companies	-2331
ront	-2332
▁cut	-2333
▁gon	-2334
▁heat	-2335
▁manu	-2336
riculum	-2337
▁vehicles	-2338
▁classrooms	-2339
tle	-2340
chan	-2341
▁lea	-2342
▁orb	-2343
▁pie	-2344
vered	-2345
▁anger	-2346
▁solve	-2347
▁looked	-2348
▁normal	-2349
▁complic	-2350
▁extreme	-2351
▁smaller	-2352
▁relations	-2353
elt	-2354
oes	-2355
uth	-2356
▁nix	-2357
enses	-2358
▁doub	-2359
ograph	-2360
▁surpr	-2361
▁across	-2362
▁google	-2363
▁happier	-2364
▁landforms	-2365
ands	-2366
▁rom	-2367
ulate	-2368
▁china	-2369
▁whats	-2370
▁greenh	-2371
▁americans	-2372
▁hit	-2373
▁lif	-2374
▁emerg	-2375
▁fault	-2376
▁legisl	-2377
▁covered	-2378
▁focused	-2379
acy	-2380
ades	-2381
erve	-2382
kets	-2383
ially	-2384
▁profess	-2385
▁ah	-2386
▁ed	-2387
oint	-2388
▁acid	-2389
▁books	-2390
▁german	-2391
▁univers	-2392
▁communicate	-2393
que	-2394
ford	-2395
ances	-2396
▁foot	-2397
▁death	-2398
▁sever	-2399
ability	-2400
▁couldn	-2401
▁turned	-2402
▁unlike	-2403
▁worked	-2404
▁national	-2405
▁luck	-2406
▁seek	-2407
▁uses	-2408
▁wish	-2409
▁areas	-2410
▁gonna	-2411
▁astron	-2412
▁manufact	-2413
▁qualified	-2414
▁greenhouse	-2415
dd	-2416
ps	-2417
rop	-2418
▁deb	-2419
▁drop	-2420
▁feed	-2421
ration	-2422
▁apply	-2423
▁cases	-2424
▁bright	-2425
▁changes	-2426
▁responsibility	-2427
aly	-2428
ulf	-2429
ites	-2430
more	-2431
pher	-2432
▁brad	-2433
▁wait	-2434
▁truth	-2435
▁nobody	-2436
▁results	-2437
▁curriculum	-2438
▁10	-2439
ield	-2440
▁ken	-2441
▁mor	-2442
▁board	-2443
▁influ	-2444
▁media	-2445
▁senator	-2446
▁formation	-2447
▁selection	-2448
▁bey	-2449
erous	-2450
ought	-2451
▁homes	-2452
▁intro	-2453
▁proof	-2454
▁react	-2455
▁theres	-2456
▁individuals	-2457
hn	-2458
ida	-2459
▁fu	-2460
▁hop	-2461
orida	-2462
▁fight	-2463
▁nixon	-2464
▁south	-2465
▁ensure	-2466
▁clearly	-2467
▁density	-2468
▁depress	-2469
▁florida	-2470
▁several	-2471
▁staying	-2472
▁stressed	-2473
▁struggle	-2474
▁distraction	-2475
vent	-2476
▁sat	-2477
▁wid	-2478
asing	-2479
▁pace	-2480
▁letter	-2481
▁sister	-2482
▁causing	-2483
▁quality	-2484
▁deciding	-2485
▁supports	-2486
ios	-2487
iled	-2488
▁suff	-2489
▁thous	-2490
▁treat	-2491
▁belive	-2492
▁recent	-2493
▁discuss	-2494
▁bradford	-2495
ping	-2496
rate	-2497
▁lic	-2498
▁mal	-2499
▁red	-2500
iling	-2501
▁boat	-2502
▁fast	-2503
▁flex	-2504
▁hover	-2505
▁quote	-2506
▁larger	-2507
▁survey	-2508
▁balance	-2509
▁presents	-2510
▁watching	-2511
▁resources	-2512
ril	-2513
nedy	-2514
▁fit	-2515
osing	-2516
▁held	-2517
▁late	-2518
▁brain	-2519
▁weeks	-2520
▁driven	-2521
▁mechan	-2522
▁kennedy	-2523
▁purpose	-2524
▁z	-2525
aking	-2526
▁defin	-2527
▁front	-2528
▁touch	-2529
oration	-2530
▁avoids	-2531
▁beyond	-2532
▁elimin	-2533
▁formed	-2534
▁nearly	-2535
▁object	-2536
▁picked	-2537
▁passion	-2538
ertainment	-2539
▁motivation	-2540
▁perspective	-2541
cle	-2542
illed	-2543
▁capt	-2544
▁john	-2545
▁accur	-2546
▁april	-2547
▁force	-2548
▁region	-2549
▁charact	-2550
▁special	-2551
▁previous	-2552
ral	-2553
▁push	-2554
▁upon	-2555
▁artif	-2556
▁gradu	-2557
unities	-2558
▁compet	-2559
▁concer	-2560
▁paying	-2561
▁proven	-2562
▁healthy	-2563
▁survive	-2564
▁building	-2565
▁painting	-2566
▁arguments	-2567
ich	-2568
oss	-2569
sequ	-2570
▁cir	-2571
▁vac	-2572
▁reve	-2573
▁daily	-2574
▁style	-2575
▁voice	-2576
▁actual	-2577
▁columb	-2578
▁romney	-2579
▁mention	-2580
▁examples	-2581
▁numerous	-2582
▁imm	-2583
▁sea	-2584
iable	-2585
▁virt	-2586
▁fully	-2587
▁occas	-2588
▁active	-2589
▁accompl	-2590
▁machine	-2591
▁mission	-2592
▁electing	-2593
▁focusing	-2594
▁construct	-2595
ays	-2596
aters	-2597
▁stat	-2598
▁early	-2599
▁sides	-2600
plement	-2601
▁altern	-2602
▁passen	-2603
▁weight	-2604
▁answers	-2605
▁missing	-2606
▁counting	-2607
▁teenagers	-2608
▁dre	-2609
▁ste	-2610
▁base	-2611
▁trad	-2612
▁catch	-2613
▁thick	-2614
▁basket	-2615
▁faster	-2616
▁anymore	-2617
▁devices	-2618
▁members	-2619
▁participating	-2620
cel	-2621
ters	-2622
▁fed	-2623
▁cham	-2624
▁tool	-2625
▁ahead	-2626
▁basis	-2627
▁keeps	-2628
▁device	-2629
▁regional	-2630
▁expensive	-2631
▁implement	-2632
erry	-2633
▁fuel	-2634
▁kept	-2635
▁oper	-2636
▁prot	-2637
ermore	-2638
pheric	-2639
▁avail	-2640
▁carry	-2641
▁leads	-2642
▁types	-2643
ization	-2644
▁photos	-2645
▁consequ	-2646
▁standard	-2647
▁furthermore	-2648
▁mov	-2649
aining	-2650
▁volun	-2651
▁variety	-2652
▁developed	-2653
aps	-2654
aut	-2655
omb	-2656
the	-2657
▁aw	-2658
▁rare	-2659
coming	-2660
▁monday	-2661
▁screen	-2662
▁becomes	-2663
▁serious	-2664
▁emergency	-2665
fully	-2666
▁blan	-2667
▁deep	-2668
▁goal	-2669
▁kerry	-2670
▁decades	-2671
▁describ	-2672
▁include	-2673
▁landing	-2674
▁artifact	-2675
▁surround	-2676
▁designing	-2677
▁determine	-2678
▁basketball	-2679
▁particular	-2680
ock	-2681
▁adm	-2682
▁bob	-2683
ended	-2684
ision	-2685
omers	-2686
▁laid	-2687
▁spot	-2688
▁field	-2689
▁plans	-2690
▁quite	-2691
▁shape	-2692
▁includ	-2693
▁litter	-2694
▁moving	-2695
▁unable	-2696
▁produce	-2697
▁approach	-2698
▁yearbook	-2699
gn	-2700
▁die	-2701
▁hor	-2702
ument	-2703
▁bill	-2704
▁stra	-2705
▁thus	-2706
▁imposs	-2707
▁unique	-2708
▁council	-2709
▁evening	-2710
▁waiting	-2711
▁following	-2712
▁educational	-2713
lev	-2714
aced	-2715
▁tut	-2716
▁cult	-2717
▁valle	-2718
▁senate	-2719
▁unless	-2720
▁general	-2721
▁innovation	-2722
ros	-2723
test	-2724
▁mis	-2725
▁obv	-2726
▁tried	-2727
▁trusted	-2728
▁younger	-2729
▁columbia	-2730
ime	-2731
▁23	-2732
eral	-2733
▁rob	-2734
▁guid	-2735
▁path	-2736
▁deleg	-2737
▁anxiety	-2738
▁certific	-2739
▁strongly	-2740
▁driveless	-2741
▁happening	-2742
▁mountains	-2743
▁movements	-2744
gs	-2745
ode	-2746
wise	-2747
▁bes	-2748
▁boy	-2749
▁flo	-2750
istic	-2751
▁elct	-2752
▁enfor	-2753
▁finding	-2754
▁forward	-2755
▁hottest	-2756
▁academic	-2757
▁directly	-2758
▁constantly	-2759
orm	-2760
cise	-2761
ried	-2762
▁rev	-2763
▁2012	-2764
▁decl	-2765
▁dole	-2766
▁isnt	-2767
▁slow	-2768
idents	-2769
▁report	-2770
▁insight	-2771
▁persons	-2772
▁mechanical	-2773
▁50	-2774
amed	-2775
▁shown	-2776
▁except	-2777
▁volunte	-2778
▁receives	-2779
▁certainty	-2780
▁character	-2781
▁principle	-2782
▁opportunities	-2783
gth	-2784
▁id	-2785
aged	-2786
▁beac	-2787
▁orig	-2788
▁eight	-2789
▁indef	-2790
▁maint	-2791
▁words	-2792
itional	-2793
▁crashes	-2794
▁believed	-2795
▁received	-2796
▁impossible	-2797
▁oh	-2798
sent	-2799
▁asc	-2800
duces	-2801
▁rely	-2802
▁piece	-2803
▁speak	-2804
▁upset	-2805
▁views	-2806
ensible	-2807
▁street	-2808
▁chances	-2809
▁details	-2810
▁familiar	-2811
▁millions	-2812
▁atmospheric	-2813
▁traditional	-2814
utes	-2815
▁cru	-2816
ining	-2817
rible	-2818
▁crit	-2819
▁felt	-2820
▁pull	-2821
▁trips	-2822
▁spaces	-2823
▁achieve	-2824
▁morning	-2825
▁position	-2826
▁physically	-2827
▁considering	-2828
rupt	-2829
▁eye	-2830
▁ped	-2831
▁kill	-2832
▁role	-2833
▁fewer	-2834
▁lands	-2835
▁widely	-2836
entially	-2837
▁advance	-2838
▁craters	-2839
▁willing	-2840
▁upcoming	-2841
▁electronics	-2842
ark	-2843
can	-2844
ighb	-2845
▁sky	-2846
▁ter	-2847
arter	-2848
point	-2849
utions	-2850
▁compl	-2851
▁thier	-2852
▁tight	-2853
ionally	-2854
▁afford	-2855
▁became	-2856
▁expand	-2857
▁leader	-2858
▁struct	-2859
▁company	-2860
▁sending	-2861
▁vacation	-2862
▁generally	-2863
▁presented	-2864
▁electorial	-2865
ns	-2866
omy	-2867
oses	-2868
▁eat	-2869
▁temp	-2870
▁buses	-2871
▁anyway	-2872
▁growing	-2873
▁valleys	-2874
▁mistakes	-2875
▁happiness	-2876
▁thousands	-2877
▁neighb	-2878
▁origin	-2879
▁capable	-2880
▁factors	-2881
▁hovering	-2882
▁powerful	-2883
▁available	-2884
irl	-2885
pid	-2886
ror	-2887
back	-2888
rest	-2889
▁unc	-2890
▁cris	-2891
▁assum	-2892
▁feels	-2893
▁table	-2894
▁contact	-2895
▁element	-2896
▁sadness	-2897
▁business	-2898
▁starting	-2899
▁developing	-2900
▁astronomers	-2901
▁independent	-2902
gaz	-2903
put	-2904
ians	-2905
▁pix	-2906
▁wan	-2907
enced	-2908
ising	-2909
mates	-2910
▁bias	-2911
▁girl	-2912
▁apart	-2913
▁notes	-2914
▁resol	-2915
▁france	-2916
▁modify	-2917
▁spread	-2918
▁chamber	-2919
▁creates	-2920
▁sitting	-2921
▁wanting	-2922
▁football	-2923
▁signific	-2924
▁subjects	-2925
▁technolog	-2926
▁accomplish	-2927
ilt	-2928
▁12	-2929
▁log	-2930
▁ult	-2931
▁sulf	-2932
▁tired	-2933
▁ultim	-2934
▁biased	-2935
▁caught	-2936
▁record	-2937
▁sounds	-2938
▁federal	-2939
▁decrease	-2940
▁surveyor	-2941
▁encourage	-2942
▁statement	-2943
▁completing	-2944
▁indefensible	-2945
ale	-2946
▁jam	-2947
▁lie	-2948
▁sam	-2949
ently	-2950
▁dead	-2951
▁flaws	-2952
▁prior	-2953
▁rights	-2954
▁sources	-2955
▁depending	-2956
atic	-2957
mber	-2958
▁sil	-2959
iring	-2960
▁doll	-2961
▁hang	-2962
▁hide	-2963
▁poor	-2964
▁whom	-2965
▁thank	-2966
▁career	-2967
▁respon	-2968
▁starts	-2969
▁citizen	-2970
▁contrib	-2971
▁somewhere	-2972
▁interaction	-2973
▁possibility	-2974
ob	-2975
omm	-2976
▁mix	-2977
▁fake	-2978
▁cover	-2979
▁century	-2980
▁holding	-2981
▁anywhere	-2982
▁manufacture	-2983
ats	-2984
ray	-2985
vin	-2986
▁egy	-2987
idden	-2988
▁among	-2989
▁lived	-2990
▁lucky	-2991
▁tests	-2992
▁colomb	-2993
▁expert	-2994
▁gained	-2995
▁showed	-2996
▁dispute	-2997
▁effects	-2998
▁leading	-2999
▁leaving	-3000
▁blankets	-3001
▁photograph	-3002
ret	-3003
▁fi	-3004
ival	-3005
▁civ	-3006
▁key	-3007
▁wis	-3008
▁exer	-3009
▁ocean	-3010
▁pixel	-3011
ibility	-3012
▁accept	-3013
▁contro	-3014
▁proves	-3015
▁slight	-3016
▁thanks	-3017
▁movement	-3018
▁progress	-3019
▁shouldnt	-3020
rs	-3021
haps	-3022
▁okay	-3023
▁west	-3024
inated	-3025
▁benif	-3026
▁frequ	-3027
▁super	-3028
▁crisis	-3029
▁member	-3030
▁months	-3031
▁thrown	-3032
▁reduced	-3033
▁defenses	-3034
▁secondly	-3035
▁surprise	-3036
▁exploration	-3037
▁consideration	-3038
my	-3039
▁jim	-3040
▁mer	-3041
▁obs	-3042
▁camp	-3043
▁post	-3044
▁award	-3045
▁total	-3046
▁engage	-3047
▁protect	-3048
▁smarter	-3049
▁honestly	-3050
▁programs	-3051
▁enjoyable	-3052
▁challenges	-3053
bb	-3054
▁ann	-3055
▁box	-3056
ience	-3057
itude	-3058
ories	-3059
▁hars	-3060
▁tues	-3061
▁crazy	-3062
▁egypt	-3063
▁risks	-3064
▁throw	-3065
▁played	-3066
▁plenty	-3067
▁tested	-3068
▁aspects	-3069
▁license	-3070
▁related	-3071
▁educated	-3072
▁monument	-3073
▁completed	-3074
▁receiving	-3075
app	-3076
reg	-3077
atory	-3078
▁draw	-3079
▁econ	-3080
▁nose	-3081
▁pred	-3082
▁brings	-3083
▁invent	-3084
▁sevent	-3085
▁besides	-3086
▁conduct	-3087
▁illness	-3088
▁perhaps	-3089
▁tuesday	-3090
▁cleaning	-3091
▁selected	-3092
▁otherwise	-3093
▁considered	-3094
▁struggling	-3095
xim	-3096
▁55	-3097
gers	-3098
ples	-3099
▁dam	-3100
using	-3101
▁dies	-3102
▁doct	-3103
▁larg	-3104
▁park	-3105
▁anach	-3106
▁harsh	-3107
▁meant	-3108
▁music	-3109
▁muscle	-3110
▁sulfur	-3111
▁germany	-3112
▁register	-3113
▁beginning	-3114
▁alternative	-3115
▁certificate	-3116
imp	-3117
▁dad	-3118
▁dig	-3119
▁haz	-3120
▁lat	-3121
▁soc	-3122
acing	-3123
ators	-3124
▁fore	-3125
▁gree	-3126
▁news	-3127
▁none	-3128
▁absol	-3129
▁dream	-3130
▁safely	-3131
▁switch	-3132
▁crucial	-3133
▁defense	-3134
▁leaders	-3135
▁matters	-3136
▁treated	-3137
▁whoever	-3138
▁believes	-3139
▁residents	-3140
▁elementary	-3141
ses	-3142
ronism	-3143
▁fiasc	-3144
▁stick	-3145
▁tasks	-3146
▁suffer	-3147
▁bullying	-3148
▁straight	-3149
▁sulfuric	-3150
▁whenever	-3151
▁influence	-3152
▁presidental	-3153
▁occasionally	-3154
▁relationships	-3155
▁51	-3156
▁nom	-3157
bered	-3158
▁dram	-3159
▁mass	-3160
▁toss	-3161
▁attem	-3162
▁heart	-3163
▁stren	-3164
▁fiasco	-3165
▁garvin	-3166
▁levels	-3167
▁forcing	-3168
▁periods	-3169
▁smiling	-3170
▁accurate	-3171
▁appeared	-3172
▁reliable	-3173
▁classmates	-3174
▁ultimately	-3175
▁university	-3176
rew	-3177
▁gl	-3178
ants	-3179
▁asso	-3180
▁ener	-3181
▁heav	-3182
▁mand	-3183
itable	-3184
rosive	-3185
▁motor	-3186
▁banned	-3187
▁curios	-3188
▁mother	-3189
▁twenty	-3190
▁consist	-3191
▁democra	-3192
▁equally	-3193
▁favorite	-3194
▁provided	-3195
▁eventually	-3196
▁additionally	-3197
ata	-3198
let	-3199
lly	-3200
▁cha	-3201
▁eck	-3202
▁jud	-3203
▁pun	-3204
▁une	-3205
overed	-3206
▁ended	-3207
▁plain	-3208
▁store	-3209
▁claims	-3210
▁greece	-3211
▁pollut	-3212
▁scared	-3213
▁concent	-3214
▁earthqu	-3215
▁worried	-3216
▁maintain	-3217
▁official	-3218
▁perspectives	-3219
just	-3220
lict	-3221
▁500	-3222
▁ath	-3223
▁lab	-3224
▁odd	-3225
▁sta	-3226
itely	-3227
orses	-3228
▁simpl	-3229
▁events	-3230
▁horses	-3231
▁fearful	-3232
▁largely	-3233
▁exercise	-3234
▁properly	-3235
▁solutions	-3236
▁traveling	-3237
▁everywhere	-3238
▁experiment	-3239
▁generation	-3240
▁complicated	-3241
we	-3242
iate	-3243
▁del	-3244
▁gro	-3245
▁sel	-3246
▁fasc	-3247
▁line	-3248
▁wake	-3249
▁cross	-3250
▁wanna	-3251
▁belief	-3252
▁automob	-3253
▁content	-3254
▁survived	-3255
▁corrosive	-3256
▁passengers	-3257
▁republican	-3258
va	-3259
hal	-3260
mble	-3261
onst	-3262
▁ine	-3263
oment	-3264
ooled	-3265
▁circ	-3266
▁pref	-3267
ducing	-3268
▁becas	-3269
▁likes	-3270
▁satis	-3271
▁voter	-3272
▁advent	-3273
▁remain	-3274
▁soccer	-3275
▁brought	-3276
▁numbers	-3277
abilities	-3278
▁illusion	-3279
▁abolished	-3280
▁curiosity	-3281
▁listening	-3282
▁anachronism	-3283
▁imagination	-3284
▁ascertainment	-3285
osp	-3286
▁wy	-3287
▁100	-3288
astic	-3289
▁civil	-3290
▁displ	-3291
▁associ	-3292
▁assure	-3293
▁missed	-3294
▁promot	-3295
▁remind	-3296
▁return	-3297
▁reveal	-3298
▁volcan	-3299
▁cameras	-3300
▁continu	-3301
▁largest	-3302
▁samples	-3303
▁democracy	-3304
▁mandatory	-3305
▁confidence	-3306
▁consequences	-3307
ots	-3308
▁obt	-3309
▁rocky	-3310
▁stuck	-3311
▁eckman	-3312
▁groups	-3313
▁stores	-3314
▁theory	-3315
▁depends	-3316
▁senators	-3317
▁definitely	-3318
ink	-3319
▁mr	-3320
ange	-3321
lish	-3322
▁ant	-3323
▁cop	-3324
▁ign	-3325
etime	-3326
▁hobb	-3327
▁built	-3328
▁cheat	-3329
▁haven	-3330
▁serve	-3331
senthal	-3332
urality	-3333
▁adding	-3334
▁enable	-3335
▁rarely	-3336
▁talked	-3337
▁actions	-3338
▁deserve	-3339
▁methods	-3340
▁includes	-3341
▁strength	-3342
▁disgusted	-3343
▁ourselves	-3344
▁rosenthal	-3345
▁curricular	-3346
ny	-3347
old	-3348
▁ut	-3349
▁hab	-3350
▁data	-3351
▁race	-3352
▁serv	-3353
▁vict	-3354
▁blame	-3355
▁valid	-3356
▁advise	-3357
▁energy	-3358
▁invest	-3359
▁plates	-3360
▁account	-3361
▁engaged	-3362
▁injured	-3363
▁despised	-3364
▁diffrent	-3365
▁egyptian	-3366
▁original	-3367
▁popularity	-3368
▁requirement	-3369
ids	-3370
pir	-3371
itted	-3372
▁perm	-3373
▁shar	-3374
urning	-3375
▁blimp	-3376
▁vinci	-3377
▁shadow	-3378
▁culture	-3379
▁joining	-3380
▁studied	-3381
▁wyoming	-3382
▁function	-3383
▁response	-3384
▁spending	-3385
▁plurality	-3386
▁additional	-3387
▁depression	-3388
▁productive	-3389
▁earthquakes	-3390
lies	-3391
load	-3392
▁gra	-3393
izing	-3394
lling	-3395
ously	-3396
▁nove	-3397
▁admin	-3398
▁magaz	-3399
▁buying	-3400
▁doubts	-3401
▁moment	-3402
▁nomine	-3403
▁becasue	-3404
▁dollars	-3405
▁machines	-3406
▁regarded	-3407
▁resemble	-3408
▁unlikely	-3409
▁brightest	-3410
▁confusing	-3411
▁mentioned	-3412
▁enviroment	-3413
▁increasing	-3414
▁researchers	-3415
ai	-3416
sy	-3417
mar	-3418
▁11	-3419
iter	-3420
▁sib	-3421
istics	-3422
▁disad	-3423
▁incor	-3424
▁minim	-3425
▁spent	-3426
▁carter	-3427
▁cattle	-3428
▁credit	-3429
▁diesel	-3430
▁movies	-3431
▁videos	-3432
▁counted	-3433
▁parking	-3434
▁stopped	-3435
▁entirely	-3436
▁neighbor	-3437
▁someones	-3438
▁worrying	-3439
▁structure	-3440
▁viewpoint	-3441
▁representative	-3442
oh	-3443
time	-3444
▁fly	-3445
▁defy	-3446
▁loved	-3447
▁mixed	-3448
▁exceed	-3449
▁losing	-3450
▁english	-3451
▁equival	-3452
▁reflect	-3453
▁suburbs	-3454
▁operating	-3455
▁practical	-3456
▁instructor	-3457
▁schoolwork	-3458
rd	-3459
▁hi	-3460
ises	-3461
wide	-3462
▁aud	-3463
▁rub	-3464
▁seg	-3465
▁wre	-3466
pares	-3467
▁bike	-3468
▁geor	-3469
▁isol	-3470
▁phar	-3471
▁vary	-3472
▁breat	-3473
▁cloth	-3474
▁oppose	-3475
▁arguing	-3476
▁demonst	-3477
▁efforts	-3478
▁quickly	-3479
▁spaceship	-3480
▁wonderful	-3481
▁contribute	-3482
cked	-3483
iana	-3484
vant	-3485
▁eld	-3486
uries	-3487
▁guys	-3488
▁onto	-3489
ground	-3490
iments	-3491
ledged	-3492
▁chaos	-3493
▁hopef	-3494
▁jimmy	-3495
▁refer	-3496
▁river	-3497
▁betray	-3498
▁breaks	-3499
▁charge	-3500
▁unfort	-3501
▁attempt	-3502
▁beacuse	-3503
▁capital	-3504
▁minutes	-3505
▁mistake	-3506
▁predict	-3507
▁sibling	-3508
▁baseball	-3509
▁conflict	-3510
▁elctoral	-3511
▁graduate	-3512
▁suggests	-3513
▁materials	-3514
▁organized	-3515
▁equivalent	-3516
▁thoughtful	-3517
▁experienced	-3518
aho	-3519
erv	-3520
hood	-3521
land	-3522
ming	-3523
ploy	-3524
▁mir	-3525
arily	-3526
phone	-3527
▁rout	-3528
▁unit	-3529
encing	-3530
▁amend	-3531
▁arent	-3532
▁grand	-3533
▁begins	-3534
▁mainly	-3535
▁plants	-3536
▁retain	-3537
▁complain	-3538
▁concepts	-3539
▁expected	-3540
▁november	-3541
▁prepares	-3542
▁schooled	-3543
▁calculate	-3544
▁essential	-3545
▁hopefully	-3546
▁typically	-3547
▁potentially	-3548
cks	-3549
alls	-3550
ners	-3551
▁170	-3552
itive	-3553
▁host	-3554
▁rate	-3555
▁seat	-3556
▁unne	-3557
▁wide	-3558
erence	-3559
ivable	-3560
ounter	-3561
▁broad	-3562
▁crush	-3563
▁teams	-3564
▁passed	-3565
▁complex	-3566
▁teaches	-3567
▁administ	-3568
▁numbered	-3569
▁planning	-3570
▁restrict	-3571
▁sometime	-3572
▁disadvant	-3573
▁encounter	-3574
▁magazines	-3575
▁discovered	-3576
▁management	-3577
▁fif	-3578
▁unb	-3579
aging	-3580
▁proc	-3581
▁rele	-3582
▁scen	-3583
▁faith	-3584
▁idaho	-3585
▁intim	-3586
▁oppos	-3587
▁rocks	-3588
▁silic	-3589
▁taxis	-3590
ediment	-3591
▁consum	-3592
▁convin	-3593
▁debate	-3594
▁differ	-3595
▁famous	-3596
▁gotten	-3597
▁minute	-3598
▁satisf	-3599
atically	-3600
▁message	-3601
▁technol	-3602
▁travels	-3603
▁carrying	-3604
▁feedback	-3605
▁reaction	-3606
▁unfortun	-3607
▁obviously	-3608
▁reasoning	-3609
▁seventeen	-3610
▁volunteer	-3611
▁differently	-3612
▁15	-3613
▁il	-3614
reed	-3615
umst	-3616
▁pan	-3617
▁smo	-3618
▁bare	-3619
▁comb	-3620
▁rush	-3621
▁wind	-3622
▁goals	-3623
▁lying	-3624
▁names	-3625
▁races	-3626
▁seven	-3627
▁adjust	-3628
▁awards	-3629
▁commit	-3630
▁nature	-3631
▁pursue	-3632
▁nominee	-3633
▁testing	-3634
▁exciting	-3635
▁flexible	-3636
▁restores	-3637
▁currently	-3638
▁volcanoes	-3639
▁fascinated	-3640
▁generations	-3641
ms	-3642
wal	-3643
cery	-3644
▁bar	-3645
▁fat	-3646
▁inh	-3647
▁earn	-3648
▁ende	-3649
▁obst	-3650
▁pack	-3651
▁shif	-3652
▁bunch	-3653
▁doubt	-3654
▁lines	-3655
▁worst	-3656
▁recomm	-3657
▁rubric	-3658
▁strict	-3659
▁brother	-3660
▁promote	-3661
▁circumst	-3662
▁improved	-3663
▁lifetime	-3664
▁services	-3665
▁passionate	-3666
ee	-3667
cury	-3668
ison	-3669
▁fal	-3670
▁nav	-3671
▁und	-3672
cient	-3673
verse	-3674
▁asks	-3675
▁hall	-3676
▁webs	-3677
▁guess	-3678
▁snake	-3679
leyball	-3680
▁guidel	-3681
▁hidden	-3682
▁joined	-3683
ulations	-3684
▁compare	-3685
▁pledged	-3686
▁creation	-3687
▁planetary	-3688
▁replacing	-3689
▁conference	-3690
▁representing	-3691
▁representation	-3692
now	-3693
row	-3694
unt	-3695
▁nt	-3696
ares	-3697
resh	-3698
▁lou	-3699
▁yor	-3700
dered	-3701
▁forg	-3702
▁lect	-3703
▁sold	-3704
▁fined	-3705
▁illeg	-3706
▁proved	-3707
▁stupid	-3708
▁anybody	-3709
▁conspir	-3710
▁mercury	-3711
▁objects	-3712
▁silicon	-3713
▁normally	-3714
▁recieves	-3715
▁replaced	-3716
▁eliminate	-3717
▁explaining	-3718
ane	-3719
iet	-3720
ird	-3721
med	-3722
▁35	-3723
cape	-3724
▁fil	-3725
▁lay	-3726
▁men	-3727
▁shy	-3728
chool	-3729
▁fund	-3730
▁hate	-3731
▁icon	-3732
▁puts	-3733
▁thor	-3734
▁airpl	-3735
▁float	-3736
▁persu	-3737
▁radio	-3738
▁theor	-3739
▁destro	-3740
▁endeav	-3741
▁lasted	-3742
▁meters	-3743
▁collect	-3744
▁digital	-3745
▁figured	-3746
▁grocery	-3747
▁harmful	-3748
▁intimid	-3749
▁respond	-3750
▁venusian	-3751
▁certainly	-3752
▁motivated	-3753
▁requiring	-3754
▁volleyball	-3755
▁requirements	-3756
gr	-3757
ask	-3758
reh	-3759
▁70	-3760
▁rh	-3761
anes	-3762
iful	-3763
reci	-3764
ster	-3765
▁pat	-3766
▁pen	-3767
▁code	-3768
▁erup	-3769
▁till	-3770
▁wear	-3771
▁wise	-3772
ctions	-3773
urance	-3774
▁added	-3775
▁louis	-3776
▁named	-3777
▁paint	-3778
▁sight	-3779
entions	-3780
▁incred	-3781
▁notice	-3782
▁thirty	-3783
▁virtue	-3784
▁absolut	-3785
▁experts	-3786
▁illegal	-3787
▁suppose	-3788
▁conclude	-3789
▁electric	-3790
▁seriously	-3791
▁percentage	-3792
▁survivable	-3793
▁recognition	-3794
▁legislatures	-3795
cies	-3796
▁haw	-3797
cking	-3798
itten	-3799
▁elet	-3800
▁hosp	-3801
▁shot	-3802
▁ther	-3803
▁tour	-3804
▁alloc	-3805
▁began	-3806
▁calls	-3807
▁malin	-3808
ulating	-3809
▁commer	-3810
▁pedest	-3811
▁distant	-3812
▁garages	-3813
▁marking	-3814
▁privile	-3815
▁snapped	-3816
▁strikes	-3817
▁colombia	-3818
▁frequent	-3819
apt	-3820
nis	-3821
▁bed	-3822
▁dir	-3823
▁eth	-3824
pping	-3825
▁kick	-3826
▁runs	-3827
▁site	-3828
▁warm	-3829
▁weak	-3830
▁brake	-3831
▁frust	-3832
cessary	-3833
▁applic	-3834
▁conven	-3835
▁island	-3836
▁obtain	-3837
▁overru	-3838
▁overwh	-3839
▁police	-3840
▁segreg	-3841
▁anxious	-3842
▁impress	-3843
▁mindset	-3844
▁sharper	-3845
▁stating	-3846
▁written	-3847
▁expanded	-3848
▁purposes	-3849
▁recently	-3850
▁background	-3851
▁relationship	-3852
sk	-3853
▁tv	-3854
▁ur	-3855
▁bur	-3856
▁poe	-3857
erate	-3858
erves	-3859
ropri	-3860
▁alto	-3861
▁anal	-3862
▁arri	-3863
▁diss	-3864
▁remo	-3865
▁shop	-3866
▁shut	-3867
▁spee	-3868
▁zone	-3869
▁adapt	-3870
▁false	-3871
▁liked	-3872
▁navig	-3873
▁north	-3874
▁telev	-3875
▁punish	-3876
▁speeds	-3877
▁decides	-3878
▁excited	-3879
▁heavily	-3880
▁enforced	-3881
▁direction	-3882
▁schedules	-3883
▁assistance	-3884
▁electronic	-3885
▁communities	-3886
▁technically	-3887
acks	-3888
rast	-3889
▁exs	-3890
ipped	-3891
▁bicy	-3892
▁mich	-3893
▁mood	-3894
▁peer	-3895
▁allot	-3896
▁guide	-3897
▁ideal	-3898
▁tense	-3899
▁weren	-3900
▁argued	-3901
▁defend	-3902
▁descri	-3903
▁forgot	-3904
▁appreci	-3905
▁calling	-3906
▁closely	-3907
▁concern	-3908
▁passing	-3909
▁sidewal	-3910
▁hundreds	-3911
▁overwhel	-3912
▁amendment	-3913
▁louisiana	-3914
▁providing	-3915
▁viewpoints	-3916
▁destination	-3917
ole	-3918
oul	-3919
aled	-3920
sych	-3921
icate	-3922
inary	-3923
▁recy	-3924
▁vers	-3925
▁aloud	-3926
▁psych	-3927
▁raise	-3928
▁virus	-3929
▁filled	-3930
▁forces	-3931
▁reader	-3932
▁compreh	-3933
▁economy	-3934
▁logical	-3935
▁privacy	-3936
▁selects	-3937
▁erupting	-3938
▁independ	-3939
▁pedestri	-3940
▁sediment	-3941
▁describes	-3942
▁endeavors	-3943
▁overruled	-3944
▁absolutely	-3945
▁spacecrafts	-3946
▁hy	-3947
▁bele	-3948
▁ruin	-3949
ounded	-3950
▁gases	-3951
▁ought	-3952
utation	-3953
▁bother	-3954
▁deaths	-3955
▁employ	-3956
▁envior	-3957
▁sensor	-3958
▁carbide	-3959
▁convers	-3960
▁mentally	-3961
▁opposite	-3962
▁thorough	-3963
▁confident	-3964
▁resembles	-3965
▁discussing	-3966
▁importance	-3967
▁legislature	-3968
▁republicans	-3969
ung	-3970
▁ce	-3971
omed	-3972
rend	-3973
ring	-3974
▁ads	-3975
▁mob	-3976
▁wom	-3977
ading	-3978
▁bond	-3979
▁cold	-3980
▁nine	-3981
▁paid	-3982
▁alive	-3983
▁clint	-3984
▁edges	-3985
▁local	-3986
▁outwe	-3987
▁tutor	-3988
▁twice	-3989
▁agreed	-3990
▁fellow	-3991
▁grading	-3992
▁partial	-3993
▁private	-3994
▁constant	-3995
▁horrible	-3996
▁referred	-3997
▁allocated	-3998
▁declaring	-3999
▁discussion	-4000
▁previously	-4001
▁resolution	-4002
▁supporting	-4003
▁flexibility	-4004
▁intimidating	-4005
▁congressional	-4006
▁manufacturers	-4007
ym	-4008
lege	-4009
▁anat	-4010
▁crow	-4011
▁date	-4012
▁edge	-4013
▁insp	-4014
▁york	-4015
▁accel	-4016
▁beaut	-4017
▁bound	-4018
▁input	-4019
▁proud	-4020
▁storm	-4021
▁witch	-4022
▁athlet	-4023
▁caring	-4024
▁counts	-4025
▁desire	-4026
▁failed	-4027
▁reward	-4028
▁scenar	-4029
▁tennis	-4030
▁winter	-4031
▁ancient	-4032
▁cleaner	-4033
▁useless	-4034
▁governor	-4035
▁intended	-4036
▁outcomes	-4037
▁siblings	-4038
▁democrats	-4039
▁increased	-4040
▁landscape	-4041
▁conspiracy	-4042
▁differences	-4043
omas	-4044
▁ded	-4045
▁emb	-4046
▁guy	-4047
antic	-4048
▁ball	-4049
▁evol	-4050
▁malf	-4051
▁neut	-4052
▁yeah	-4053
▁fails	-4054
ionment	-4055
▁earths	-4056
▁george	-4057
▁mirror	-4058
▁speech	-4059
▁beliefs	-4060
▁clinton	-4061
▁clothes	-4062
▁enables	-4063
▁examine	-4064
▁failing	-4065
▁regions	-4066
▁totally	-4067
▁victory	-4068
▁bringing	-4069
▁finished	-4070
▁informed	-4071
▁striving	-4072
▁terrible	-4073
▁abilities	-4074
▁theorists	-4075
▁abolishing	-4076
▁constructs	-4077
▁guidelines	-4078
▁reasonable	-4079
▁technological	-4080
aii	-4081
asty	-4082
iced	-4083
▁bab	-4084
▁bud	-4085
▁uns	-4086
▁vib	-4087
itled	-4088
▁chem	-4089
▁gall	-4090
▁lava	-4091
▁auton	-4092
▁behav	-4093
▁heads	-4094
▁rhode	-4095
▁apport	-4096
▁explan	-4097
▁hawaii	-4098
▁poeple	-4099
▁submar	-4100
▁toward	-4101
▁himself	-4102
▁offered	-4103
▁wasting	-4104
▁betrayed	-4105
▁outweigh	-4106
▁stronger	-4107
▁condition	-4108
▁healthier	-4109
▁improving	-4110
▁associated	-4111
▁connection	-4112
▁delegation	-4113
▁respective	-4114
▁delegations	-4115
▁efficiently	-4116
▁professional	-4117
ael	-4118
sen	-4119
unk	-4120
▁22	-4121
▁bm	-4122
ague	-4123
here	-4124
look	-4125
uting	-4126
▁beca	-4127
▁elec	-4128
▁hind	-4129
▁jams	-4130
▁nick	-4131
▁paul	-4132
▁repe	-4133
▁tick	-4134
▁unus	-4135
▁wich	-4136
iation	-4137
phones	-4138
▁craft	-4139
▁elder	-4140
▁nowad	-4141
▁schol	-4142
▁tough	-4143
duction	-4144
▁broken	-4145
▁collab	-4146
▁degree	-4147
▁eating	-4148
▁indust	-4149
ropriate	-4150
▁dealing	-4151
▁decreed	-4152
▁hearing	-4153
▁touched	-4154
▁convince	-4155
▁procrast	-4156
▁speaking	-4157
▁confusion	-4158
▁goverment	-4159
▁segregation	-4160
ec	-4161
py	-4162
ern	-4163
nam	-4164
orn	-4165
thy	-4166
▁au	-4167
▁du	-4168
ened	-4169
gery	-4170
wood	-4171
▁alt	-4172
▁hey	-4173
olina	-4174
rated	-4175
while	-4176
▁haze	-4177
▁port	-4178
▁prec	-4179
▁rain	-4180
asking	-4181
▁coach	-4182
▁holly	-4183
▁tools	-4184
▁turns	-4185
▁appear	-4186
▁barely	-4187
▁obstac	-4188
▁techon	-4189
▁thomas	-4190
▁appears	-4191
▁authors	-4192
▁nowadays	-4193
▁relative	-4194
▁suburban	-4195
▁airplanes	-4196
▁arguement	-4197
▁everyones	-4198
▁increases	-4199
▁invention	-4200
▁sidewalks	-4201
▁technolgy	-4202
▁classified	-4203
▁reputation	-4204
▁statistics	-4205
▁distracting	-4206
▁innovations	-4207
▁civilization	-4208
▁circumstances	-4209
cn	-4210
nd	-4211
iti	-4212
uro	-4213
izes	-4214
▁dog	-4215
▁ens	-4216
anced	-4217
ellig	-4218
oying	-4219
▁dise	-4220
▁dumb	-4221
▁fort	-4222
▁lang	-4223
▁pool	-4224
▁scan	-4225
▁shap	-4226
▁spin	-4227
▁taxi	-4228
▁below	-4229
▁equip	-4230
▁frown	-4231
▁holds	-4232
▁immed	-4233
▁kinds	-4234
▁natur	-4235
▁plays	-4236
▁range	-4237
▁relie	-4238
▁steer	-4239
▁steps	-4240
▁boxing	-4241
▁doctor	-4242
▁incent	-4243
▁killed	-4244
▁slowly	-4245
▁artical	-4246
▁counter	-4247
▁located	-4248
▁markets	-4249
▁neutral	-4250
▁surgery	-4251
▁carolina	-4252
▁cheating	-4253
▁politics	-4254
▁polluted	-4255
▁recieved	-4256
▁lightning	-4257
▁socialize	-4258
▁standards	-4259
▁succeeded	-4260
▁preference	-4261
▁disabilities	-4262
▁independence	-4263
ma	-4264
aur	-4265
▁ii	-4266
ibly	-4267
lier	-4268
▁bmw	-4269
▁jpl	-4270
▁laz	-4271
▁pap	-4272
andom	-4273
cling	-4274
▁fell	-4275
▁flew	-4276
▁hous	-4277
▁ohio	-4278
▁roll	-4279
▁unre	-4280
ection	-4281
omfort	-4282
▁court	-4283
▁owner	-4284
▁popul	-4285
▁trend	-4286
▁vital	-4287
▁whome	-4288
▁cloudy	-4289
▁gallup	-4290
▁notify	-4291
▁random	-4292
▁tracks	-4293
▁affects	-4294
▁fencing	-4295
▁intrest	-4296
▁painted	-4297
▁guidance	-4298
▁injuries	-4299
▁isolated	-4300
▁mentions	-4301
▁hollywood	-4302
▁satisfied	-4303
▁submarine	-4304
▁simplified	-4305
▁automobiles	-4306
▁performance	-4307
▁surroundings	-4308
▁apportionment	-4309
▁administration	-4310
come	-4311
iver	-4312
raid	-4313
▁bom	-4314
▁cio	-4315
▁sus	-4316
▁tar	-4317
▁ver	-4318
arant	-4319
arest	-4320
ption	-4321
▁dome	-4322
▁ease	-4323
▁farm	-4324
▁feet	-4325
▁fray	-4326
▁quir	-4327
berger	-4328
estion	-4329
▁fixed	-4330
▁maxim	-4331
▁minor	-4332
▁peace	-4333
▁staff	-4334
▁unman	-4335
▁wasnt	-4336
▁gather	-4337
▁growth	-4338
▁height	-4339
▁malfun	-4340
▁offers	-4341
▁placed	-4342
▁riding	-4343
▁search	-4344
▁strive	-4345
▁amounts	-4346
▁attract	-4347
▁involve	-4348
▁massive	-4349
▁medical	-4350
▁michael	-4351
▁parties	-4352
▁behavior	-4353
▁commerce	-4354
▁entitled	-4355
▁markings	-4356
▁convenient	-4357
▁impressive	-4358
▁effectively	-4359
▁expectations	-4360
▁instructions	-4361
▁significantly	-4362
▁29	-4363
ager	-4364
anch	-4365
▁bag	-4366
▁gym	-4367
▁jum	-4368
▁mgs	-4369
▁nic	-4370
▁sem	-4371
▁unh	-4372
▁unm	-4373
tions	-4374
▁2009	-4375
▁chat	-4376
▁cous	-4377
▁fill	-4378
▁jour	-4379
▁libr	-4380
▁load	-4381
icated	-4382
icular	-4383
ushing	-4384
▁achie	-4385
▁email	-4386
▁parks	-4387
▁price	-4388
▁signs	-4389
▁afraid	-4390
▁animal	-4391
▁brakes	-4392
▁equals	-4393
▁quirks	-4394
▁relate	-4395
▁review	-4396
▁hobbies	-4397
▁shortly	-4398
▁hospital	-4399
▁intellig	-4400
▁missions	-4401
▁relaxing	-4402
▁whomever	-4403
▁academics	-4404
▁defenders	-4405
▁depressed	-4406
▁entertain	-4407
▁explained	-4408
▁expresses	-4409
▁incentive	-4410
▁naturally	-4411
▁professor	-4412
▁regarding	-4413
▁accelerate	-4414
▁television	-4415
▁significant	-4416
▁entertainment	-4417
▁unfortunately	-4418
ona	-4419
par	-4420
por	-4421
rif	-4422
▁py	-4423
▁wi	-4424
dden	-4425
▁afl	-4426
▁god	-4427
▁sho	-4428
▁ske	-4429
omous	-4430
▁dear	-4431
▁garb	-4432
▁moon	-4433
▁pric	-4434
▁trem	-4435
▁viol	-4436
▁bikes	-4437
▁dense	-4438
▁fatal	-4439
▁invar	-4440
▁italy	-4441
▁judge	-4442
▁langu	-4443
▁picks	-4444
▁assert	-4445
▁assume	-4446
▁papers	-4447
▁sudden	-4448
▁anyways	-4449
▁nations	-4450
▁nearest	-4451
▁seconds	-4452
▁affected	-4453
▁captured	-4454
▁critical	-4455
▁learners	-4456
▁location	-4457
▁prevents	-4458
▁realized	-4459
▁sleeping	-4460
▁slightly	-4461
▁adventure	-4462
▁bomberger	-4463
▁equipment	-4464
▁interactions	-4465
bs	-4466
rol	-4467
▁ec	-4468
aska	-4469
iant	-4470
imes	-4471
▁bac	-4472
▁sor	-4473
anted	-4474
iably	-4475
▁clim	-4476
▁fant	-4477
▁peak	-4478
▁quiz	-4479
▁sell	-4480
▁tecn	-4481
▁util	-4482
elling	-4483
▁bills	-4484
▁blind	-4485
▁drama	-4486
▁faced	-4487
▁imped	-4488
▁legal	-4489
▁quiet	-4490
▁shift	-4491
▁train	-4492
▁units	-4493
▁budget	-4494
▁images	-4495
▁lifest	-4496
▁opened	-4497
▁presed	-4498
▁threat	-4499
▁avoided	-4500
▁curious	-4501
▁earlier	-4502
▁garbage	-4503
▁guarant	-4504
▁hostile	-4505
▁recover	-4506
▁relieve	-4507
▁unusual	-4508
▁virtual	-4509
▁prospect	-4510
▁unmanned	-4511
▁intensive	-4512
▁promoting	-4513
▁approaches	-4514
▁congestion	-4515
▁controvers	-4516
▁possibilities	-4517
▁57	-4518
vere	-4519
▁lad	-4520
▁mil	-4521
▁auto	-4522
ashing	-4523
▁canad	-4524
▁dress	-4525
▁error	-4526
▁kinda	-4527
▁wrote	-4528
▁asleep	-4529
▁engine	-4530
▁limits	-4531
▁resist	-4532
▁smooth	-4533
▁visual	-4534
▁address	-4535
▁destroy	-4536
▁happend	-4537
▁highway	-4538
▁imagery	-4539
▁tremend	-4540
▁awarding	-4541
▁offering	-4542
▁somthing	-4543
▁assigning	-4544
▁connected	-4545
▁correctly	-4546
▁driveways	-4547
▁incorrect	-4548
▁insurance	-4549
▁passenger	-4550
▁comprehend	-4551
▁describing	-4552
▁improvement	-4553
by	-4554
what	-4555
▁aid	-4556
▁bat	-4557
▁rig	-4558
▁squ	-4559
▁cows	-4560
▁dark	-4561
▁mile	-4562
▁span	-4563
ective	-4564
ulting	-4565
▁forth	-4566
▁phara	-4567
▁revol	-4568
▁announ	-4569
▁corner	-4570
▁leaves	-4571
▁owners	-4572
▁wether	-4573
▁bullied	-4574
▁corrupt	-4575
▁doctors	-4576
▁listing	-4577
▁recieve	-4578
▁reminds	-4579
▁underst	-4580
▁website	-4581
▁animated	-4582
▁revealed	-4583
▁tutoring	-4584
▁obstacles	-4585
▁universal	-4586
▁autonomous	-4587
▁expressive	-4588
▁regardless	-4589
▁appropriate	-4590
▁conferences	-4591
▁importantly	-4592
▁necessarily	-4593
▁researching	-4594
▁unnecessary	-4595
▁segregationists	-4596
ha	-4597
ees	-4598
▁31	-4599
▁ox	-4600
hold	-4601
lied	-4602
▁atl	-4603
▁boo	-4604
▁led	-4605
abeth	-4606
ening	-4607
least	-4608
▁1992	-4609
▁item	-4610
▁rise	-4611
▁supr	-4612
▁costs	-4613
▁guard	-4614
▁orbit	-4615
▁reads	-4616
▁robot	-4617
▁saved	-4618
▁county	-4619
▁damage	-4620
▁fights	-4621
▁habits	-4622
▁display	-4623
▁forever	-4624
▁gaining	-4625
▁obvious	-4626
▁replace	-4627
▁displays	-4628
▁included	-4629
▁scenario	-4630
▁shopping	-4631
▁somewhat	-4632
▁teenager	-4633
▁allotment	-4634
▁recommend	-4635
▁accessible	-4636
▁compelling	-4637
▁difficulty	-4638
ht	-4639
sky	-4640
▁pc	-4641
▁si	-4642
iest	-4643
lide	-4644
sion	-4645
▁gps	-4646
igree	-4647
rates	-4648
▁bans	-4649
▁genu	-4650
▁lips	-4651
▁skip	-4652
▁susp	-4653
▁tele	-4654
▁tons	-4655
asting	-4656
ifying	-4657
worthy	-4658
▁alike	-4659
▁dread	-4660
▁finan	-4661
▁liter	-4662
▁mules	-4663
▁radar	-4664
▁rates	-4665
▁sites	-4666
▁stops	-4667
▁brains	-4668
▁fairly	-4669
▁kicked	-4670
▁learns	-4671
▁pieces	-4672
▁unhapp	-4673
▁bicycle	-4674
▁creator	-4675
▁elderly	-4676
▁hardest	-4677
▁highest	-4678
▁opposed	-4679
▁paragra	-4680
▁pharaoh	-4681
▁politic	-4682
▁restaur	-4683
▁strange	-4684
▁workers	-4685
▁eletoral	-4686
▁invented	-4687
▁scholars	-4688
▁sentence	-4689
▁spinning	-4690
▁supplies	-4691
omfortable	-4692
▁consuming	-4693
▁pointless	-4694
▁revealing	-4695
▁invariably	-4696
▁punishment	-4697
▁simulating	-4698
▁pedestrians	-4699
▁participation	-4700
▁uncomfortable	-4701
ng	-4702
ze	-4703
hib	-4704
lig	-4705
tem	-4706
ator	-4707
ched	-4708
ptop	-4709
▁unp	-4710
▁upd	-4711
aming	-4712
uling	-4713
▁acqu	-4714
▁cele	-4715
▁exec	-4716
▁forb	-4717
▁loss	-4718
▁unve	-4719
ishing	-4720
▁color	-4721
▁enorm	-4722
▁fifty	-4723
▁movie	-4724
▁pyram	-4725
▁risky	-4726
▁skept	-4727
▁trait	-4728
▁trick	-4729
▁yours	-4730
isabeth	-4731
▁becuse	-4732
▁breath	-4733
▁compar	-4734
▁diving	-4735
▁drives	-4736
▁instit	-4737
▁laptop	-4738
▁latest	-4739
▁metals	-4740
▁mobile	-4741
▁probes	-4742
▁remove	-4743
▁saving	-4744
▁storms	-4745
▁beleive	-4746
▁benifit	-4747
▁careful	-4748
▁couldnt	-4749
▁deepest	-4750
▁dislike	-4751
▁disrupt	-4752
▁sharing	-4753
▁atlantic	-4754
▁candiate	-4755
▁pedigree	-4756
▁resource	-4757
▁beautiful	-4758
▁completly	-4759
▁landslide	-4760
▁privilege	-4761
▁appreciate	-4762
▁scientific	-4763
▁difficulties	-4764
▁productivity	-4765
▁technologies	-4766
▁q	-4767
cet	-4768
ien	-4769
ton	-4770
▁17	-4771
cell	-4772
ffer	-4773
full	-4774
jing	-4775
vert	-4776
▁den	-4777
▁fro	-4778
▁spl	-4779
icing	-4780
itate	-4781
rench	-4782
▁film	-4783
▁fire	-4784
▁gras	-4785
▁quit	-4786
▁rode	-4787
levant	-4788
▁boost	-4789
▁depth	-4790
▁excel	-4791
▁fresh	-4792
▁ineff	-4793
▁landm	-4794
▁oppon	-4795
▁weird	-4796
▁youth	-4797
▁catast	-4798
▁center	-4799
▁severe	-4800
▁venuse	-4801
▁atleast	-4802
▁enforce	-4803
▁falling	-4804
▁geology	-4805
▁induces	-4806
▁library	-4807
▁minimum	-4808
▁readers	-4809
▁refused	-4810
▁surfers	-4811
▁turning	-4812
▁varying	-4813
▁voteing	-4814
astically	-4815
ification	-4816
▁audience	-4817
▁breaking	-4818
▁describe	-4819
▁sickness	-4820
▁decreased	-4821
▁elisabeth	-4822
▁functions	-4823
▁lifestyle	-4824
▁perfectly	-4825
▁unmasking	-4826
▁assertions	-4827
▁ineffective	-4828
▁advancements	-4829
gen	-4830
how	-4831
idr	-4832
mod	-4833
rra	-4834
ume	-4835
urg	-4836
▁21	-4837
oard	-4838
▁reb	-4839
▁son	-4840
▁usa	-4841
inate	-4842
pting	-4843
▁arch	-4844
▁band	-4845
▁burd	-4846
▁conc	-4847
▁died	-4848
▁fate	-4849
▁fulf	-4850
▁loud	-4851
▁mine	-4852
▁note	-4853
▁ours	-4854
▁snow	-4855
▁upgr	-4856
friend	-4857
itions	-4858
orders	-4859
▁disci	-4860
▁heidr	-4861
▁loose	-4862
▁shoes	-4863
▁unrra	-4864
▁wreck	-4865
theless	-4866
▁acting	-4867
▁convey	-4868
▁demand	-4869
▁facing	-4870
▁hazard	-4871
▁hiding	-4872
▁indeed	-4873
▁lights	-4874
▁prices	-4875
▁seemed	-4876
▁selsky	-4877
▁solved	-4878
▁surely	-4879
▁techni	-4880
▁chooses	-4881
▁maximum	-4882
▁needing	-4883
▁planned	-4884
▁removed	-4885
▁tournam	-4886
▁unhappy	-4887
▁weekend	-4888
▁industry	-4889
▁licenses	-4890
▁overcome	-4891
▁classwork	-4892
▁countless	-4893
▁faithless	-4894
▁fantastic	-4895
▁preparing	-4896
▁represents	-4897
▁calculation	-4898
▁implemented	-4899
▁specifically	-4900
▁characteristic	-4901
ius	-4902
val	-4903
▁27	-4904
oles	-4905
resp	-4906
uted	-4907
▁nur	-4908
▁pet	-4909
itary	-4910
▁2013	-4911
▁baby	-4912
▁flow	-4913
▁inte	-4914
▁jail	-4915
▁ties	-4916
encies	-4917
riment	-4918
ximity	-4919
▁advoc	-4920
▁drunk	-4921
▁excer	-4922
▁habit	-4923
▁maine	-4924
▁occup	-4925
▁purch	-4926
▁unint	-4927
▁whose	-4928
ustomed	-4929
▁campus	-4930
▁father	-4931
▁french	-4932
▁manner	-4933
▁regret	-4934
▁robots	-4935
▁selves	-4936
▁shacks	-4937
▁stayed	-4938
▁walter	-4939
▁anytime	-4940
▁central	-4941
▁diverse	-4942
▁ensures	-4943
▁feature	-4944
▁routine	-4945
▁starred	-4946
▁whereas	-4947
▁avoiding	-4948
▁concerns	-4949
▁controll	-4950
▁homeless	-4951
▁laziness	-4952
▁pyramids	-4953
▁reducing	-4954
▁catastrop	-4955
▁educators	-4956
▁psycholog	-4957
▁introduced	-4958
▁nationwide	-4959
▁negatively	-4960
▁drastically	-4961
▁explanation	-4962
▁organization	-4963
▁participated	-4964
20	-4965
ont	-4966
ardo	-4967
thor	-4968
view	-4969
▁emp	-4970
▁lik	-4971
▁nar	-4972
akers	-4973
esome	-4974
place	-4975
ulled	-4976
▁atom	-4977
▁calm	-4978
▁prim	-4979
▁sand	-4980
itting	-4981
ocking	-4982
▁broke	-4983
▁cares	-4984
▁casts	-4985
▁freib	-4986
▁laugh	-4987
▁moved	-4988
▁celebr	-4989
▁fortun	-4990
▁prompt	-4991
▁scores	-4992
▁strang	-4993
▁ticket	-4994
▁writes	-4995
▁enjoyed	-4996
▁exposed	-4997
▁noticed	-4998
▁orbiter	-4999
▁proving	-5000
▁reduces	-5001
▁language	-5002
▁unveiled	-5003
▁continues	-5004
▁dependent	-5005
▁detriment	-5006
▁presedent	-5007
▁proximity	-5008
▁qualities	-5009
▁accustomed	-5010
▁encouraged	-5011
▁expressing	-5012
▁incredibly	-5013
▁protection	-5014
▁impediments	-5015
▁neighborhood	-5016
▁nevertheless	-5017
▁automatically	-5018
▁demonstration	-5019
afe	-5020
gor	-5021
▁13	-5022
icul	-5023
ygen	-5024
▁jet	-5025
▁mak	-5026
haust	-5027
idate	-5028
unted	-5029
uters	-5030
▁cond	-5031
▁fits	-5032
▁gold	-5033
▁hasn	-5034
▁hers	-5035
▁leon	-5036
▁liqu	-5037
▁nebr	-5038
▁sole	-5039
▁swim	-5040
ension	-5041
▁analy	-5042
▁crowd	-5043
▁draft	-5044
▁enter	-5045
▁ethic	-5046
▁hobby	-5047
▁separ	-5048
▁stage	-5049
▁white	-5050
▁women	-5051
▁analog	-5052
▁draped	-5053
▁duffer	-5054
▁econom	-5055
▁flawed	-5056
▁overse	-5057
▁oxygen	-5058
▁packet	-5059
▁panama	-5060
▁target	-5061
▁unload	-5062
▁visits	-5063
▁voices	-5064
▁anatomy	-5065
▁applied	-5066
▁awesome	-5067
▁exceeds	-5068
▁exhaust	-5069
▁heidrun	-5070
▁probaly	-5071
▁spotted	-5072
▁enjoying	-5073
▁freiburg	-5074
▁incorpor	-5075
▁moreover	-5076
▁nebraska	-5077
▁persuade	-5078
▁predicts	-5079
▁priority	-5080
▁campaigns	-5081
▁competing	-5082
▁dedicated	-5083
▁surprised	-5084
▁complicate	-5085
▁convincing	-5086
▁enviorment	-5087
▁surrounded	-5088
▁connections	-5089
▁surrounding	-5090
▁academically	-5091
▁disadvantage	-5092
▁introduction	-5093
la	-5094
sh	-5095
ips	-5096
tee	-5097
ule	-5098
alis	-5099
cket	-5100
lete	-5101
nown	-5102
rive	-5103
rove	-5104
ther	-5105
udes	-5106
yles	-5107
▁ice	-5108
▁len	-5109
▁ord	-5110
▁unk	-5111
forms	-5112
icals	-5113
ively	-5114
oline	-5115
▁ages	-5116
▁born	-5117
▁drin	-5118
▁elig	-5119
▁ends	-5120
▁inev	-5121
▁lean	-5122
▁rear	-5123
▁seas	-5124
▁sees	-5125
▁sess	-5126
▁wild	-5127
itives	-5128
rating	-5129
▁biked	-5130
▁dirty	-5131
▁grate	-5132
▁rough	-5133
▁shoot	-5134
▁solid	-5135
▁stead	-5136
▁threw	-5137
▁weigh	-5138
▁wispy	-5139
▁zones	-5140
ography	-5141
▁cousin	-5142
▁disapp	-5143
▁houses	-5144
▁immedi	-5145
▁prohib	-5146
▁shaped	-5147
▁superv	-5148
▁unsafe	-5149
▁walked	-5150
▁caption	-5151
▁deliver	-5152
▁educate	-5153
▁hurting	-5154
▁inspire	-5155
▁musical	-5156
▁partake	-5157
▁proport	-5158
▁quicker	-5159
▁records	-5160
▁section	-5161
▁applying	-5162
▁equality	-5163
▁gasoline	-5164
▁greatest	-5165
▁lighting	-5166
▁opposing	-5167
▁orbiting	-5168
▁organize	-5169
▁produces	-5170
▁skeptics	-5171
▁themself	-5172
▁carefully	-5173
▁cellphone	-5174
▁colleague	-5175
▁financial	-5176
▁presidant	-5177
▁prevented	-5178
▁resistant	-5179
▁resulting	-5180
▁wondering	-5181
▁cellphones	-5182
▁determined	-5183
▁directions	-5184
▁leadership	-5185
▁navigating	-5186
▁understood	-5187
▁friendships	-5188
▁represented	-5189
▁communicating	-5190
▁disadvantages	-5191
iy	-5192
dge	-5193
rap	-5194
zyg	-5195
aper	-5196
eing	-5197
iens	-5198
▁bei	-5199
▁enh	-5200
▁fan	-5201
▁gpa	-5202
▁joy	-5203
▁net	-5204
▁via	-5205
▁zyg	-5206
ament	-5207
board	-5208
cious	-5209
ifies	-5210
nment	-5211
▁aunt	-5212
▁chee	-5213
▁coop	-5214
▁enth	-5215
▁fool	-5216
▁lock	-5217
▁meas	-5218
▁mere	-5219
▁ribs	-5220
▁tail	-5221
▁thay	-5222
▁warn	-5223
antage	-5224
isions	-5225
verbal	-5226
▁beach	-5227
▁chair	-5228
▁conve	-5229
▁funny	-5230
▁incon	-5231
▁lifes	-5232
▁liken	-5233
▁memor	-5234
▁oblig	-5235
▁paths	-5236
▁scale	-5237
▁scary	-5238
▁seper	-5239
▁spans	-5240
▁split	-5241
▁taxes	-5242
▁trees	-5243
riendly	-5244
▁auther	-5245
▁burden	-5246
▁castle	-5247
▁chores	-5248
▁deadly	-5249
▁excell	-5250
▁format	-5251
▁fourth	-5252
▁intens	-5253
▁pushed	-5254
▁refuse	-5255
▁secret	-5256
▁skated	-5257
▁venice	-5258
▁virgin	-5259
▁waking	-5260
▁cleared	-5261
▁consult	-5262
▁favored	-5263
▁haunted	-5264
▁killing	-5265
▁operate	-5266
▁outlook	-5267
▁players	-5268
▁serving	-5269
▁accommod	-5270
▁enormous	-5271
▁fighting	-5272
▁leonardo	-5273
▁wondered	-5274
▁analogous	-5275
▁assistant	-5276
▁districts	-5277
▁household	-5278
▁liability	-5279
▁ownership	-5280
▁positives	-5281
▁automobile	-5282
▁graduation	-5283
▁statements	-5284
▁concentrate	-5285
▁detrimental	-5286
▁instruction	-5287
▁malfunction	-5288
▁photography	-5289
▁techonology	-5290
▁applications	-5291
▁manufacturer	-5292
▁particularly	-5293
gu	-5294
eed	-5295
tey	-5296
▁wo	-5297
irth	-5298
tion	-5299
▁dic	-5300
▁dru	-5301
▁pal	-5302
asses	-5303
cific	-5304
erved	-5305
itals	-5306
▁2020	-5307
▁aslo	-5308
▁bags	-5309
▁boys	-5310
▁brin	-5311
▁burn	-5312
▁dece	-5313
▁obes	-5314
▁pars	-5315
▁spur	-5316
▁tied	-5317
▁vast	-5318
etrate	-5319
omatic	-5320
▁acrop	-5321
▁aside	-5322
▁black	-5323
▁block	-5324
▁canal	-5325
▁dance	-5326
▁downs	-5327
▁facil	-5328
▁grasp	-5329
▁loves	-5330
▁noted	-5331
▁offic	-5332
▁sorry	-5333
▁thumb	-5334
▁whitt	-5335
▁august	-5336
▁blamed	-5337
▁collge	-5338
▁deeper	-5339
▁hardly	-5340
▁intern	-5341
▁liking	-5342
▁market	-5343
▁messed	-5344
▁narrow	-5345
▁shared	-5346
▁signed	-5347
▁theirs	-5348
standing	-5349
▁arrived	-5350
▁beijing	-5351
▁careers	-5352
▁drawing	-5353
▁elctors	-5354
▁failure	-5355
▁possess	-5356
▁relying	-5357
▁articles	-5358
▁declares	-5359
▁differnt	-5360
▁eighteen	-5361
▁involves	-5362
▁lectures	-5363
▁likeness	-5364
▁memories	-5365
▁messages	-5366
▁passions	-5367
▁released	-5368
▁therefor	-5369
▁convinced	-5370
▁forbidden	-5371
▁impounded	-5372
▁nonverbal	-5373
▁penetrate	-5374
▁polluting	-5375
▁continuing	-5376
▁eliminated	-5377
▁encourages	-5378
▁frequently	-5379
▁intentions	-5380
▁unfriendly	-5381
▁interacting	-5382
▁environmental	-5383
▁independently	-5384
rt	-5385
ank	-5386
bra	-5387
fit	-5388
inc	-5389
xic	-5390
cles	-5391
eria	-5392
▁amb	-5393
▁bul	-5394
▁cof	-5395
▁dut	-5396
▁ect	-5397
▁err	-5398
▁jun	-5399
▁ted	-5400
▁ton	-5401
▁toy	-5402
eness	-5403
isely	-5404
vable	-5405
▁dust	-5406
▁song	-5407
▁stim	-5408
▁birth	-5409
▁clues	-5410
▁crete	-5411
▁gears	-5412
▁hiked	-5413
▁messa	-5414
▁noise	-5415
▁opens	-5416
▁slack	-5417
▁sytem	-5418
▁addict	-5419
▁adoles	-5420
▁advert	-5421
▁closet	-5422
▁occurs	-5423
▁relies	-5424
▁saftey	-5425
▁toasty	-5426
▁todays	-5427
lectoral	-5428
▁applies	-5429
▁claimed	-5430
▁dropped	-5431
▁reuters	-5432
▁somehow	-5433
▁tempert	-5434
▁accepted	-5435
▁attitude	-5436
▁centered	-5437
▁grateful	-5438
▁motivate	-5439
▁promotes	-5440
▁advocates	-5441
▁awareness	-5442
▁committee	-5443
▁commuting	-5444
▁discovery	-5445
▁negatives	-5446
▁orbicular	-5447
▁radiation	-5448
▁realistic	-5449
▁retaining	-5450
▁whittling	-5451
▁conventions	-5452
▁overwhelmed	-5453
▁capabilities	-5454
▁conversation	-5455
▁dramatically	-5456
▁implementing	-5457
▁restrictions	-5458
▁volunteering	-5459
▁collaboration	-5460
50	-5461
ey	-5462
oe	-5463
cal	-5464
ils	-5465
los	-5466
oma	-5467
pty	-5468
uld	-5469
▁pu	-5470
▁sn	-5471
cale	-5472
eron	-5473
erty	-5474
face	-5475
fere	-5476
iday	-5477
miss	-5478
name	-5479
olis	-5480
rage	-5481
teen	-5482
uded	-5483
▁bum	-5484
▁din	-5485
▁har	-5486
▁mic	-5487
▁mid	-5488
▁moc	-5489
▁mph	-5490
orate	-5491
▁adop	-5492
▁anti	-5493
▁apps	-5494
▁beat	-5495
▁cust	-5496
▁defe	-5497
▁dose	-5498
▁hack	-5499
▁hung	-5500
▁myst	-5501
▁peol	-5502
▁shel	-5503
▁sixt	-5504
▁suit	-5505
▁unex	-5506
ulated	-5507
▁alter	-5508
▁drugs	-5509
▁embar	-5510
▁eyebr	-5511
▁girls	-5512
▁monit	-5513
▁route	-5514
▁subst	-5515
▁usual	-5516
▁agency	-5517
▁flying	-5518
▁master	-5519
▁perfer	-5520
▁pulled	-5521
▁recong	-5522
▁strate	-5523
▁wrecks	-5524
chooling	-5525
▁discern	-5526
▁occured	-5527
▁ordered	-5528
▁pushing	-5529
▁shadowy	-5530
▁signals	-5531
▁solving	-5532
▁stories	-5533
▁upscale	-5534
▁warming	-5535
▁advances	-5536
▁colledge	-5537
▁crashing	-5538
▁inclined	-5539
▁landmark	-5540
▁produced	-5541
▁thousand	-5542
▁unloaded	-5543
▁acropolis	-5544
▁finishing	-5545
▁illnesses	-5546
▁littering	-5547
▁practices	-5548
▁zygomatic	-5549
▁electorals	-5550
▁incredible	-5551
▁inventions	-5552
▁strengthen	-5553
▁uninterest	-5554
▁electricity	-5555
▁immediately	-5556
▁restaurants	-5557
▁calculations	-5558
▁consequently	-5559
▁construction	-5560
▁overwhelming	-5561
▁presentation	-5562
▁concentration	-5563
ta	-5564
efy	-5565
gey	-5566
nce	-5567
sis	-5568
usi	-5569
▁je	-5570
arer	-5571
etry	-5572
rass	-5573
urch	-5574
▁dow	-5575
▁sac	-5576
▁tom	-5577
going	-5578
graph	-5579
light	-5580
pline	-5581
▁1950	-5582
▁acts	-5583
▁euro	-5584
▁hell	-5585
▁hybr	-5586
▁lies	-5587
▁lift	-5588
▁melt	-5589
▁page	-5590
▁reck	-5591
▁reli	-5592
▁summ	-5593
▁unbi	-5594
school	-5595
▁aeron	-5596
▁arise	-5597
▁brand	-5598
▁cheer	-5599
▁empty	-5600
▁fines	-5601
▁hopes	-5602
▁inhab	-5603
▁metal	-5604
▁misle	-5605
▁polic	-5606
▁pride	-5607
▁prone	-5608
▁unbel	-5609
iculous	-5610
inating	-5611
▁assess	-5612
▁belong	-5613
▁dreams	-5614
▁injury	-5615
▁landed	-5616
▁length	-5617
▁repeat	-5618
▁subtle	-5619
▁traits	-5620
▁wishes	-5621
ordinary	-5622
▁cheaper	-5623
▁clearer	-5624
▁climate	-5625
▁desired	-5626
▁fulfill	-5627
▁genuine	-5628
▁journey	-5629
▁neither	-5630
▁opening	-5631
▁pacific	-5632
▁partner	-5633
▁shelter	-5634
▁unknown	-5635
▁vibrate	-5636
▁absolute	-5637
▁aeronaut	-5638
▁averages	-5639
▁contrast	-5640
▁european	-5641
▁explored	-5642
▁military	-5643
▁overseas	-5644
▁pursuing	-5645
▁suitable	-5646
▁theories	-5647
▁troubles	-5648
▁virginia	-5649
▁visiting	-5650
▁forgotten	-5651
▁guarantee	-5652
▁introduce	-5653
▁necessity	-5654
▁strengths	-5655
▁suffering	-5656
▁withstand	-5657
▁discipline	-5658
▁competition	-5659
▁essentially	-5660
▁orbicularis	-5661
▁controversial	-5662
▁homeschooling	-5663
ino	-5664
ube	-5665
eday	-5666
▁bot	-5667
▁bri	-5668
▁gif	-5669
▁spo	-5670
▁tha	-5671
▁wit	-5672
asion	-5673
ement	-5674
iency	-5675
ilock	-5676
▁bird	-5677
▁blow	-5678
▁boss	-5679
▁clue	-5680
▁copy	-5681
▁glad	-5682
▁hair	-5683
▁jump	-5684
▁nerv	-5685
▁quot	-5686
▁roof	-5687
▁suic	-5688
▁sway	-5689
▁yout	-5690
curity	-5691
▁advis	-5692
▁algor	-5693
▁backs	-5694
▁downt	-5695
▁dying	-5696
▁excav	-5697
▁grown	-5698
▁innoc	-5699
▁rapid	-5700
▁seats	-5701
▁shock	-5702
▁stret	-5703
▁tries	-5704
▁uncle	-5705
▁branch	-5706
▁compon	-5707
▁dosent	-5708
▁handed	-5709
▁havent	-5710
▁ignore	-5711
▁listed	-5712
▁myster	-5713
▁peolpe	-5714
▁styles	-5715
▁uneven	-5716
▁writer	-5717
fficient	-5718
▁backing	-5719
▁centers	-5720
▁corners	-5721
▁counsel	-5722
▁designs	-5723
▁easiest	-5724
▁enthusi	-5725
▁firstly	-5726
▁liquefy	-5727
▁nervous	-5728
▁resolve	-5729
▁tedious	-5730
▁typical	-5731
▁vantage	-5732
▁watched	-5733
▁achieved	-5734
▁antilock	-5735
▁cellular	-5736
▁december	-5737
▁deserves	-5738
▁electrol	-5739
▁humanity	-5740
▁indicate	-5741
▁polution	-5742
▁represen	-5743
▁shocking	-5744
▁spurious	-5745
▁unbiased	-5746
▁workload	-5747
▁appealing	-5748
▁automated	-5749
▁eachother	-5750
▁employees	-5751
▁permitted	-5752
▁spreading	-5753
▁tecnology	-5754
▁adventures	-5755
▁frustrated	-5756
▁highschool	-5757
▁meaningful	-5758
▁revolution	-5759
▁suggestion	-5760
▁catastrophe	-5761
▁intelligent	-5762
▁accomplished	-5763
▁entertaining	-5764
▁individually	-5765
▁intensifying	-5766
▁proportional	-5767
▁conversations	-5768
▁extraordinary	-5769
oph	-5770
uet	-5771
▁ju	-5772
emic	-5773
zing	-5774
▁ack	-5775
▁cry	-5776
▁flu	-5777
▁hes	-5778
▁prs	-5779
▁ren	-5780
▁unw	-5781
adict	-5782
order	-5783
right	-5784
▁cook	-5785
▁dict	-5786
▁dipl	-5787
▁exsp	-5788
▁fash	-5789
▁gond	-5790
▁snap	-5791
ancing	-5792
ighter	-5793
▁estim	-5794
▁floor	-5795
▁liber	-5796
▁meter	-5797
▁outer	-5798
▁sates	-5799
▁texts	-5800
onsible	-5801
respect	-5802
▁beings	-5803
▁carlos	-5804
▁dinner	-5805
▁excite	-5806
▁hinder	-5807
▁levers	-5808
▁nights	-5809
▁resume	-5810
▁season	-5811
▁stable	-5812
▁stands	-5813
▁wisely	-5814
▁conserv	-5815
▁degress	-5816
▁disease	-5817
▁founded	-5818
▁granted	-5819
▁nowhere	-5820
▁refresh	-5821
▁relaxed	-5822
▁selfish	-5823
▁stargaz	-5824
▁algorith	-5825
▁athletic	-5826
▁balanced	-5827
▁benifits	-5828
▁checking	-5829
▁computor	-5830
▁cultures	-5831
▁drinking	-5832
▁followed	-5833
▁innocent	-5834
▁nickname	-5835
▁policies	-5836
▁relevant	-5837
▁truthful	-5838
▁wherever	-5839
▁creatures	-5840
▁establish	-5841
▁excellent	-5842
▁institute	-5843
▁motorists	-5844
▁neighbors	-5845
▁paintings	-5846
▁recycling	-5847
▁suggested	-5848
▁workplace	-5849
▁adolescent	-5850
▁colombians	-5851
▁disrespect	-5852
▁formations	-5853
▁paragraphs	-5854
▁performing	-5855
▁tremendous	-5856
▁aeronautics	-5857
▁eliminating	-5858
▁emergencies	-5859
▁recommended	-5860
▁scholarship	-5861
▁understandable	-5862
bre	-5863
ium	-5864
ogy	-5865
urt	-5866
▁39	-5867
atly	-5868
empl	-5869
etly	-5870
ider	-5871
iing	-5872
ilty	-5873
rain	-5874
▁hat	-5875
▁lon	-5876
▁rot	-5877
▁sal	-5878
▁sne	-5879
cedes	-5880
thora	-5881
veled	-5882
▁bell	-5883
▁curb	-5884
▁evey	-5885
▁grab	-5886
▁intr	-5887
▁mark	-5888
▁sets	-5889
▁whos	-5890
dering	-5891
ounder	-5892
▁angle	-5893
▁dosen	-5894
▁drink	-5895
▁falls	-5896
▁hired	-5897
▁intel	-5898
▁loses	-5899
▁plent	-5900
▁rooms	-5901
▁saves	-5902
▁score	-5903
▁sence	-5904
▁shell	-5905
▁steal	-5906
▁calcul	-5907
▁decode	-5908
▁disast	-5909
▁excuse	-5910
▁friday	-5911
▁futher	-5912
▁honors	-5913
▁instru	-5914
▁insure	-5915
▁margin	-5916
▁minded	-5917
▁relief	-5918
▁sergey	-5919
▁talent	-5920
▁undoub	-5921
▁update	-5922
▁values	-5923
▁alliens	-5924
▁assigns	-5925
▁cheated	-5926
▁credits	-5927
▁emtions	-5928
▁factual	-5929
▁fashion	-5930
▁grounds	-5931
▁lecture	-5932
▁liberal	-5933
▁minimal	-5934
▁organiz	-5935
▁release	-5936
▁roiling	-5937
▁shipped	-5938
▁someday	-5939
▁staring	-5940
▁checkout	-5941
▁plethora	-5942
▁purchase	-5943
▁reckless	-5944
▁reported	-5945
▁security	-5946
▁steering	-5947
▁stopping	-5948
▁websites	-5949
▁buildings	-5950
▁continued	-5951
▁extensive	-5952
▁fundament	-5953
▁interrupt	-5954
▁literally	-5955
▁producing	-5956
▁returning	-5957
▁comparison	-5958
▁contradict	-5959
▁efficiency	-5960
▁excitement	-5961
▁misleading	-5962
▁advancement	-5963
▁experiments	-5964
▁outstanding	-5965
▁tournaments	-5966
▁trustworthy	-5967
▁similarities	-5968
▁procrastinate	-5969
ae	-5970
agn	-5971
alu	-5972
bey	-5973
lar	-5974
men	-5975
nel	-5976
ola	-5977
ued	-5978
▁ot	-5979
aded	-5980
aste	-5981
auts	-5982
ches	-5983
gram	-5984
ilot	-5985
irts	-5986
lest	-5987
pper	-5988
rial	-5989
▁ade	-5990
▁ale	-5991
▁beg	-5992
▁blo	-5993
▁div	-5994
▁doc	-5995
▁gre	-5996
▁mel	-5997
▁oil	-5998
▁pep	-5999
▁pes	-6000
▁rum	-6001
▁tho	-6002
acity	-6003
gebra	-6004
▁bank	-6005
▁cred	-6006
▁dirt	-6007
▁fide	-6008
▁grew	-6009
▁hass	-6010
▁init	-6011
▁plaz	-6012
▁semi	-6013
▁shes	-6014
▁toll	-6015
▁vent	-6016
▁vist	-6017
ending	-6018
owning	-6019
terday	-6020
▁handy	-6021
▁heavy	-6022
▁holes	-6023
▁micro	-6024
▁moves	-6025
▁prime	-6026
▁reass	-6027
▁reson	-6028
▁stays	-6029
▁tempt	-6030
▁woman	-6031
▁absent	-6032
▁acknow	-6033
▁builds	-6034
▁church	-6035
▁essays	-6036
▁fixing	-6037
▁freely	-6038
▁graded	-6039
▁histor	-6040
▁hungry	-6041
▁interp	-6042
▁irresp	-6043
▁ladder	-6044
▁motion	-6045
▁oppert	-6046
▁player	-6047
▁pocket	-6048
▁ruling	-6049
▁sacrif	-6050
▁serves	-6051
▁toyota	-6052
▁algebra	-6053
▁confuse	-6054
▁cutting	-6055
▁disturb	-6056
▁electro	-6057
▁endless	-6058
▁excerpt	-6059
▁gondola	-6060
▁impacts	-6061
▁invited	-6062
▁patient	-6063
▁propose	-6064
▁recycle	-6065
▁apparent	-6066
▁archives	-6067
▁attempts	-6068
▁careless	-6069
▁catching	-6070
▁circling	-6071
▁countrys	-6072
▁discoura	-6073
▁disputes	-6074
▁envision	-6075
▁eyebrows	-6076
▁latitude	-6077
▁organism	-6078
▁textbook	-6079
▁thankful	-6080
▁embarrass	-6081
▁excavated	-6082
▁graduated	-6083
▁meanwhile	-6084
▁multitude	-6085
▁paragragh	-6086
▁plentiful	-6087
▁precisely	-6088
▁similarly	-6089
▁struggles	-6090
▁yesterday	-6091
▁attendance	-6092
▁foundation	-6093
▁ridiculous	-6094
▁enviornment	-6095
▁maintaining	-6096
▁personality	-6097
▁conservative	-6098
▁meaningfully	-6099
▁personalized	-6100
▁complications	-6101
▁characteristics	-6102
af	-6103
fr	-6104
hd	-6105
ug	-6106
▁0	-6107
▁x	-6108
erg	-6109
▁ba	-6110
▁pm	-6111
aken	-6112
berg	-6113
inct	-6114
itle	-6115
outs	-6116
ques	-6117
▁559	-6118
▁arr	-6119
▁cad	-6120
▁dom	-6121
▁eve	-6122
▁sev	-6123
▁thy	-6124
▁tor	-6125
ailed	-6126
force	-6127
gines	-6128
ingly	-6129
ondon	-6130
tedly	-6131
▁1995	-6132
▁2005	-6133
▁audi	-6134
▁bath	-6135
▁beck	-6136
▁bona	-6137
▁bout	-6138
▁buys	-6139
▁clar	-6140
▁fare	-6141
▁ford	-6142
▁irre	-6143
▁joke	-6144
▁nicu	-6145
▁para	-6146
▁rude	-6147
▁tire	-6148
▁tram	-6149
▁untr	-6150
▁urge	-6151
▁wall	-6152
irable	-6153
nesses	-6154
omical	-6155
▁autop	-6156
▁badly	-6157
▁bonds	-6158
▁dealt	-6159
▁downf	-6160
▁elcet	-6161
▁landf	-6162
▁malls	-6163
▁nasty	-6164
▁opion	-6165
▁plaza	-6166
▁prius	-6167
▁sorts	-6168
▁strip	-6169
aration	-6170
hington	-6171
▁andrew	-6172
▁elders	-6173
▁ending	-6174
▁errors	-6175
▁faults	-6176
▁former	-6177
▁junior	-6178
▁london	-6179
▁refers	-6180
▁senior	-6181
▁solely	-6182
▁transp	-6183
▁whould	-6184
▁automot	-6185
▁banning	-6186
▁breathe	-6187
▁compete	-6188
▁engines	-6189
▁hanging	-6190
▁outline	-6191
▁pattern	-6192
▁peering	-6193
▁pleased	-6194
▁portion	-6195
▁pulling	-6196
▁rounded	-6197
▁spanish	-6198
▁studing	-6199
▁youtube	-6200
▁athletes	-6201
▁capacity	-6202
▁crossing	-6203
▁eligible	-6204
▁engaging	-6205
▁guardian	-6206
▁observes	-6207
▁prsident	-6208
▁scientif	-6209
▁separate	-6210
▁standing	-6211
▁throwing	-6212
▁activitys	-6213
▁advancing	-6214
▁automatic	-6215
▁cloudless	-6216
▁cofounder	-6217
▁comparing	-6218
▁conflicts	-6219
▁detention	-6220
▁discussed	-6221
▁disorders	-6222
▁electroal	-6223
▁expressed	-6224
▁interview	-6225
▁reactions	-6226
▁algorithms	-6227
▁controlled	-6228
▁inevitable	-6229
▁preventing	-6230
▁encouraging	-6231
▁interactive	-6232
▁undoubtedly	-6233
▁experimental	-6234
▁improvements	-6235
▁accomplishment	-6236
▁implementation	-6237
me	-6238
dom	-6239
gia	-6240
zes	-6241
▁ww	-6242
amil	-6243
athy	-6244
comm	-6245
eded	-6246
idar	-6247
illy	-6248
ints	-6249
kind	-6250
phas	-6251
rier	-6252
uses	-6253
well	-6254
▁cas	-6255
▁coo	-6256
▁cub	-6257
▁era	-6258
▁hay	-6259
▁lin	-6260
▁mim	-6261
▁nec	-6262
▁pub	-6263
▁tes	-6264
▁tin	-6265
aries	-6266
dents	-6267
inois	-6268
istry	-6269
rence	-6270
▁1990	-6271
▁adhd	-6272
▁chal	-6273
▁chic	-6274
▁debt	-6275
▁deci	-6276
▁neat	-6277
▁slip	-6278
▁wast	-6279
▁wife	-6280
itious	-6281
ointed	-6282
others	-6283
ptions	-6284
skirts	-6285
▁abund	-6286
▁abuse	-6287
▁adequ	-6288
▁admit	-6289
▁brave	-6290
▁frank	-6291
▁items	-6292
▁layer	-6293
▁lidar	-6294
▁oppin	-6295
▁plate	-6296
▁pleas	-6297
▁presd	-6298
▁relig	-6299
▁rigor	-6300
▁ruins	-6301
▁ships	-6302
▁sixty	-6303
▁swiss	-6304
▁taste	-6305
amiliar	-6306
cession	-6307
ciously	-6308
iveness	-6309
▁artist	-6310
▁arturo	-6311
▁becaus	-6312
▁closed	-6313
▁depart	-6314
▁double	-6315
▁emphas	-6316
▁extent	-6317
▁garage	-6318
▁hoping	-6319
▁inhosp	-6320
▁intrig	-6321
▁memory	-6322
▁oppurt	-6323
▁owning	-6324
▁pitted	-6325
▁resons	-6326
▁square	-6327
▁thesis	-6328
▁thrive	-6329
▁victim	-6330
▁wheels	-6331
inations	-6332
▁acquire	-6333
▁alright	-6334
▁campain	-6335
▁choosen	-6336
▁constit	-6337
▁conveys	-6338
▁cracked	-6339
▁diploma	-6340
▁drafted	-6341
▁enhance	-6342
▁evident	-6343
▁farther	-6344
▁figures	-6345
▁georgia	-6346
▁ignored	-6347
▁luckily	-6348
▁mystery	-6349
▁observe	-6350
▁offical	-6351
▁primary	-6352
▁raising	-6353
▁seventh	-6354
▁accuracy	-6355
▁answered	-6356
▁approved	-6357
▁birthday	-6358
▁commonly	-6359
▁diseases	-6360
▁existing	-6361
▁extended	-6362
▁floating	-6363
▁friendly	-6364
▁investig	-6365
▁minority	-6366
▁overlook	-6367
▁proposed	-6368
▁punished	-6369
▁settings	-6370
▁snapping	-6371
▁socially	-6372
▁suddenly	-6373
▁teamwork	-6374
▁autopilot	-6375
▁chemistry	-6376
▁concerned	-6377
▁conducted	-6378
▁described	-6379
▁hazardous	-6380
▁judgement	-6381
▁outskirts	-6382
▁stargazer	-6383
▁arguements	-6384
▁automotive	-6385
▁decreasing	-6386
▁forgetting	-6387
▁girlfriend	-6388
▁mysterious	-6389
▁occasional	-6390
▁originally	-6391
▁temperture	-6392
▁unfamiliar	-6393
▁washington	-6394
▁businessman	-6395
▁determining	-6396
▁introducing	-6397
▁socializing	-6398
▁certificates	-6399
▁increasingly	-6400
▁manufacturing	-6401
▁organizations	-6402
▁procrastination	-6403
▁representitives	-6404
ds	-6405
bed	-6406
ipp	-6407
oly	-6408
rim	-6409
aser	-6410
ests	-6411
ooth	-6412
▁971	-6413
▁dav	-6414
▁kat	-6415
▁nut	-6416
▁yea	-6417
eting	-6418
orrow	-6419
overs	-6420
ratic	-6421
▁adul	-6422
▁bott	-6423
▁cash	-6424
▁caut	-6425
▁core	-6426
▁crop	-6427
▁door	-6428
▁evry	-6429
▁excl	-6430
▁fing	-6431
▁fost	-6432
▁hill	-6433
▁niss	-6434
▁pert	-6435
▁rent	-6436
▁ring	-6437
▁scre	-6438
▁sebe	-6439
▁sept	-6440
▁surp	-6441
inting	-6442
ipping	-6443
▁aviod	-6444
▁disen	-6445
▁diver	-6446
▁finds	-6447
▁gains	-6448
▁hated	-6449
▁honor	-6450
▁indic	-6451
▁initi	-6452
▁manip	-6453
▁rease	-6454
▁reist	-6455
▁shall	-6456
▁spect	-6457
▁staes	-6458
▁towns	-6459
▁toxic	-6460
▁waves	-6461
▁youre	-6462
erative	-6463
▁agrees	-6464
▁attent	-6465
▁cancel	-6466
▁confir	-6467
▁custom	-6468
▁dances	-6469
▁devast	-6470
▁elecot	-6471
▁electo	-6472
▁fields	-6473
▁freind	-6474
▁grandm	-6475
▁implic	-6476
▁insted	-6477
▁makers	-6478
▁mature	-6479
▁raises	-6480
▁rising	-6481
▁robert	-6482
▁safest	-6483
▁tiring	-6484
▁unsure	-6485
▁wasted	-6486
▁cleaned	-6487
▁commute	-6488
▁felling	-6489
▁herself	-6490
▁obesity	-6491
▁permiss	-6492
▁precent	-6493
▁proceed	-6494
▁session	-6495
▁seventy	-6496
▁utilize	-6497
▁wearing	-6498
▁workshe	-6499
▁actively	-6500
▁beacause	-6501
▁brighter	-6502
▁contrary	-6503
▁delivery	-6504
▁frowning	-6505
▁highways	-6506
▁likewise	-6507
▁managing	-6508
▁mercedes	-6509
▁presence	-6510
▁reliance	-6511
▁resolved	-6512
▁seperate	-6513
▁transfer	-6514
▁universe	-6515
▁centuries	-6516
▁decreases	-6517
▁inability	-6518
▁involving	-6519
▁isolation	-6520
▁obtaining	-6521
▁promising	-6522
▁statewide	-6523
▁strangers	-6524
▁stressing	-6525
▁telephone	-6526
▁vacations	-6527
▁yearbooks	-6528
▁anatomical	-6529
▁astronauts	-6530
▁completion	-6531
▁designated	-6532
▁politician	-6533
▁privileges	-6534
▁profession	-6535
▁somethings	-6536
▁techniques	-6537
▁thoroughly	-6538
▁transition	-6539
▁application	-6540
▁backgrounds	-6541
▁controllers	-6542
▁discovering	-6543
▁functioning	-6544
▁legislators	-6545
▁limitations	-6546
▁environments	-6547
▁inhospitable	-6548
uc	-6549
zz	-6550
ago	-6551
hon	-6552
▁33	-6553
▁cu	-6554
▁ow	-6555
▁vs	-6556
ders	-6557
gets	-6558
▁awk	-6559
▁jan	-6560
▁lib	-6561
▁mur	-6562
▁swe	-6563
▁wes	-6564
▁wow	-6565
abled	-6566
arded	-6567
ateur	-6568
cated	-6569
leans	-6570
lines	-6571
rames	-6572
thood	-6573
▁blue	-6574
▁brid	-6575
▁cops	-6576
▁edit	-6577
▁enro	-6578
▁hits	-6579
▁mite	-6580
▁ness	-6581
▁outs	-6582
▁pets	-6583
▁plat	-6584
▁pure	-6585
▁slid	-6586
▁woud	-6587
owered	-6588
▁begun	-6589
▁bluet	-6590
▁cheek	-6591
▁david	-6592
▁drove	-6593
▁films	-6594
▁globe	-6595
▁hello	-6596
▁hurts	-6597
▁katie	-6598
▁logic	-6599
▁newer	-6600
▁press	-6601
▁shoud	-6602
▁sould	-6603
▁tesla	-6604
▁venis	-6605
irement	-6606
itation	-6607
▁aswell	-6608
▁casted	-6609
▁closes	-6610
▁dollar	-6611
▁excess	-6612
▁favors	-6613
▁frames	-6614
▁gasses	-6615
▁hacked	-6616
▁immens	-6617
▁lonely	-6618
▁multit	-6619
▁nissan	-6620
▁observ	-6621
▁opinon	-6622
▁reject	-6623
▁silent	-6624
▁supply	-6625
▁swings	-6626
▁tempor	-6627
▁unreal	-6628
▁vision	-6629
▁wisdom	-6630
▁worker	-6631
▁becouse	-6632
▁bloomed	-6633
▁boredom	-6634
▁chicago	-6635
▁coaches	-6636
▁damages	-6637
▁electon	-6638
▁forming	-6639
▁lasting	-6640
▁leaning	-6641
▁learner	-6642
▁mankind	-6643
▁orleans	-6644
▁preform	-6645
▁reports	-6646
▁suicide	-6647
▁talents	-6648
▁trainer	-6649
▁detailed	-6650
▁downtown	-6651
▁economic	-6652
▁effected	-6653
▁elecoral	-6654
▁goldberg	-6655
▁meetings	-6656
▁notified	-6657
▁products	-6658
▁telecomm	-6659
▁adulthood	-6660
▁bluetooth	-6661
▁exception	-6662
▁intellect	-6663
▁opponents	-6664
▁pressured	-6665
▁regularly	-6666
▁weighting	-6667
▁worldwide	-6668
▁acceptable	-6669
▁accurately	-6670
▁assumption	-6671
▁electrical	-6672
▁ellectoral	-6673
▁envisioned	-6674
▁pedestrian	-6675
▁permission	-6676
▁positively	-6677
▁practicing	-6678
▁principals	-6679
▁production	-6680
▁professors	-6681
▁psychology	-6682
▁recognized	-6683
▁standpoint	-6684
▁supporters	-6685
▁complaining	-6686
▁grandmother	-6687
▁understands	-6688
▁videography	-6689
▁intelligence	-6690
▁successfully	-6691
▁psychologists	-6692
▁scientifically	-6693
ls	-6694
pm	-6695
ams	-6696
asy	-6697
eem	-6698
ler	-6699
lie	-6700
rep	-6701
▁gm	-6702
days	-6703
fast	-6704
ierd	-6705
oved	-6706
rual	-6707
unic	-6708
▁301	-6709
▁370	-6710
▁exa	-6711
▁gun	-6712
▁hav	-6713
▁pla	-6714
▁pon	-6715
ached	-6716
ching	-6717
ester	-6718
gment	-6719
odies	-6720
think	-6721
times	-6722
▁1997	-6723
▁adds	-6724
▁benz	-6725
▁blur	-6726
▁cram	-6727
▁desk	-6728
▁dile	-6729
▁flat	-6730
▁flip	-6731
▁hadn	-6732
▁hole	-6733
▁lawm	-6734
▁qout	-6735
▁sail	-6736
▁soem	-6737
erving	-6738
ometry	-6739
pected	-6740
ughter	-6741
▁altog	-6742
▁annoy	-6743
▁bones	-6744
▁cared	-6745
▁drown	-6746
▁eager	-6747
▁exams	-6748
▁fifth	-6749
▁funct	-6750
▁futur	-6751
▁ignor	-6752
▁kitch	-6753
▁latin	-6754
▁lukes	-6755
▁moral	-6756
▁realy	-6757
▁repro	-6758
▁slide	-6759
▁walks	-6760
▁wiser	-6761
osphere	-6762
portant	-6763
▁awhile	-6764
▁barack	-6765
▁combat	-6766
▁enjoys	-6767
▁esteem	-6768
▁gaming	-6769
▁headed	-6770
▁hybrid	-6771
▁income	-6772
▁integr	-6773
▁manual	-6774
▁partys	-6775
▁peopel	-6776
▁quotes	-6777
▁recall	-6778
▁recons	-6779
▁rumors	-6780
▁rushed	-6781
▁secure	-6782
▁served	-6783
▁shares	-6784
▁slates	-6785
▁stalls	-6786
▁suited	-6787
▁tutors	-6788
▁uncons	-6789
▁versus	-6790
▁worlds	-6791
ractical	-6792
regional	-6793
restrial	-6794
▁amateur	-6795
▁awkward	-6796
▁beckman	-6797
▁belived	-6798
▁capture	-6799
▁checked	-6800
▁immense	-6801
▁instant	-6802
▁laptops	-6803
▁moments	-6804
▁natrual	-6805
▁pooling	-6806
▁precise	-6807
▁rapidly	-6808
▁reached	-6809
▁regards	-6810
▁rushing	-6811
▁simpler	-6812
▁transit	-6813
▁visited	-6814
▁western	-6815
▁bathroom	-6816
▁capitals	-6817
▁detected	-6818
▁emission	-6819
▁exposing	-6820
▁illinois	-6821
▁improves	-6822
▁invasion	-6823
▁landfrom	-6824
▁mistaken	-6825
▁modified	-6826
▁navigate	-6827
▁oppinion	-6828
▁ordinary	-6829
▁survival	-6830
▁training	-6831
▁alternate	-6832
▁announced	-6833
▁ascertain	-6834
▁believing	-6835
▁breakfast	-6836
▁chemicals	-6837
▁desirable	-6838
▁destroyed	-6839
▁downsides	-6840
▁educating	-6841
▁evolution	-6842
▁immensely	-6843
▁instantly	-6844
▁lawmakers	-6845
▁organisms	-6846
▁populated	-6847
▁recession	-6848
▁reduction	-6849
▁technique	-6850
▁techology	-6851
▁virtually	-6852
▁altogether	-6853
▁benificial	-6854
▁characters	-6855
▁department	-6856
▁destroying	-6857
▁friendship	-6858
▁initiative	-6859
▁innovative	-6860
▁instrument	-6861
▁priorities	-6862
▁remembered	-6863
▁weaknesses	-6864
▁controversy	-6865
▁discussions	-6866
▁percentages	-6867
▁competitions	-6868
▁concentrated	-6869
▁experiencing	-6870
▁tremendously	-6871
▁disrespectful	-6872
▁international	-6873
▁knowledgeable	-6874
▁presentations	-6875
▁transregional	-6876
iw	-6877
no	-6878
cis	-6879
ief	-6880
ike	-6881
ouk	-6882
rag	-6883
uit	-6884
uls	-6885
une	-6886
▁dc	-6887
▁os	-6888
▁yo	-6889
airs	-6890
bing	-6891
etic	-6892
iece	-6893
nets	-6894
ysis	-6895
▁als	-6896
▁cer	-6897
▁hyp	-6898
▁ing	-6899
▁lan	-6900
▁nin	-6901
▁pic	-6902
▁ram	-6903
▁sup	-6904
▁sym	-6905
▁zer	-6906
althy	-6907
grams	-6908
inent	-6909
puter	-6910
sions	-6911
under	-6912
▁drew	-6913
▁dull	-6914
▁grav	-6915
▁mail	-6916
▁neck	-6917
▁oats	-6918
▁odds	-6919
▁oris	-6920
▁plum	-6921
▁rein	-6922
▁sake	-6923
▁sist	-6924
▁spir	-6925
▁stem	-6926
▁tips	-6927
▁tree	-6928
▁wold	-6929
cedent	-6930
ffered	-6931
ulsion	-6932
uments	-6933
▁absor	-6934
▁awake	-6935
▁chore	-6936
▁creep	-6937
▁depri	-6938
▁desic	-6939
▁elses	-6940
▁evalu	-6941
▁frame	-6942
▁mesas	-6943
▁oport	-6944
▁orgin	-6945
▁plane	-6946
▁rainy	-6947
▁reall	-6948
▁round	-6949
▁rover	-6950
▁sadly	-6951
▁sales	-6952
▁sneak	-6953
▁spark	-6954
▁teeth	-6955
▁uncon	-6956
athered	-6957
cessful	-6958
eration	-6959
ionship	-6960
versity	-6961
▁attain	-6962
▁battle	-6963
▁corona	-6964
▁deadlo	-6965
▁decade	-6966
▁deeply	-6967
▁devoid	-6968
▁electr	-6969
▁execut	-6970
▁expres	-6971
▁exsist	-6972
▁incase	-6973
▁northe	-6974
▁outfit	-6975
▁poorly	-6976
▁sights	-6977
▁slower	-6978
▁smiles	-6979
▁sooner	-6980
▁succed	-6981
▁suface	-6982
▁tablet	-6983
▁toured	-6984
▁trains	-6985
▁unjust	-6986
▁accomod	-6987
▁actives	-6988
▁arrange	-6989
▁becaues	-6990
▁broadly	-6991
▁compact	-6992
▁conclus	-6993
▁elction	-6994
▁existed	-6995
▁feeding	-6996
▁funding	-6997
▁graders	-6998
▁intense	-6999
▁loosing	-7000
▁neglect	-7001
▁prosper	-7002
▁request	-7003
▁risking	-7004
▁station	-7005
▁strateg	-7006
▁suprise	-7007
▁unbelie	-7008
▁venture	-7009
▁warning	-7010
▁watches	-7011
▁winners	-7012
▁witness	-7013
▁wonders	-7014
▁worries	-7015
▁analysis	-7016
▁criteria	-7017
▁damaging	-7018
▁debating	-7019
▁disabled	-7020
▁downside	-7021
▁geometry	-7022
▁hallways	-7023
▁mountain	-7024
▁optional	-7025
▁peaceful	-7026
▁reaching	-7027
▁reasoned	-7028
▁rewarded	-7029
▁throught	-7030
▁tightens	-7031
▁tomorrow	-7032
▁achieving	-7033
▁advertise	-7034
▁ambitious	-7035
▁benefited	-7036
▁celebrity	-7037
▁childrens	-7038
▁distances	-7039
▁farenheit	-7040
▁fortunate	-7041
▁reasearch	-7042
▁rewarding	-7043
▁struggled	-7044
▁switching	-7045
▁validated	-7046
▁variation	-7047
▁worthless	-7048
▁automakers	-7049
▁concerning	-7050
▁conclution	-7051
▁disability	-7052
▁exceptions	-7053
▁functional	-7054
▁respectful	-7055
▁restricted	-7056
▁spaceships	-7057
▁sufficient	-7058
▁suggesting	-7059
▁surprising	-7060
▁campaigning	-7061
▁competitive	-7062
▁impractical	-7063
▁incorrectly	-7064
▁involvement	-7065
▁politicians	-7066
▁problematic	-7067
▁demonstrates	-7068
▁enthusiastic	-7069
▁implications	-7070
▁notification	-7071
▁irresponsible	-7072
ads	-7073
aks	-7074
ald	-7075
dam	-7076
ded	-7077
ese	-7078
irt	-7079
omp	-7080
oty	-7081
ste	-7082
uli	-7083
urs	-7084
vad	-7085
▁79	-7086
▁dy	-7087
▁ga	-7088
▁mc	-7089
▁nu	-7090
▁ss	-7091
▁ti	-7092
▁tu	-7093
agin	-7094
ails	-7095
aton	-7096
char	-7097
iers	-7098
iors	-7099
ipes	-7100
olen	-7101
olgy	-7102
sels	-7103
▁271	-7104
▁mag	-7105
▁pup	-7106
▁teh	-7107
▁tun	-7108
▁van	-7109
alled	-7110
anded	-7111
backs	-7112
irect	-7113
owing	-7114
paper	-7115
uding	-7116
valed	-7117
▁arts	-7118
▁aval	-7119
▁bomb	-7120
▁brus	-7121
▁butt	-7122
▁crew	-7123
▁enri	-7124
▁fish	-7125
▁foss	-7126
▁gang	-7127
▁lane	-7128
▁mish	-7129
▁mitt	-7130
▁myth	-7131
▁pops	-7132
▁rect	-7133
▁resc	-7134
▁unem	-7135
▁unim	-7136
▁vein	-7137
▁yard	-7138
ippery	-7139
itudes	-7140
▁agian	-7141
▁apple	-7142
▁artic	-7143
▁atoms	-7144
▁babys	-7145
▁bless	-7146
▁bully	-7147
▁cater	-7148
▁cells	-7149
▁couch	-7150
▁cream	-7151
▁cubic	-7152
▁diagn	-7153
▁dimin	-7154
▁drawn	-7155
▁freak	-7156
▁goods	-7157
▁horse	-7158
▁indis	-7159
▁infer	-7160
▁lists	-7161
▁owned	-7162
▁perce	-7163
▁scien	-7164
▁sided	-7165
▁spare	-7166
▁spite	-7167
▁stars	-7168
▁suits	-7169
▁theme	-7170
▁title	-7171
▁wierd	-7172
angular	-7173
clusion	-7174
rations	-7175
sterdam	-7176
▁attack	-7177
▁biking	-7178
▁costly	-7179
▁covers	-7180
▁dating	-7181
▁defeat	-7182
▁denser	-7183
▁donate	-7184
▁duties	-7185
▁exempl	-7186
▁expans	-7187
▁hassle	-7188
▁makeup	-7189
▁marvel	-7190
▁multip	-7191
▁raised	-7192
▁retake	-7193
▁stolen	-7194
▁truely	-7195
▁window	-7196
▁amongst	-7197
▁borders	-7198
▁debated	-7199
▁distrib	-7200
▁drastic	-7201
▁empathy	-7202
▁grandma	-7203
▁makeing	-7204
▁melting	-7205
▁messing	-7206
▁nursing	-7207
▁promise	-7208
▁quizzes	-7209
▁recived	-7210
▁recount	-7211
▁rivaled	-7212
▁satisfy	-7213
▁updated	-7214
▁version	-7215
▁assuming	-7216
▁attended	-7217
▁bicycles	-7218
▁brussels	-7219
▁canadate	-7220
▁chemical	-7221
▁daughter	-7222
▁disorder	-7223
▁elements	-7224
▁facebook	-7225
▁foremost	-7226
▁invested	-7227
▁listened	-7228
▁occupied	-7229
▁opponent	-7230
▁pesident	-7231
▁precious	-7232
▁presient	-7233
▁promised	-7234
▁removing	-7235
▁semester	-7236
▁sideways	-7237
▁slippery	-7238
▁softball	-7239
▁unwanted	-7240
▁variable	-7241
▁accounted	-7242
▁amsterdam	-7243
▁attitudes	-7244
▁childhood	-7245
▁concluded	-7246
▁everytime	-7247
▁frontalis	-7248
▁immediate	-7249
▁instances	-7250
▁intention	-7251
▁interpret	-7252
▁newspaper	-7253
▁officials	-7254
▁rendering	-7255
▁sacrifice	-7256
▁searching	-7257
▁stretched	-7258
▁complained	-7259
▁complaints	-7260
▁consistent	-7261
▁creatively	-7262
▁disruptive	-7263
▁historical	-7264
▁influenced	-7265
▁intresting	-7266
▁strategies	-7267
▁structured	-7268
▁unexpected	-7269
▁unfairness	-7270
▁accountable	-7271
▁collaborate	-7272
▁demonstrate	-7273
▁embarrassed	-7274
▁fundamental	-7275
▁oppertunity	-7276
▁oppurtunity	-7277
▁particulate	-7278
▁populations	-7279
▁practically	-7280
▁suggestions	-7281
▁alternatives	-7282
▁availability	-7283
▁malfunctions	-7284
▁unbelievable	-7285
▁photographing	-7286
▁uninteresting	-7287
▁ascertainments	-7288
11	-7289
si	-7290
alt	-7291
att	-7292
ica	-7293
key	-7294
mit	-7295
nes	-7296
ods	-7297
sed	-7298
uts	-7299
▁ak	-7300
▁ms	-7301
avir	-7302
eber	-7303
mate	-7304
ohol	-7305
otic	-7306
sses	-7307
uing	-7308
umes	-7309
▁300	-7310
▁adn	-7311
▁agg	-7312
▁aim	-7313
▁chr	-7314
▁eer	-7315
▁emm	-7316
▁gad	-7317
▁ham	-7318
▁hom	-7319
▁tht	-7320
▁wat	-7321
alent	-7322
ander	-7323
aully	-7324
claim	-7325
ember	-7326
▁army	-7327
▁cope	-7328
▁deed	-7329
▁dent	-7330
▁duty	-7331
▁eath	-7332
▁evid	-7333
▁fict	-7334
▁grat	-7335
▁jugg	-7336
▁magn	-7337
▁mold	-7338
▁obso	-7339
▁rang	-7340
▁sate	-7341
▁soup	-7342
▁tran	-7343
▁trap	-7344
▁wars	-7345
▁whit	-7346
▁yall	-7347
▁zero	-7348
avirus	-7349
ferent	-7350
franch	-7351
ilites	-7352
illing	-7353
itated	-7354
jority	-7355
liable	-7356
▁awful	-7357
▁befor	-7358
▁champ	-7359
▁chess	-7360
▁chief	-7361
▁coron	-7362
▁dated	-7363
▁dates	-7364
▁enact	-7365
▁fancy	-7366
▁forty	-7367
▁hards	-7368
▁labor	-7369
▁legit	-7370
▁mates	-7371
▁mayor	-7372
▁medic	-7373
▁nevad	-7374
▁oculi	-7375
▁panic	-7376
▁reven	-7377
▁sally	-7378
▁satur	-7379
▁scare	-7380
▁selfs	-7381
▁sends	-7382
▁sixth	-7383
▁tends	-7384
▁truck	-7385
▁walls	-7386
▁wider	-7387
erences	-7388
working	-7389
▁actors	-7390
▁angles	-7391
▁basics	-7392
▁beside	-7393
▁bottom	-7394
▁bridge	-7395
▁colors	-7396
▁conver	-7397
▁crafts	-7398
▁crimin	-7399
▁critic	-7400
▁disreg	-7401
▁dissap	-7402
▁earned	-7403
▁grader	-7404
▁guided	-7405
▁improv	-7406
▁infact	-7407
▁laying	-7408
▁likley	-7409
▁oction	-7410
▁permit	-7411
▁pushes	-7412
▁rocket	-7413
▁shapes	-7414
▁succes	-7415
▁waited	-7416
ologists	-7417
▁actully	-7418
▁afterno	-7419
▁artists	-7420
▁athlete	-7421
▁biology	-7422
▁carried	-7423
▁convien	-7424
▁cooking	-7425
▁crossed	-7426
▁explode	-7427
▁focuses	-7428
▁follows	-7429
▁futures	-7430
▁handled	-7431
▁imitate	-7432
▁inhabit	-7433
▁interst	-7434
▁liberty	-7435
▁manager	-7436
▁ourself	-7437
▁placing	-7438
▁rewards	-7439
▁terrain	-7440
▁trapped	-7441
▁addicted	-7442
▁adjusted	-7443
▁annoying	-7444
▁arriving	-7445
▁begining	-7446
▁brothers	-7447
▁consumer	-7448
▁driveing	-7449
▁efficent	-7450
▁gathered	-7451
▁handling	-7452
▁judgment	-7453
▁lowering	-7454
▁martians	-7455
▁memorize	-7456
▁obsolete	-7457
▁receiver	-7458
▁reminded	-7459
▁repeated	-7460
▁represnt	-7461
▁smoothly	-7462
▁somtimes	-7463
▁steadily	-7464
▁unemploy	-7465
▁unneeded	-7466
▁watchman	-7467
franchised	-7468
▁affecting	-7469
▁attempted	-7470
▁bothering	-7471
▁component	-7472
▁concludes	-7473
▁consumers	-7474
▁downfalls	-7475
▁elsewhere	-7476
▁exhausted	-7477
▁experince	-7478
▁highlight	-7479
▁incidents	-7480
▁lateralis	-7481
▁northeast	-7482
▁preferred	-7483
▁prevalent	-7484
▁scenarios	-7485
▁shoulders	-7486
▁tempature	-7487
▁whichever	-7488
▁affordable	-7489
▁attempting	-7490
▁benefiting	-7491
▁conducting	-7492
▁differents	-7493
▁eliminates	-7494
▁influences	-7495
▁micrograms	-7496
▁prohibited	-7497
▁relaxation	-7498
▁unreliable	-7499
▁worksheets	-7500
▁acknowledge	-7501
▁administrat	-7502
▁adolescents	-7503
▁association	-7504
▁coronavirus	-7505
▁credibility	-7506
▁discoveries	-7507
▁incorporate	-7508
▁preparation	-7509
▁questioning	-7510
▁unfortunate	-7511
▁circumstance	-7512
▁constructive	-7513
▁scholarships	-7514
▁revolutionary	-7515
▁represenatives	-7516
ky	-7517
ado	-7518
ato	-7519
blo	-7520
cus	-7521
els	-7522
eus	-7523
ght	-7524
gly	-7525
hab	-7526
oah	-7527
oke	-7528
oll	-7529
rey	-7530
sle	-7531
uer	-7532
▁ip	-7533
▁ol	-7534
▁om	-7535
abra	-7536
ault	-7537
elve	-7538
fare	-7539
iton	-7540
ivly	-7541
lity	-7542
oted	-7543
qual	-7544
rets	-7545
roid	-7546
ture	-7547
uary	-7548
uber	-7549
zens	-7550
▁335	-7551
▁aga	-7552
▁cab	-7553
▁dos	-7554
▁fee	-7555
▁fou	-7556
▁ful	-7557
▁hid	-7558
▁hol	-7559
▁inp	-7560
▁map	-7561
▁rea	-7562
▁sew	-7563
▁sin	-7564
▁sir	-7565
aware	-7566
eling	-7567
elled	-7568
erent	-7569
oding	-7570
osion	-7571
pread	-7572
rific	-7573
usted	-7574
▁cate	-7575
▁crap	-7576
▁epid	-7577
▁evan	-7578
▁extr	-7579
▁gard	-7580
▁gear	-7581
▁king	-7582
▁labs	-7583
▁mall	-7584
▁olds	-7585
▁palp	-7586
▁pile	-7587
▁plug	-7588
▁pose	-7589
▁slim	-7590
▁sust	-7591
▁taht	-7592
▁trav	-7593
▁unav	-7594
▁unhe	-7595
▁user	-7596
▁winn	-7597
▁wrap	-7598
achers	-7599
isdent	-7600
othing	-7601
rolled	-7602
▁affer	-7603
▁afric	-7604
▁alarm	-7605
▁aroun	-7606
▁bases	-7607
▁brief	-7608
▁brill	-7609
▁candi	-7610
▁citys	-7611
▁clock	-7612
▁coast	-7613
▁dilem	-7614
▁flood	-7615
▁giant	-7616
▁hasnt	-7617
▁hence	-7618
▁integ	-7619
▁linch	-7620
▁loads	-7621
▁pages	-7622
▁poplu	-7623
▁qoute	-7624
▁rides	-7625
▁rings	-7626
▁risor	-7627
▁scans	-7628
▁sharp	-7629
▁sizes	-7630
▁skids	-7631
▁stats	-7632
▁thoes	-7633
▁trave	-7634
▁upper	-7635
▁vague	-7636
itating	-7637
putable	-7638
rageous	-7639
▁argues	-7640
▁arrive	-7641
▁barley	-7642
▁beauty	-7643
▁benfit	-7644
▁bought	-7645
▁button	-7646
▁civics	-7647
▁elects	-7648
▁explor	-7649
▁faking	-7650
▁fought	-7651
▁genuin	-7652
▁hotter	-7653
▁ideals	-7654
▁illust	-7655
▁lessen	-7656
▁locker	-7657
▁lowers	-7658
▁mister	-7659
▁nevada	-7660
▁orders	-7661
▁passes	-7662
▁popual	-7663
▁prison	-7664
▁profit	-7665
▁runner	-7666
▁shower	-7667
▁signal	-7668
▁societ	-7669
▁somone	-7670
▁sought	-7671
▁spirit	-7672
▁studen	-7673
▁throws	-7674
▁twelve	-7675
▁useing	-7676
missions	-7677
ographic	-7678
ological	-7679
▁basicly	-7680
▁billion	-7681
▁blanket	-7682
▁broaden	-7683
▁burning	-7684
▁charity	-7685
▁combine	-7686
▁constra	-7687
▁critics	-7688
▁desires	-7689
▁detects	-7690
▁eastern	-7691
▁fifteen	-7692
▁foreign	-7693
▁january	-7694
▁kitchen	-7695
▁lowered	-7696
▁postive	-7697
▁quarter	-7698
▁rethink	-7699
▁roadblo	-7700
▁shocked	-7701
▁skilled	-7702
▁summers	-7703
▁tickets	-7704
▁trained	-7705
▁untrust	-7706
▁vikings	-7707
▁altitude	-7708
▁balances	-7709
▁destruct	-7710
▁diferent	-7711
▁document	-7712
▁dramatic	-7713
▁elective	-7714
▁electral	-7715
▁enrolled	-7716
▁ensuring	-7717
▁evolving	-7718
▁flashing	-7719
▁guessing	-7720
▁hardware	-7721
▁inspired	-7722
▁measures	-7723
▁muscular	-7724
▁prefered	-7725
▁preident	-7726
▁rational	-7727
▁recorded	-7728
▁rigorous	-7729
▁sessions	-7730
▁stranger	-7731
▁studnets	-7732
▁trusting	-7733
▁utilized	-7734
▁weekends	-7735
ifications	-7736
▁adjusting	-7737
▁answering	-7738
▁authority	-7739
▁breathing	-7740
▁gathering	-7741
▁guardians	-7742
▁guideline	-7743
▁interfere	-7744
▁intrested	-7745
▁marketing	-7746
▁mentality	-7747
▁occurring	-7748
▁outweighs	-7749
▁primarily	-7750
▁realizing	-7751
▁reviewing	-7752
▁satisfact	-7753
▁schoolers	-7754
▁september	-7755
▁capability	-7756
▁commercial	-7757
▁deadlocked	-7758
▁experiance	-7759
▁guaranteed	-7760
▁imperative	-7761
▁irrelevant	-7762
▁overlooked	-7763
▁researched	-7764
▁similarity	-7765
▁accommodate	-7766
▁accordingly	-7767
▁combination	-7768
▁convenience	-7769
▁devastating	-7770
▁influential	-7771
▁probability	-7772
▁rectangular	-7773
▁supervision	-7774
▁unrealistic	-7775
▁multitasking	-7776
▁uninterested	-7777
▁comprehension	-7778
▁untrustworthy	-7779
▁disenfranchised	-7780
do	-7781
dy	-7782
fo	-7783
fu	-7784
ii	-7785
amb	-7786
ext	-7787
fic	-7788
gar	-7789
hes	-7790
icl	-7791
isc	-7792
osy	-7793
pin	-7794
rel	-7795
rie	-7796
rue	-7797
uge	-7798
urd	-7799
wag	-7800
▁99	-7801
▁ea	-7802
▁ib	-7803
amas	-7804
cels	-7805
eful	-7806
inal	-7807
lace	-7808
onal	-7809
ople	-7810
owed	-7811
uion	-7812
very	-7813
▁911	-7814
▁alc	-7815
▁amd	-7816
▁ble	-7817
▁dak	-7818
▁dum	-7819
▁hep	-7820
▁hoe	-7821
▁joe	-7822
▁mut	-7823
▁nap	-7824
▁por	-7825
▁tre	-7826
▁wed	-7827
▁wer	-7828
▁wil	-7829
aling	-7830
atley	-7831
hough	-7832
iders	-7833
organ	-7834
otion	-7835
piece	-7836
▁2017	-7837
▁bone	-7838
▁bord	-7839
▁boun	-7840
▁cans	-7841
▁cats	-7842
▁coin	-7843
▁deem	-7844
▁firm	-7845
▁heck	-7846
▁hint	-7847
▁info	-7848
▁lady	-7849
▁lawy	-7850
▁mask	-7851
▁pion	-7852
▁puzz	-7853
▁sale	-7854
▁sett	-7855
▁soph	-7856
▁spec	-7857
▁stro	-7858
▁tall	-7859
▁trig	-7860
▁veiw	-7861
▁wave	-7862
change	-7863
idency	-7864
itably	-7865
lihood	-7866
uation	-7867
▁accum	-7868
▁beile	-7869
▁cable	-7870
▁cheap	-7871
▁chill	-7872
▁cruel	-7873
▁cycle	-7874
▁deple	-7875
▁deter	-7876
▁expir	-7877
▁expon	-7878
▁funds	-7879
▁graph	-7880
▁horiz	-7881
▁knock	-7882
▁match	-7883
▁mimic	-7884
▁nicer	-7885
▁novel	-7886
▁optim	-7887
▁payed	-7888
▁peice	-7889
▁peole	-7890
▁pitch	-7891
▁poses	-7892
▁print	-7893
▁rebut	-7894
▁reser	-7895
▁rural	-7896
▁sched	-7897
▁smell	-7898
▁sorce	-7899
▁users	-7900
▁wides	-7901
abraeus	-7902
ception	-7903
ressive	-7904
rupting	-7905
▁amazed	-7906
▁backed	-7907
▁batter	-7908
▁behalf	-7909
▁bodies	-7910
▁busses	-7911
▁butter	-7912
▁cheeks	-7913
▁coverd	-7914
▁critis	-7915
▁depict	-7916
▁eerily	-7917
▁encode	-7918
▁endure	-7919
▁enroll	-7920
▁excers	-7921
▁exited	-7922
▁faulty	-7923
▁fright	-7924
▁glance	-7925
▁hearts	-7926
▁hourly	-7927
▁housed	-7928
▁hypoth	-7929
▁infect	-7930
▁iphone	-7931
▁messes	-7932
▁motors	-7933
▁nother	-7934
▁overwe	-7935
▁packed	-7936
▁paragr	-7937
▁pencil	-7938
▁posted	-7939
▁poster	-7940
▁relize	-7941
▁shifts	-7942
▁speaks	-7943
▁studys	-7944
▁swerve	-7945
▁theses	-7946
▁theyre	-7947
▁tricky	-7948
▁untied	-7949
▁viable	-7950
▁alcohol	-7951
▁appeals	-7952
▁appoint	-7953
▁approve	-7954
▁carries	-7955
▁casting	-7956
▁charged	-7957
▁chosing	-7958
▁contain	-7959
▁context	-7960
▁cropped	-7961
▁crushed	-7962
▁dealers	-7963
▁decison	-7964
▁evolved	-7965
▁excuses	-7966
▁familys	-7967
▁filling	-7968
▁fullest	-7969
▁harming	-7970
▁haveing	-7971
▁hinders	-7972
▁indecis	-7973
▁jumping	-7974
▁lanform	-7975
▁learing	-7976
▁monitor	-7977
▁muscels	-7978
▁notable	-7979
▁packets	-7980
▁persuit	-7981
▁pharoah	-7982
▁portray	-7983
▁posters	-7984
▁protest	-7985
▁reliant	-7986
▁replied	-7987
▁revenue	-7988
▁selling	-7989
▁tempted	-7990
▁thirdly	-7991
portation	-7992
▁absences	-7993
▁adequate	-7994
▁americas	-7995
▁announce	-7996
▁bothered	-7997
▁conserve	-7998
▁counties	-7999
▁creature	-8000
▁dropping	-8001
▁entering	-8002
▁figuring	-8003
▁invading	-8004
▁knowlege	-8005
▁laughing	-8006
▁mindless	-8007
▁mornings	-8008
▁obtained	-8009
▁officers	-8010
▁paragrah	-8011
▁partners	-8012
▁preserve	-8013
▁reffered	-8014
▁saturday	-8015
▁secretly	-8016
▁severely	-8017
▁smartest	-8018
▁smoother	-8019
▁starters	-8020
▁sticking	-8021
▁suprised	-8022
▁switched	-8023
▁talented	-8024
▁upgrades	-8025
▁abundance	-8026
▁activites	-8027
▁artifacts	-8028
▁brilliant	-8029
▁condtions	-8030
▁cooperate	-8031
▁deadlines	-8032
▁diversity	-8033
▁excessive	-8034
▁hospitals	-8035
▁investing	-8036
▁motorized	-8037
▁occasions	-8038
▁persident	-8039
▁presdient	-8040
▁prominent	-8041
▁remaining	-8042
▁reproduce	-8043
▁retention	-8044
▁rollovers	-8045
▁scheduled	-8046
▁soemthing	-8047
▁specially	-8048
▁stimulate	-8049
▁sucessful	-8050
▁tradition	-8051
▁treatment	-8052
▁workforce	-8053
▁commitment	-8054
▁counselors	-8055
▁dependency	-8056
▁estimating	-8057
▁eventhough	-8058
▁industries	-8059
▁reasonings	-8060
▁relatively	-8061
▁restaurant	-8062
▁tournament	-8063
▁unemployed	-8064
▁widespread	-8065
▁approaching	-8066
▁consequence	-8067
▁fascinating	-8068
▁frustrating	-8069
▁frustration	-8070
▁interrupted	-8071
▁masterpiece	-8072
▁observation	-8073
▁championship	-8074
▁developement	-8075
▁establishing	-8076
▁inconclusion	-8077
▁indisputable	-8078
▁intellectual	-8079
▁participants	-8080
▁professionals	-8081
▁socialization	-8082
▁unconsciously	-8083
▁administrators	-8084
go	-8085
hy	-8086
za	-8087
eny	-8088
erd	-8089
fet	-8090
iff	-8091
pan	-8092
pay	-8093
rit	-8094
rum	-8095
top	-8096
zed	-8097
▁75	-8098
▁ep	-8099
▁od	-8100
▁oz	-8101
alax	-8102
ancy	-8103
angh	-8104
aves	-8105
ends	-8106
ethe	-8107
fits	-8108
ifed	-8109
igth	-8110
ills	-8111
mers	-8112
oned	-8113
rase	-8114
roit	-8115
rous	-8116
vest	-8117
▁bye	-8118
▁cov	-8119
▁cri	-8120
▁cum	-8121
▁dub	-8122
▁esp	-8123
▁fot	-8124
▁gum	-8125
▁jap	-8126
▁kin	-8127
▁lac	-8128
▁lux	-8129
▁maj	-8130
▁pra	-8131
▁req	-8132
▁sex	-8133
▁sic	-8134
▁sle	-8135
▁sti	-8136
▁tan	-8137
▁tro	-8138
▁twe	-8139
▁voc	-8140
▁wel	-8141
agram	-8142
aired	-8143
ctors	-8144
dupar	-8145
ender	-8146
ighth	-8147
inter	-8148
pipes	-8149
usive	-8150
versy	-8151
▁adav	-8152
▁arnt	-8153
▁begg	-8154
▁brib	-8155
▁buis	-8156
▁buss	-8157
▁coud	-8158
▁cute	-8159
▁deny	-8160
▁dogs	-8161
▁elab	-8162
▁fold	-8163
▁gift	-8164
▁hire	-8165
▁hook	-8166
▁lest	-8167
▁lous	-8168
▁maby	-8169
▁meal	-8170
▁moms	-8171
▁mort	-8172
▁nons	-8173
▁perc	-8174
▁poul	-8175
▁rene	-8176
▁sigh	-8177
▁tack	-8178
▁tact	-8179
▁thst	-8180
▁torn	-8181
▁toys	-8182
▁unac	-8183
▁venu	-8184
▁verd	-8185
▁vill	-8186
▁wand	-8187
agraph	-8188
anghai	-8189
asible	-8190
erties	-8191
formed	-8192
idates	-8193
isting	-8194
lement	-8195
lusion	-8196
▁cafet	-8197
▁coinc	-8198
▁comun	-8199
▁crime	-8200
▁disag	-8201
▁divid	-8202
▁doors	-8203
▁dynam	-8204
▁expos	-8205
▁fumes	-8206
▁galax	-8207
▁grass	-8208
▁grows	-8209
▁halls	-8210
▁hates	-8211
▁haves	-8212
▁meets	-8213
▁monot	-8214
▁newly	-8215
▁noone	-8216
▁nurse	-8217
▁obese	-8218
▁overp	-8219
▁ozone	-8220
▁paces	-8221
▁peple	-8222
▁perks	-8223
▁polls	-8224
▁pregn	-8225
▁probl	-8226
▁rehab	-8227
▁riots	-8228
▁roles	-8229
▁shine	-8230
▁silly	-8231
▁skate	-8232
▁trial	-8233
▁unedu	-8234
▁wrest	-8235
▁wrink	-8236
▁youll	-8237
antages	-8238
charged	-8239
ression	-8240
▁absorb	-8241
▁affair	-8242
▁africa	-8243
▁angery	-8244
▁becase	-8245
▁blurry	-8246
▁buttle	-8247
▁circle	-8248
▁clases	-8249
▁colleg	-8250
▁contry	-8251
▁correl	-8252
▁creepy	-8253
▁crimes	-8254
▁dakota	-8255
▁decent	-8256
▁deside	-8257
▁expose	-8258
▁formal	-8259
▁fossil	-8260
▁foster	-8261
▁fourty	-8262
▁genius	-8263
▁glitch	-8264
▁imform	-8265
▁juggle	-8266
▁lately	-8267
▁lieing	-8268
▁martin	-8269
▁medium	-8270
▁nixion	-8271
▁orient	-8272
▁outbre	-8273
▁peaked	-8274
▁pepole	-8275
▁pharoh	-8276
▁pixels	-8277
▁pledge	-8278
▁potent	-8279
▁restra	-8280
▁ruined	-8281
▁spring	-8282
▁status	-8283
▁summar	-8284
▁suport	-8285
▁suspic	-8286
▁taxpay	-8287
▁therap	-8288
▁traged	-8289
▁tunnel	-8290
▁valcan	-8291
▁volunt	-8292
▁werent	-8293
aneously	-8294
▁academy	-8295
▁analyze	-8296
▁awarded	-8297
▁barrier	-8298
▁beileve	-8299
▁bullies	-8300
▁chatter	-8301
▁clarity	-8302
▁cousins	-8303
▁crowded	-8304
▁diesels	-8305
▁dilemma	-8306
▁dreaded	-8307
▁encount	-8308
▁enought	-8309
▁erosion	-8310
▁execute	-8311
▁fiction	-8312
▁gadgets	-8313
▁heading	-8314
▁hitting	-8315
▁informs	-8316
▁justice	-8317
▁limting	-8318
▁managed	-8319
▁pollute	-8320
▁posible	-8321
▁powered	-8322
▁reaches	-8323
▁recongn	-8324
▁secound	-8325
▁secrets	-8326
▁singing	-8327
▁slipped	-8328
▁sustain	-8329
▁teenage	-8330
▁theater	-8331
▁turnout	-8332
▁uncover	-8333
▁upgrade	-8334
▁vaubans	-8335
▁viruses	-8336
istically	-8337
▁acording	-8338
▁acquired	-8339
▁airplane	-8340
▁approval	-8341
▁attached	-8342
▁backside	-8343
▁billions	-8344
▁claiming	-8345
▁clothing	-8346
▁collages	-8347
▁colllege	-8348
▁contains	-8349
▁controls	-8350
▁covering	-8351
▁cultural	-8352
▁dedicate	-8353
▁develops	-8354
▁donating	-8355
▁drawings	-8356
▁employee	-8357
▁epidemic	-8358
▁equipped	-8359
▁identity	-8360
▁ignorant	-8361
▁ignoring	-8362
▁linchpin	-8363
▁marveled	-8364
▁misunder	-8365
▁necklace	-8366
▁observed	-8367
▁occurred	-8368
▁opportun	-8369
▁platform	-8370
▁probable	-8371
▁profound	-8372
▁property	-8373
▁rearview	-8374
▁relating	-8375
▁resident	-8376
▁resulted	-8377
▁rotating	-8378
▁scanning	-8379
▁shanghai	-8380
▁similiar	-8381
▁strategy	-8382
▁superior	-8383
▁tendency	-8384
▁traveled	-8385
▁upgraded	-8386
▁violence	-8387
▁addresses	-8388
▁afternoon	-8389
▁analyzing	-8390
▁attentive	-8391
▁boyfriend	-8392
▁cafeteria	-8393
▁classmate	-8394
▁creations	-8395
▁criticism	-8396
▁customize	-8397
▁definetly	-8398
▁differing	-8399
▁differnet	-8400
▁dissagree	-8401
▁enforcing	-8402
▁existance	-8403
▁overboard	-8404
▁placement	-8405
▁precedent	-8406
▁presidnet	-8407
▁resembled	-8408
▁responses	-8409
▁seemingly	-8410
▁shootings	-8411
▁specified	-8412
▁tailpipes	-8413
▁teammates	-8414
▁temporary	-8415
▁textbooks	-8416
▁uncertain	-8417
▁unhealthy	-8418
▁wandering	-8419
▁accomodate	-8420
▁assessment	-8421
▁businesses	-8422
▁canadidate	-8423
▁cautiously	-8424
▁cirriculum	-8425
▁continuous	-8426
▁corruption	-8427
▁discharged	-8428
▁disgusting	-8429
▁disrupting	-8430
▁emmissions	-8431
▁engagement	-8432
▁fatalities	-8433
▁fulfilling	-8434
▁impediment	-8435
▁inevitably	-8436
▁likelihood	-8437
▁manipulate	-8438
▁navigation	-8439
▁overweight	-8440
▁presendent	-8441
▁presenting	-8442
▁propulsion	-8443
▁questioned	-8444
▁regulation	-8445
▁scheduling	-8446
▁structures	-8447
▁uneducated	-8448
▁valledupar	-8449
▁volunteers	-8450
▁worthwhile	-8451
▁achievement	-8452
▁appreciated	-8453
▁assumptions	-8454
▁controlling	-8455
▁emotionally	-8456
▁governments	-8457
▁institution	-8458
▁instructors	-8459
▁palpabraeus	-8460
▁photographs	-8461
▁reassurance	-8462
▁smartphones	-8463
▁accidentally	-8464
▁advantageous	-8465
▁destinations	-8466
▁enviromental	-8467
▁manufactures	-8468
▁participates	-8469
▁standardized	-8470
▁thoroughfare	-8471
▁accessibility	-8472
▁effectiveness	-8473
▁individuality	-8474
▁representives	-8475
bl	-8476
sa	-8477
sl	-8478
ws	-8479
che	-8480
ece	-8481
ept	-8482
hic	-8483
inf	-8484
lex	-8485
lik	-8486
lle	-8487
nts	-8488
oer	-8489
ogh	-8490
oin	-8491
oms	-8492
oug	-8493
uty	-8494
▁ou	-8495
▁ya	-8496
aion	-8497
amet	-8498
anda	-8499
atio	-8500
avor	-8501
bast	-8502
chat	-8503
clty	-8504
down	-8505
eers	-8506
icip	-8507
icit	-8508
itee	-8509
itty	-8510
lets	-8511
logy	-8512
oukd	-8513
pend	-8514
pere	-8515
ream	-8516
sely	-8517
uage	-8518
ules	-8519
▁390	-8520
▁arm	-8521
▁nit	-8522
▁rac	-8523
▁sed	-8524
▁sof	-8525
▁sou	-8526
▁ths	-8527
▁urg	-8528
aches	-8529
anges	-8530
arity	-8531
asary	-8532
ensus	-8533
ested	-8534
inery	-8535
itter	-8536
ommon	-8537
oning	-8538
owers	-8539
rosse	-8540
stein	-8541
suits	-8542
▁acce	-8543
▁alll	-8544
▁bits	-8545
▁boom	-8546
▁cout	-8547
▁dire	-8548
▁dive	-8549
▁elim	-8550
▁fond	-8551
▁goof	-8552
▁intu	-8553
▁jeff	-8554
▁jhon	-8555
▁lisc	-8556
▁meat	-8557
▁mode	-8558
▁mout	-8559
▁nutr	-8560
▁owns	-8561
▁pays	-8562
▁plag	-8563
▁pole	-8564
▁pray	-8565
▁soul	-8566
▁spar	-8567
▁stam	-8568
▁thru	-8569
▁thye	-8570
▁ugly	-8571
▁unst	-8572
▁unsu	-8573
▁wire	-8574
antion	-8575
apable	-8576
atable	-8577
cesary	-8578
icable	-8579
illion	-8580
itment	-8581
nology	-8582
plined	-8583
puters	-8584
seeing	-8585
shield	-8586
ternal	-8587
uitous	-8588
ulsive	-8589
ustion	-8590
▁aband	-8591
▁adopt	-8592
▁assit	-8593
▁atten	-8594
▁beacu	-8595
▁brick	-8596
▁brown	-8597
▁camps	-8598
▁colon	-8599
▁conqu	-8600
▁covid	-8601
▁crack	-8602
▁deals	-8603
▁digit	-8604
▁embra	-8605
▁exerc	-8606
▁fears	-8607
▁foods	-8608
▁gotta	-8609
▁goven	-8610
▁indiv	-8611
▁inert	-8612
▁inhib	-8613
▁lacks	-8614
▁laser	-8615
▁mabey	-8616
▁maker	-8617
▁misbe	-8618
▁oline	-8619
▁outdo	-8620
▁overr	-8621
▁pople	-8622
▁pound	-8623
▁quant	-8624
▁reply	-8625
▁rival	-8626
▁saids	-8627
▁screw	-8628
▁sheet	-8629
▁shirt	-8630
▁showc	-8631
▁softw	-8632
▁tally	-8633
endment	-8634
erating	-8635
fulness	-8636
ication	-8637
otation	-8638
▁alaska	-8639
▁alerts	-8640
▁ballet	-8641
▁ballot	-8642
▁beause	-8643
▁becaue	-8644
▁behave	-8645
▁boards	-8646
▁braces	-8647
▁cancer	-8648
▁captiv	-8649
▁christ	-8650
▁demost	-8651
▁eighth	-8652
▁ellect	-8653
▁emails	-8654
▁escape	-8655
▁evolve	-8656
▁fahren	-8657
▁focuse	-8658
▁imagin	-8659
▁immune	-8660
▁insane	-8661
▁invite	-8662
▁luxury	-8663
▁mathem	-8664
▁merely	-8665
▁models	-8666
▁mucles	-8667
▁nerves	-8668
▁ninety	-8669
▁noting	-8670
▁orbits	-8671
▁remark	-8672
▁remote	-8673
▁sebast	-8674
▁senors	-8675
▁series	-8676
▁simult	-8677
▁solves	-8678
▁statue	-8679
▁strain	-8680
▁submit	-8681
▁taxing	-8682
▁tempet	-8683
▁typing	-8684
▁usuage	-8685
▁vastly	-8686
▁venues	-8687
▁verbal	-8688
▁viewed	-8689
ceptable	-8690
entional	-8691
resident	-8692
▁absence	-8693
▁acually	-8694
▁adopted	-8695
▁advices	-8696
▁attends	-8697
▁benefic	-8698
▁captain	-8699
▁certian	-8700
▁chaotic	-8701
▁charles	-8702
▁communt	-8703
▁confirm	-8704
▁cooling	-8705
▁dancing	-8706
▁decline	-8707
▁dictate	-8708
▁diffren	-8709
▁disappe	-8710
▁dynamic	-8711
▁entered	-8712
▁founder	-8713
▁frankly	-8714
▁handful	-8715
▁hybrids	-8716
▁judging	-8717
▁lacking	-8718
▁mapping	-8719
▁measure	-8720
▁mounted	-8721
▁network	-8722
▁officer	-8723
▁ongoing	-8724
▁pointed	-8725
▁popluar	-8726
▁pretend	-8727
▁priorit	-8728
▁raining	-8729
▁readily	-8730
▁recives	-8731
▁remains	-8732
▁rescind	-8733
▁screens	-8734
▁sisters	-8735
▁sothing	-8736
▁unaware	-8737
▁valuble	-8738
▁viewing	-8739
▁village	-8740
ilitation	-8741
organized	-8742
ronically	-8743
▁calculus	-8744
▁colorado	-8745
▁comforts	-8746
▁delicate	-8747
▁deserved	-8748
▁desicion	-8749
▁disastor	-8750
▁dreadful	-8751
▁electoal	-8752
▁exchange	-8753
▁feasible	-8754
▁findings	-8755
▁inconven	-8756
▁indirect	-8757
▁instinct	-8758
▁lacrosse	-8759
▁landmass	-8760
▁occuring	-8761
▁operated	-8762
▁pleasing	-8763
▁pressing	-8764
▁prohibit	-8765
▁randomly	-8766
▁returned	-8767
▁risorius	-8768
▁snapchat	-8769
▁starving	-8770
▁stresses	-8771
▁substant	-8772
▁swimming	-8773
▁touching	-8774
▁uncommon	-8775
▁uniforms	-8776
▁updating	-8777
▁wasteful	-8778
▁agreement	-8779
▁alongside	-8780
▁benefical	-8781
▁colombian	-8782
▁committed	-8783
▁corrupted	-8784
▁counselor	-8785
▁detecting	-8786
▁disasters	-8787
▁displayed	-8788
▁disregard	-8789
▁diverless	-8790
▁documents	-8791
▁economics	-8792
▁electives	-8793
▁everthing	-8794
▁executive	-8795
▁formulate	-8796
▁genuinely	-8797
▁greatness	-8798
▁hardships	-8799
▁identical	-8800
▁impactful	-8801
▁indicates	-8802
▁informing	-8803
▁locations	-8804
▁machinery	-8805
▁obligated	-8806
▁partially	-8807
▁positions	-8808
▁programed	-8809
▁recongize	-8810
▁reference	-8811
▁respected	-8812
▁sentences	-8813
▁succesful	-8814
▁suprising	-8815
▁taxpayers	-8816
▁themselfs	-8817
▁violators	-8818
▁wrestling	-8819
▁approached	-8820
▁collecting	-8821
▁concluding	-8822
▁coursework	-8823
▁critically	-8824
▁developers	-8825
▁discourage	-8826
▁exhausting	-8827
▁expirement	-8828
▁fortuitous	-8829
▁futuristic	-8830
▁indecisive	-8831
▁interviews	-8832
▁investment	-8833
▁limitation	-8834
▁motivating	-8835
▁reconsider	-8836
▁windshield	-8837
▁confidently	-8838
▁demographic	-8839
▁description	-8840
▁encountered	-8841
▁expectation	-8842
▁fortunately	-8843
▁threatening	-8844
▁arrangements	-8845
▁counterclaim	-8846
▁developments	-8847
▁incorporated	-8848
▁photographed	-8849
▁reasearchers	-8850
▁respectively	-8851
▁universities	-8852
▁exponentially	-8853
▁psychological	-8854
▁simultaneously	-8855
▁understandings	-8856
da	-8857
ik	-8858
mb	-8859
yl	-8860
ala	-8861
ana	-8862
ara	-8863
asm	-8864
cip	-8865
cul	-8866
fun	-8867
hat	-8868
hop	-8869
ifi	-8870
ker	-8871
law	-8872
lin	-8873
liy	-8874
lty	-8875
nic	-8876
sts	-8877
tes	-8878
uce	-8879
uin	-8880
upt	-8881
▁mi	-8882
▁na	-8883
▁tp	-8884
▁uk	-8885
▁ze	-8886
aign	-8887
alid	-8888
atin	-8889
atis	-8890
band	-8891
care	-8892
cher	-8893
cive	-8894
ckus	-8895
have	-8896
inds	-8897
ingu	-8898
iped	-8899
itar	-8900
itiy	-8901
kers	-8902
odes	-8903
oped	-8904
reme	-8905
site	-8906
soft	-8907
tles	-8908
ulty	-8909
vard	-8910
▁alb	-8911
▁ber	-8912
▁bin	-8913
▁cac	-8914
▁dif	-8915
▁dim	-8916
▁dur	-8917
▁ein	-8918
▁emo	-8919
▁fas	-8920
▁foe	-8921
▁gol	-8922
▁gut	-8923
▁hig	-8924
▁hus	-8925
▁ist	-8926
▁mas	-8927
▁oft	-8928
▁ont	-8929
▁org	-8930
▁siv	-8931
▁spa	-8932
▁thn	-8933
▁ufo	-8934
▁woo	-8935
▁wra	-8936
acies	-8937
ample	-8938
class	-8939
ectic	-8940
erson	-8941
erted	-8942
iated	-8943
idays	-8944
isers	-8945
isons	-8946
isure	-8947
ocide	-8948
odact	-8949
orter	-8950
ratch	-8951
ribly	-8952
storm	-8953
useum	-8954
▁1900	-8955
▁2019	-8956
▁actu	-8957
▁alum	-8958
▁budd	-8959
▁bump	-8960
▁clas	-8961
▁doug	-8962
▁drag	-8963
▁enem	-8964
▁eved	-8965
▁evil	-8966
▁expe	-8967
▁fade	-8968
▁fans	-8969
▁feul	-8970
▁gaps	-8971
▁gent	-8972
▁herd	-8973
▁hike	-8974
▁inqu	-8975
▁leak	-8976
▁mast	-8977
▁mech	-8978
▁mimi	-8979
▁pand	-8980
▁pock	-8981
▁pter	-8982
▁pupp	-8983
▁rage	-8984
▁reas	-8985
▁regu	-8986
▁reps	-8987
▁sced	-8988
▁sect	-8989
▁thee	-8990
▁thet	-8991
▁vari	-8992
▁vaul	-8993
▁waht	-8994
▁wiht	-8995
▁woul	-8996
active	-8997
aneous	-8998
ditory	-8999
ertips	-9000
ieties	-9001
itates	-9002
ocused	-9003
▁abort	-9004
▁actir	-9005
▁allev	-9006
▁atmop	-9007
▁audio	-9008
▁backp	-9009
▁beams	-9010
▁bible	-9011
▁blood	-9012
▁blown	-9013
▁boats	-9014
▁breed	-9015
▁bulit	-9016
▁cance	-9017
▁categ	-9018
▁cease	-9019
▁chart	-9020
▁click	-9021
▁conso	-9022
▁cripp	-9023
▁disli	-9024
▁drain	-9025
▁drops	-9026
▁fatig	-9027
▁fired	-9028
▁flash	-9029
▁fores	-9030
▁fuels	-9031
▁gates	-9032
▁grant	-9033
▁gross	-9034
▁impor	-9035
▁inapp	-9036
▁journ	-9037
▁likey	-9038
▁likly	-9039
▁looph	-9040
▁mason	-9041
▁minus	-9042
▁negat	-9043
▁overc	-9044
▁paced	-9045
▁piles	-9046
▁recon	-9047
▁relev	-9048
▁repet	-9049
▁rigid	-9050
▁shelt	-9051
▁spoke	-9052
▁stare	-9053
▁stood	-9054
▁swish	-9055
▁unnec	-9056
▁waist	-9057
▁whant	-9058
▁woven	-9059
autions	-9060
entimes	-9061
idering	-9062
oidable	-9063
ologist	-9064
repared	-9065
respond	-9066
▁aleins	-9067
▁arises	-9068
▁autism	-9069
▁becuas	-9070
▁bounce	-9071
▁buried	-9072
▁buyers	-9073
▁childs	-9074
▁denied	-9075
▁desper	-9076
▁dieing	-9077
▁drving	-9078
▁dubbed	-9079
▁eleven	-9080
▁endang	-9081
▁exists	-9082
▁expers	-9083
▁extend	-9084
▁handic	-9085
▁harass	-9086
▁hectic	-9087
▁indent	-9088
▁infrom	-9089
▁inputs	-9090
▁issued	-9091
▁judged	-9092
▁latter	-9093
▁masses	-9094
▁murder	-9095
▁newest	-9096
▁plante	-9097
▁poison	-9098
▁potato	-9099
▁predic	-9100
▁relied	-9101
▁resort	-9102
▁senses	-9103
▁sophom	-9104
▁sourse	-9105
▁spoken	-9106
▁steady	-9107
▁stream	-9108
▁strike	-9109
▁tackle	-9110
▁thoses	-9111
▁trials	-9112
▁trucks	-9113
▁undert	-9114
▁unites	-9115
▁unpred	-9116
▁untill	-9117
▁usally	-9118
▁varies	-9119
▁warmer	-9120
breaking	-9121
classmen	-9122
▁annoyed	-9123
▁appered	-9124
▁assault	-9125
▁assumed	-9126
▁assured	-9127
▁bandwag	-9128
▁blowing	-9129
▁comprim	-9130
▁concert	-9131
▁copying	-9132
▁courage	-9133
▁designe	-9134
▁despise	-9135
▁detroit	-9136
▁disater	-9137
▁dismiss	-9138
▁divided	-9139
▁dreamed	-9140
▁fosters	-9141
▁hacking	-9142
▁hangout	-9143
▁harvard	-9144
▁honesty	-9145
▁infront	-9146
▁interns	-9147
▁invalid	-9148
▁legitim	-9149
▁leisure	-9150
▁lengthy	-9151
▁longest	-9152
▁mishaps	-9153
▁mustang	-9154
▁oneself	-9155
▁passang	-9156
▁plantes	-9157
▁procces	-9158
▁regared	-9159
▁remeber	-9160
▁removes	-9161
▁scratch	-9162
▁seniors	-9163
▁sheller	-9164
▁signing	-9165
▁simular	-9166
▁sofware	-9167
▁species	-9168
▁substit	-9169
▁themsle	-9170
▁unclear	-9171
▁upsides	-9172
▁victims	-9173
▁wouldve	-9174
▁actaully	-9175
▁aircraft	-9176
▁appropri	-9177
▁approxim	-9178
▁classrom	-9179
▁concider	-9180
▁confront	-9181
▁connects	-9182
▁contempl	-9183
▁credible	-9184
▁electora	-9185
▁excluded	-9186
▁exposure	-9187
▁fairness	-9188
▁fourteen	-9189
▁governer	-9190
▁impacted	-9191
▁inertial	-9192
▁introver	-9193
▁kindness	-9194
▁lawsuits	-9195
▁lifeform	-9196
▁lousiana	-9197
▁medicine	-9198
▁minimize	-9199
▁mobility	-9200
▁moutains	-9201
▁movments	-9202
▁nonsense	-9203
▁obstacle	-9204
▁oriented	-9205
▁ourselfs	-9206
▁outlooks	-9207
▁pargraph	-9208
▁patterns	-9209
▁payments	-9210
▁petition	-9211
▁planting	-9212
▁promises	-9213
▁quantity	-9214
▁relation	-9215
▁religion	-9216
▁robotics	-9217
▁sidewalk	-9218
▁societal	-9219
▁someting	-9220
▁spectrum	-9221
▁speeding	-9222
▁sporting	-9223
▁statment	-9224
▁stranded	-9225
▁succeded	-9226
▁suffered	-9227
▁targeted	-9228
▁visitors	-9229
unications	-9230
▁announces	-9231
▁atmospher	-9232
▁canadates	-9233
▁candiates	-9234
▁challange	-9235
▁collected	-9236
▁collision	-9237
▁convience	-9238
▁declining	-9239
▁designers	-9240
▁dictators	-9241
▁drawbacks	-9242
▁elecotral	-9243
▁employers	-9244
▁enjoyment	-9245
▁eveything	-9246
▁excitment	-9247
▁existence	-9248
▁expertise	-9249
▁geography	-9250
▁impulsive	-9251
▁initially	-9252
▁instagram	-9253
▁installed	-9254
▁lessening	-9255
▁lifeforms	-9256
▁mechanics	-9257
▁memorable	-9258
▁performed	-9259
▁possiable	-9260
▁possitive	-9261
▁preisdent	-9262
▁pressures	-9263
▁processes	-9264
▁projected	-9265
▁pterodact	-9266
▁relieving	-9267
▁scientest	-9268
▁sebastian	-9269
▁sensitive	-9270
▁sightings	-9271
▁slightest	-9272
▁summarize	-9273
▁suspended	-9274
▁unfocused	-9275
▁vehicular	-9276
▁vibrating	-9277
▁wrinkling	-9278
▁adequately	-9279
▁apparently	-9280
▁applicable	-9281
▁boundaries	-9282
▁challenged	-9283
▁comparable	-9284
▁consulting	-9285
▁discomfort	-9286
▁disturbing	-9287
▁electroral	-9288
▁enthusiasm	-9289
▁fingertips	-9290
▁households	-9291
▁outrageous	-9292
▁principles	-9293
▁reflection	-9294
▁researches	-9295
▁scientests	-9296
▁supposedly	-9297
▁travelling	-9298
▁unprepared	-9299
▁calculating	-9300
▁comfortably	-9301
▁compromises	-9302
▁disciplined	-9303
▁engineering	-9304
▁exemplifies	-9305
▁facilitated	-9306
▁hardworking	-9307
▁imformation	-9308
▁inhabitable	-9309
▁preferences	-9310
▁programming	-9311
▁regulations	-9312
▁sightseeing	-9313
▁specialized	-9314
▁unavoidable	-9315
▁unimportant	-9316
▁unorganized	-9317
▁achievements	-9318
▁catastrophic	-9319
▁disappointed	-9320
▁explanations	-9321
▁satisfactory	-9322
▁significance	-9323
▁unacceptable	-9324
▁concentrating	-9325
▁inappropriate	-9326
▁telecommuting	-9327
▁tranportation	-9328
▁malfunctioning	-9329
ca	-9330
ek	-9331
fy	-9332
ju	-9333
lp	-9334
vs	-9335
vy	-9336
wo	-9337
azz	-9338
bol	-9339
box	-9340
car	-9341
com	-9342
cut	-9343
des	-9344
eal	-9345
eps	-9346
fty	-9347
ham	-9348
ife	-9349
jud	-9350
lim	-9351
nat	-9352
osn	-9353
pah	-9354
pes	-9355
pro	-9356
udd	-9357
uly	-9358
urm	-9359
zen	-9360
▁bc	-9361
▁dn	-9362
▁eh	-9363
▁jr	-9364
▁nd	-9365
aing	-9366
ales	-9367
anut	-9368
bles	-9369
cled	-9370
enge	-9371
etor	-9372
icts	-9373
ifes	-9374
iong	-9375
itor	-9376
izza	-9377
neys	-9378
ools	-9379
ourt	-9380
rise	-9381
this	-9382
uled	-9383
uous	-9384
vies	-9385
▁ail	-9386
▁aka	-9387
▁amm	-9388
▁ari	-9389
▁ash	-9390
▁asp	-9391
▁aur	-9392
▁awa	-9393
▁bay	-9394
▁bug	-9395
▁cos	-9396
▁cuz	-9397
▁dol	-9398
▁ell	-9399
▁fab	-9400
▁fem	-9401
▁fet	-9402
▁fol	-9403
▁gap	-9404
▁ina	-9405
▁jog	-9406
▁lev	-9407
▁ned	-9408
▁nes	-9409
▁ore	-9410
▁pin	-9411
▁pou	-9412
▁spr	-9413
▁sue	-9414
▁tam	-9415
▁tip	-9416
▁tow	-9417
▁wen	-9418
accur	-9419
andal	-9420
anist	-9421
asure	-9422
atics	-9423
cepts	-9424
chers	-9425
count	-9426
cture	-9427
ersey	-9428
impse	-9429
lated	-9430
marks	-9431
olved	-9432
oting	-9433
rants	-9434
rough	-9435
udent	-9436
ulary	-9437
urity	-9438
uster	-9439
verty	-9440
▁ablo	-9441
▁ache	-9442
▁aint	-9443
▁blah	-9444
▁cann	-9445
▁cany	-9446
▁choc	-9447
▁cite	-9448
▁conj	-9449
▁deer	-9450
▁ding	-9451
▁dint	-9452
▁disg	-9453
▁ears	-9454
▁eart	-9455
▁east	-9456
▁fees	-9457
▁fist	-9458
▁flag	-9459
▁inse	-9460
▁keys	-9461
▁leap	-9462
▁legs	-9463
▁medi	-9464
▁phen	-9465
▁prem	-9466
▁publ	-9467
▁reap	-9468
▁rebu	-9469
▁riot	-9470
▁scul	-9471
▁seam	-9472
▁shed	-9473
▁skin	-9474
▁solo	-9475
▁spon	-9476
▁stor	-9477
▁succ	-9478
▁tang	-9479
▁thre	-9480
▁thta	-9481
▁tras	-9482
▁tthe	-9483
▁unec	-9484
▁unin	-9485
▁vech	-9486
▁veun	-9487
▁whis	-9488
▁wifi	-9489
▁worn	-9490
▁youd	-9491
▁zeke	-9492
abling	-9493
acular	-9494
aganda	-9495
alized	-9496
allies	-9497
assion	-9498
berate	-9499
ements	-9500
ereoty	-9501
ething	-9502
iantly	-9503
irence	-9504
opping	-9505
otions	-9506
ourish	-9507
quakes	-9508
ressed	-9509
rested	-9510
rocket	-9511
soever	-9512
ulates	-9513
unting	-9514
vering	-9515
▁aston	-9516
▁bales	-9517
▁birds	-9518
▁blink	-9519
▁blury	-9520
▁booth	-9521
▁bread	-9522
▁bribe	-9523
▁cites	-9524
▁coord	-9525
▁cyber	-9526
▁demol	-9527
▁desks	-9528
▁devol	-9529
▁divor	-9530
▁expre	-9531
▁gangs	-9532
▁gifts	-9533
▁harms	-9534
▁heres	-9535
▁hight	-9536
▁higly	-9537
▁hills	-9538
▁humas	-9539
▁hurry	-9540
▁hyper	-9541
▁inner	-9542
▁intru	-9543
▁ipods	-9544
▁jokes	-9545
▁magic	-9546
▁march	-9547
▁meals	-9548
▁mexic	-9549
▁needy	-9550
▁nerve	-9551
▁pants	-9552
▁peope	-9553
▁peopl	-9554
▁pizza	-9555
▁plaus	-9556
▁prest	-9557
▁proff	-9558
▁punch	-9559
▁remed	-9560
▁renew	-9561
▁ruled	-9562
▁scene	-9563
▁spons	-9564
▁stray	-9565
▁sucks	-9566
▁sympt	-9567
▁theat	-9568
▁thera	-9569
▁thrun	-9570
▁troop	-9571
▁tying	-9572
▁uniqu	-9573
▁unpro	-9574
▁utter	-9575
▁vocab	-9576
▁wakes	-9577
▁whent	-9578
▁winds	-9579
ductive	-9580
ensions	-9581
issance	-9582
osition	-9583
otunity	-9584
verless	-9585
vestock	-9586
▁absurd	-9587
▁afters	-9588
▁albert	-9589
▁alowed	-9590
▁anarch	-9591
▁attrib	-9592
▁aviods	-9593
▁biases	-9594
▁binary	-9595
▁challe	-9596
▁checks	-9597
▁choise	-9598
▁chould	-9599
▁compat	-9600
▁consit	-9601
▁contra	-9602
▁cracks	-9603
▁crying	-9604
▁devote	-9605
▁disney	-9606
▁drills	-9607
▁drinks	-9608
▁ethnic	-9609
▁finaly	-9610
▁flavor	-9611
▁fundra	-9612
▁guilty	-9613
▁guitar	-9614
▁inters	-9615
▁invade	-9616
▁jersey	-9617
▁judges	-9618
▁lawyer	-9619
▁lazier	-9620
▁lesser	-9621
▁locked	-9622
▁lovely	-9623
▁loving	-9624
▁mockus	-9625
▁museum	-9626
▁nearby	-9627
▁noises	-9628
▁outher	-9629
▁outlaw	-9630
▁outlet	-9631
▁overly	-9632
▁parked	-9633
▁peanut	-9634
▁poplar	-9635
▁probly	-9636
▁proced	-9637
▁proces	-9638
▁produc	-9639
▁quoted	-9640
▁racing	-9641
▁radios	-9642
▁reaser	-9643
▁recive	-9644
▁regain	-9645
▁repair	-9646
▁scouts	-9647
▁settle	-9648
▁sewing	-9649
▁shiped	-9650
▁simlar	-9651
▁sleepy	-9652
▁smarts	-9653
▁squint	-9654
▁sticky	-9655
▁tables	-9656
▁tailor	-9657
▁tasked	-9658
▁thirst	-9659
▁timely	-9660
▁tricks	-9661
▁unders	-9662
▁upside	-9663
▁urgent	-9664
▁valued	-9665
▁videog	-9666
▁weaker	-9667
asonable	-9668
onstruct	-9669
▁actualy	-9670
▁adapted	-9671
▁attened	-9672
▁belongs	-9673
▁blessed	-9674
▁bulling	-9675
▁camping	-9676
▁choking	-9677
▁closley	-9678
▁consits	-9679
▁console	-9680
▁creater	-9681
▁damaged	-9682
▁debates	-9683
▁defined	-9684
▁diaster	-9685
▁eletors	-9686
▁everday	-9687
▁eveyone	-9688
▁exaclty	-9689
▁expects	-9690
▁faculty	-9691
▁finance	-9692
▁fitness	-9693
▁flowers	-9694
▁foolish	-9695
▁glimpse	-9696
▁graphic	-9697
▁gravity	-9698
▁hackers	-9699
▁happing	-9700
▁hazards	-9701
▁hilltop	-9702
▁inaccur	-9703
▁initial	-9704
▁install	-9705
▁justify	-9706
▁knowled	-9707
▁learnig	-9708
▁legally	-9709
▁letters	-9710
▁lisence	-9711
▁listens	-9712
▁majorly	-9713
▁mentors	-9714
▁mondays	-9715
▁monoton	-9716
▁orginal	-9717
▁plantet	-9718
▁pockets	-9719
▁popualr	-9720
▁postion	-9721
▁poverty	-9722
▁prosses	-9723
▁ranging	-9724
▁relates	-9725
▁relearn	-9726
▁repairs	-9727
▁roaming	-9728
▁rolling	-9729
▁ruining	-9730
▁settled	-9731
▁speaker	-9732
▁summary	-9733
▁tighten	-9734
▁uniform	-9735
▁venuses	-9736
▁welcome	-9737
▁wooster	-9738
ibilities	-9739
▁abundant	-9740
▁accompan	-9741
▁assisted	-9742
▁autonomy	-9743
▁canceled	-9744
▁cautious	-9745
▁chairman	-9746
▁combined	-9747
▁compaign	-9748
▁companys	-9749
▁confined	-9750
▁decition	-9751
▁definite	-9752
▁depended	-9753
▁deprived	-9754
▁deterior	-9755
▁distinct	-9756
▁downfall	-9757
▁einstein	-9758
▁elcetion	-9759
▁encoding	-9760
▁expenses	-9761
▁external	-9762
▁failures	-9763
▁foresees	-9764
▁freedoms	-9765
▁geograph	-9766
▁handicap	-9767
▁horizons	-9768
▁incoming	-9769
▁lessened	-9770
▁mojority	-9771
▁nominees	-9772
▁outbreak	-9773
▁outgoing	-9774
▁overtime	-9775
▁pioneers	-9776
▁planners	-9777
▁pleasant	-9778
▁pointing	-9779
▁politcal	-9780
▁populous	-9781
▁presidnt	-9782
▁proccess	-9783
▁reciever	-9784
▁recovery	-9785
▁recycled	-9786
▁relieved	-9787
▁sections	-9788
▁shooting	-9789
▁showcase	-9790
▁skipping	-9791
▁stereoty	-9792
▁strictly	-9793
▁temperat	-9794
▁weighing	-9795
▁wireless	-9796
▁accepting	-9797
▁addressed	-9798
▁approches	-9799
▁assisting	-9800
▁assurance	-9801
▁athletics	-9802
▁avaliable	-9803
▁balancing	-9804
▁conditons	-9805
▁confirmed	-9806
▁conlusion	-9807
▁consisted	-9808
▁criminals	-9809
▁critisism	-9810
▁delegates	-9811
▁diagnosed	-9812
▁discusses	-9813
▁effecting	-9814
▁electores	-9815
▁engineers	-9816
▁evrything	-9817
▁expanding	-9818
▁expecting	-9819
▁fashioned	-9820
▁fasinated	-9821
▁fulfilled	-9822
▁incapable	-9823
▁inclusive	-9824
▁integrity	-9825
▁livestock	-9826
▁logically	-9827
▁messaging	-9828
▁microsoft	-9829
▁motivates	-9830
▁objective	-9831
▁observing	-9832
▁occurance	-9833
▁outsiders	-9834
▁paragrpah	-9835
▁predicted	-9836
▁presently	-9837
▁recording	-9838
▁reinforce	-9839
▁reminders	-9840
▁secondary	-9841
▁sediments	-9842
▁sophomore	-9843
▁statistic	-9844
▁strongest	-9845
▁technical	-9846
▁televison	-9847
▁transform	-9848
▁visualize	-9849
▁willingly	-9850
▁admendment	-9851
▁afterwards	-9852
▁aggressive	-9853
▁benefitial	-9854
▁calculator	-9855
▁compassion	-9856
▁components	-9857
▁comprimise	-9858
▁containing	-9859
▁dedication	-9860
▁dependence	-9861
▁enormously	-9862
▁exercising	-9863
▁facilitate	-9864
▁identified	-9865
▁impression	-9866
▁instructed	-9867
▁introduces	-9868
▁obligation	-9869
▁oftentimes	-9870
▁playground	-9871
▁possession	-9872
▁propaganda	-9873
▁properties	-9874
▁protecting	-9875
▁retirement	-9876
▁roadblocks	-9877
▁sicknesses	-9878
▁smartphone	-9879
▁supervised	-9880
▁supplement	-9881
▁tempatures	-9882
▁truthfully	-9883
▁vocabulary	-9884
▁whatsoever	-9885
▁advertising	-9886
▁babysitting	-9887
▁conclusions	-9888
▁conflicting	-9889
▁constructed	-9890
▁consumption	-9891
▁elimination	-9892
▁financially	-9893
▁illustrates	-9894
▁investigate	-9895
▁necessities	-9896
▁obligations	-9897
▁personalize	-9898
▁reconstruct	-9899
▁temporarily	-9900
▁terrestrial	-9901
▁transferred	-9902
▁constructing	-9903
▁continuously	-9904
▁institutions	-9905
▁oportunities	-9906
▁surprisingly	-9907
▁unreasonable	-9908
▁reconsidering	-9909
▁transportaion	-9910
▁transpotation	-9911
▁individualized	-9912
▁rehabilitation	-9913
▁technologically	-9914
37	-9915
fl	-9916
iu	-9917
mp	-9918
ni	-9919
000	-9920
bor	-9921
cap	-9922
dec	-9923
dri	-9924
ean	-9925
ene	-9926
era	-9927
ett	-9928
fts	-9929
hma	-9930
irs	-9931
iso	-9932
itf	-9933
lpe	-9934
opp	-9935
pot	-9936
rer	-9937
rty	-9938
sut	-9939
ups	-9940
was	-9941
you	-9942
▁ps	-9943
▁wu	-9944
ache	-9945
aity	-9946
aker	-9947
arly	-9948
arse	-9949
assa	-9950
cons	-9951
ctor	-9952
cule	-9953
enth	-9954
erer	-9955
fers	-9956
hand	-9957
ials	-9958
ianl	-9959
igen	-9960
iion	-9961
inst	-9962
ipal	-9963
itis	-9964
itly	-9965
leag	-9966
life	-9967
lock	-9968
mint	-9969
naly	-9970
nent	-9971
nies	-9972
orty	-9973
osis	-9974
oung	-9975
part	-9976
pers	-9977
plet	-9978
prop	-9979
riad	-9980
rors	-9981
sess	-9982
some	-9983
ssip	-9984
that	-9985
thod	-9986
uate	-9987
▁150	-9988
▁aap	-9989
▁abd	-9990
▁alg	-9991
▁anc	-9992
▁anf	-9993
▁ani	-9994
▁ape	-9995
▁els	-9996
▁fax	-9997
▁gig	-9998
▁gov	-9999
▁hoc	-10000
▁ive	-10001
▁los	-10002
▁mau	-10003
▁nob	-10004
▁paj	-10005
▁sab	-10006
▁san	-10007
▁soo	-10008
▁tel	-10009
▁wet	-10010
▁wou	-10011
adent	-10012
allly	-10013
arate	-10014
atile	-10015
bally	-10016
bborn	-10017
cause	-10018
eline	-10019
eving	-10020
ffiti	-10021
gered	-10022
ients	-10023
illac	-10024
isble	-10025
isite	-10026
itect	-10027
omach	-10028
opard	-10029
oukld	-10030
ouses	-10031
pical	-10032
plete	-10033
ptive	-10034
ronic	-10035
ructs	-10036
sored	-10037
stone	-10038
sytem	-10039
urban	-10040
urous	-10041
usage	-10042
▁2015	-10043
▁abou	-10044
▁aced	-10045
▁acur	-10046
▁acut	-10047
▁adap	-10048
▁aged	-10049
▁aids	-10050
▁alex	-10051
▁apro	-10052
▁aust	-10053
▁bend	-10054
▁bold	-10055
▁cake	-10056
▁card	-10057
▁cogn	-10058
▁crut	-10059
▁cuts	-10060
▁deaf	-10061
▁dect	-10062
▁deff	-10063
▁demo	-10064
▁exce	-10065
▁fame	-10066
▁feat	-10067
▁frag	-10068
▁hero	-10069
▁hood	-10070
▁inov	-10071
▁junk	-10072
▁kore	-10073
▁lake	-10074
▁lamb	-10075
▁linc	-10076
▁mant	-10077
▁moth	-10078
▁nerd	-10079
▁nest	-10080
▁nigh	-10081
▁obey	-10082
▁obse	-10083
▁othe	-10084
▁ower	-10085
▁pave	-10086
▁phil	-10087
▁pris	-10088
▁prod	-10089
▁prol	-10090
▁redo	-10091
▁rena	-10092
▁shou	-10093
▁smal	-10094
▁soil	-10095
▁somo	-10096
▁spea	-10097
▁swor	-10098
▁thou	-10099
▁tone	-10100
▁utah	-10101
▁wash	-10102
▁wate	-10103
▁woke	-10104
▁woth	-10105
▁xbox	-10106
acking	-10107
arness	-10108
astics	-10109
boards	-10110
ceries	-10111
culiar	-10112
ducive	-10113
eident	-10114
erable	-10115
essary	-10116
honest	-10117
imetry	-10118
inates	-10119
indent	-10120
istent	-10121
lessly	-10122
likely	-10123
mitted	-10124
ogical	-10125
ollogy	-10126
outher	-10127
parent	-10128
people	-10129
reamly	-10130
ricted	-10131
tional	-10132
usions	-10133
▁accus	-10134
▁acted	-10135
▁afore	-10136
▁agend	-10137
▁agrue	-10138
▁align	-10139
▁array	-10140
▁asset	-10141
▁beeen	-10142
▁blank	-10143
▁bogus	-10144
▁bumps	-10145
▁cards	-10146
▁cargo	-10147
▁caves	-10148
▁chain	-10149
▁chats	-10150
▁choss	-10151
▁cited	-10152
▁compt	-10153
▁curve	-10154
▁disgu	-10155
▁dosnt	-10156
▁easly	-10157
▁ecosy	-10158
▁fract	-10159
▁gauge	-10160
▁germs	-10161
▁glass	-10162
▁grave	-10163
▁haung	-10164
▁impos	-10165
▁incip	-10166
▁india	-10167
▁kidna	-10168
▁manag	-10169
▁manif	-10170
▁marks	-10171
▁mirac	-10172
▁nassa	-10173
▁ninth	-10174
▁phase	-10175
▁princ	-10176
▁ratio	-10177
▁recom	-10178
▁relay	-10179
▁resil	-10180
▁rigth	-10181
▁scape	-10182
▁sheer	-10183
▁solor	-10184
▁spell	-10185
▁spike	-10186
▁steve	-10187
▁stone	-10188
▁sugar	-10189
▁sweet	-10190
▁thrid	-10191
▁tires	-10192
▁toler	-10193
▁tolls	-10194
▁traff	-10195
▁twins	-10196
▁twist	-10197
▁typed	-10198
▁uneth	-10199
▁unlik	-10200
▁veter	-10201
▁viral	-10202
▁yield	-10203
aluable	-10204
ificate	-10205
inguish	-10206
ocratic	-10207
omation	-10208
roidism	-10209
ructure	-10210
▁abused	-10211
▁agaist	-10212
▁allerg	-10213
▁arounf	-10214
▁ascert	-10215
▁asthma	-10216
▁atmosh	-10217
▁atomos	-10218
▁backup	-10219
▁becues	-10220
▁border	-10221
▁certan	-10222
▁colege	-10223
▁comets	-10224
▁commin	-10225
▁constr	-10226
▁copies	-10227
▁decied	-10228
▁dicide	-10229
▁digust	-10230
▁dishes	-10231
▁exaple	-10232
▁firmly	-10233
▁fleets	-10234
▁fooled	-10235
▁galaxy	-10236
▁garden	-10237
▁geting	-10238
▁gifted	-10239
▁gossip	-10240
▁hockey	-10241
▁hotest	-10242
▁incons	-10243
▁inspir	-10244
▁launch	-10245
▁levitt	-10246
▁lifted	-10247
▁miscon	-10248
▁mortar	-10249
▁musles	-10250
▁nicely	-10251
▁obsess	-10252
▁othere	-10253
▁payche	-10254
▁payers	-10255
▁pecent	-10256
▁perman	-10257
▁phrase	-10258
▁ponder	-10259
▁powers	-10260
▁probab	-10261
▁pupils	-10262
▁puzzle	-10263
▁ranked	-10264
▁rebell	-10265
▁relive	-10266
▁resone	-10267
▁rivers	-10268
▁robbed	-10269
▁rovers	-10270
▁sample	-10271
▁scored	-10272
▁strips	-10273
▁studio	-10274
▁swayed	-10275
▁talkes	-10276
▁univer	-10277
▁uphold	-10278
▁upload	-10279
▁verses	-10280
erencing	-10281
etically	-10282
mosphere	-10283
▁advised	-10284
▁adviser	-10285
▁advises	-10286
▁alerted	-10287
▁altered	-10288
▁ammount	-10289
▁anticip	-10290
▁ashamed	-10291
▁aurthor	-10292
▁bacause	-10293
▁battery	-10294
▁beacsue	-10295
▁beacuas	-10296
▁belifes	-10297
▁beloved	-10298
▁braking	-10299
▁breaker	-10300
▁broader	-10301
▁captian	-10302
▁channel	-10303
▁citzens	-10304
▁civilaz	-10305
▁classic	-10306
▁comment	-10307
▁compter	-10308
▁crashed	-10309
▁decsion	-10310
▁defeats	-10311
▁demands	-10312
▁descion	-10313
▁detract	-10314
▁discrim	-10315
▁dispite	-10316
▁electot	-10317
▁enacted	-10318
▁errands	-10319
▁evryone	-10320
▁expense	-10321
▁favorit	-10322
▁fortune	-10323
▁govenor	-10324
▁grandpa	-10325
▁hallway	-10326
▁happily	-10327
▁hidding	-10328
▁husband	-10329
▁jeopard	-10330
▁lockers	-10331
▁magnets	-10332
▁martain	-10333
▁micheal	-10334
▁optimal	-10335
▁painful	-10336
▁pajamas	-10337
▁physics	-10338
▁planing	-10339
▁plastic	-10340
▁printer	-10341
▁provoke	-10342
▁refered	-10343
▁resting	-10344
▁reverse	-10345
▁robotic	-10346
▁rubrics	-10347
▁runners	-10348
▁sailers	-10349
▁sausage	-10350
▁servers	-10351
▁shifted	-10352
▁shining	-10353
▁sixteen	-10354
▁skipped	-10355
▁slowing	-10356
▁snowing	-10357
▁spreads	-10358
▁stamina	-10359
▁stomach	-10360
▁stretch	-10361
▁suffers	-10362
▁supreme	-10363
▁sysytem	-10364
▁tactics	-10365
▁targets	-10366
▁therapy	-10367
▁tonight	-10368
▁tracked	-10369
▁twitter	-10370
▁unifies	-10371
▁visible	-10372
▁weighed	-10373
▁windows	-10374
▁wishing	-10375
▁worthly	-10376
▁yelling	-10377
ationally	-10378
ationists	-10379
president	-10380
▁advisers	-10381
▁anouther	-10382
▁arguably	-10383
▁artistic	-10384
▁assuring	-10385
▁auditory	-10386
▁backpack	-10387
▁beleived	-10388
▁blocking	-10389
▁buisness	-10390
▁cadidate	-10391
▁cadillac	-10392
▁campaing	-10393
▁category	-10394
▁certainy	-10395
▁challege	-10396
▁challeng	-10397
▁classing	-10398
▁collabor	-10399
▁commitee	-10400
▁composed	-10401
▁consular	-10402
▁criminal	-10403
▁deadline	-10404
▁directed	-10405
▁disputed	-10406
▁divorced	-10407
▁downturn	-10408
▁educator	-10409
▁egyptain	-10410
▁elcetors	-10411
▁enhanced	-10412
▁equation	-10413
▁evaluate	-10414
▁excerise	-10415
▁expanses	-10416
▁explicit	-10417
▁extremes	-10418
▁extremly	-10419
▁flourish	-10420
▁franklin	-10421
▁graffiti	-10422
▁happines	-10423
▁holidays	-10424
▁horrific	-10425
▁incident	-10426
▁intrigue	-10427
▁journeys	-10428
▁mandated	-10429
▁manually	-10430
▁maximize	-10431
▁negitive	-10432
▁offended	-10433
▁outlawed	-10434
▁pandemic	-10435
▁parental	-10436
▁patience	-10437
▁peculiar	-10438
▁perceive	-10439
▁performs	-10440
▁pleasure	-10441
▁preasure	-10442
▁precepts	-10443
▁pregnant	-10444
▁presiden	-10445
▁probally	-10446
▁protects	-10447
▁reflects	-10448
▁relieves	-10449
▁responce	-10450
▁retained	-10451
▁selfless	-10452
▁shelters	-10453
▁smallest	-10454
▁sneaking	-10455
▁stubborn	-10456
▁surfaces	-10457
▁symptoms	-10458
▁tailored	-10459
▁tempting	-10460
▁terrific	-10461
▁thinkers	-10462
▁treating	-10463
▁trillion	-10464
▁troubled	-10465
▁ultimate	-10466
▁unimagin	-10467
▁unstable	-10468
▁vehicals	-10469
▁volcanos	-10470
▁whopping	-10471
▁abandoned	-10472
▁addictive	-10473
▁alleviate	-10474
▁altimetry	-10475
▁appearing	-10476
▁architect	-10477
▁assitance	-10478
▁atmophere	-10479
▁certified	-10480
▁combining	-10481
▁conducive	-10482
▁consensus	-10483
▁customers	-10484
▁demanding	-10485
▁diagnosis	-10486
▁diffrence	-10487
▁dishonest	-10488
▁ecosystem	-10489
▁elaborate	-10490
▁electrons	-10491
▁emmisions	-10492
▁enrolling	-10493
▁excersize	-10494
▁expansion	-10495
▁expirence	-10496
▁extension	-10497
▁groceries	-10498
▁ignorance	-10499
▁impacting	-10500
▁inspiring	-10501
▁integrate	-10502
▁justified	-10503
▁landmarks	-10504
▁languages	-10505
▁libraries	-10506
▁monuments	-10507
▁nessasary	-10508
▁nutrition	-10509
▁partaking	-10510
▁perfected	-10511
▁personaly	-10512
▁persuaded	-10513
▁plausible	-10514
▁pondering	-10515
▁practiced	-10516
▁presiding	-10517
▁proactive	-10518
▁protected	-10519
▁recieving	-10520
▁relatives	-10521
▁releasing	-10522
▁remembers	-10523
▁reminding	-10524
▁responded	-10525
▁sensation	-10526
▁shouldent	-10527
▁skyrocket	-10528
▁statments	-10529
▁summation	-10530
▁talkative	-10531
▁unethical	-10532
▁unpredict	-10533
▁voluntary	-10534
▁amendments	-10535
▁appearance	-10536
▁artificial	-10537
▁associates	-10538
▁atomsphere	-10539
▁canditates	-10540
▁collisions	-10541
▁compatible	-10542
▁completley	-10543
▁comunicate	-10544
▁correspond	-10545
▁counteract	-10546
▁dependable	-10547
▁diminished	-10548
▁disruption	-10549
▁expresions	-10550
▁furthering	-10551
▁futhermore	-10552
▁geological	-10553
▁integrated	-10554
▁interstate	-10555
▁invaluable	-10556
▁lifestyles	-10557
▁mindedness	-10558
▁opposition	-10559
▁organizing	-10560
▁partnering	-10561
▁powerpoint	-10562
▁preseident	-10563
▁presindent	-10564
▁prioritize	-10565
▁processing	-10566
▁prosperity	-10567
▁purchasing	-10568
▁recongnize	-10569
▁remarkable	-10570
▁repeatedly	-10571
▁researcher	-10572
▁selections	-10573
▁succeeding	-10574
▁techonolgy	-10575
▁tempetures	-10576
▁thankfully	-10577
▁themsleves	-10578
▁unecessary	-10579
▁abolishment	-10580
▁adjustments	-10581
▁afterschool	-10582
▁assessments	-10583
▁atomosphere	-10584
▁atomspheric	-10585
▁captivating	-10586
▁coincidence	-10587
▁consitution	-10588
▁cooperative	-10589
▁destructive	-10590
▁distinguish	-10591
▁entertained	-10592
▁grandparent	-10593
▁inhabitants	-10594
▁introverted	-10595
▁opinionated	-10596
▁politically	-10597
▁precautions	-10598
▁realization	-10599
▁remembering	-10600
▁renaissance	-10601
▁restrictive	-10602
▁simulations	-10603
▁spectacular	-10604
▁technollogy	-10605
▁tempertures	-10606
▁uncertainty	-10607
▁uneccessary	-10608
▁accommodated	-10609
▁computerized	-10610
▁consistently	-10611
▁continuation	-10612
▁dissapointed	-10613
▁embarrassing	-10614
▁inconvenient	-10615
▁observations	-10616
▁possibilites	-10617
▁presidentail	-10618
▁psychologist	-10619
▁questionable	-10620
▁sociologists	-10621
▁accomplishing	-10622
▁determination	-10623
▁disagreements	-10624
▁functionality	-10625
▁fundamentally	-10626
▁notifications	-10627
▁photographers	-10628
▁upperclassmen	-10629
▁accommodations	-10630
▁appropriations	-10631
▁constitutional	-10632
▁discrimination	-10633
▁segregationist	-10634
gt	-10635
je	-10636
lt	-10637
mt	-10638
ady	-10639
aes	-10640
aph	-10641
arg	-10642
aty	-10643
aul	-10644
cia	-10645
clt	-10646
enc	-10647
hts	-10648
iad	-10649
iat	-10650
ige	-10651
igs	-10652
igy	-10653
ims	-10654
iqu	-10655
kle	-10656
liv	-10657
mas	-10658
met	-10659
mon	-10660
oge	-10661
ogs	-10662
oil	-10663
ois	-10664
oln	-10665
pal	-10666
ris	-10667
see	-10668
ump	-10669
uss	-10670
wed	-10671
xel	-10672
▁37	-10673
▁aa	-10674
▁ay	-10675
▁bt	-10676
▁fc	-10677
▁ff	-10678
▁km	-10679
▁ls	-10680
▁ly	-10681
▁og	-10682
▁ov	-10683
▁oy	-10684
▁pf	-10685
▁uo	-10686
▁yu	-10687
aine	-10688
aked	-10689
alds	-10690
alty	-10691
anas	-10692
anty	-10693
bled	-10694
bris	-10695
bull	-10696
cide	-10697
crib	-10698
dows	-10699
emnt	-10700
eple	-10701
eres	-10702
esus	-10703
fied	-10704
htsa	-10705
iary	-10706
iche	-10707
iegn	-10708
iser	-10709
isit	-10710
late	-10711
obey	-10712
ocre	-10713
oege	-10714
ogra	-10715
oled	-10716
olud	-10717
orse	-10718
osal	-10719
otes	-10720
oues	-10721
pool	-10722
rack	-10723
rays	-10724
rene	-10725
sect	-10726
seen	-10727
sees	-10728
stal	-10729
tain	-10730
tals	-10731
uler	-10732
ulit	-10733
ulse	-10734
unts	-10735
uter	-10736
vial	-10737
west	-10738
yard	-10739
▁ald	-10740
▁alo	-10741
▁alw	-10742
▁arn	-10743
▁ate	-10744
▁bol	-10745
▁bon	-10746
▁bub	-10747
▁cen	-10748
▁clo	-10749
▁cro	-10750
▁cul	-10751
▁cyn	-10752
▁dat	-10753
▁der	-10754
▁dix	-10755
▁ech	-10756
▁eru	-10757
▁fis	-10758
▁fog	-10759
▁fow	-10760
▁gru	-10761
▁hal	-10762
▁hen	-10763
▁huh	-10764
▁hun	-10765
▁ith	-10766
▁jus	-10767
▁lag	-10768
▁lil	-10769
▁loy	-10770
▁mam	-10771
▁mit	-10772
▁mrs	-10773
▁nun	-10774
▁pas	-10775
▁poo	-10776
▁pys	-10777
▁qul	-10778
▁row	-10779
▁shr	-10780
▁sid	-10781
▁sla	-10782
▁sty	-10783
▁sut	-10784
▁suv	-10785
▁thi	-10786
▁tis	-10787
▁unv	-10788
▁uva	-10789
▁vet	-10790
▁vic	-10791
▁vid	-10792
▁wih	-10793
ables	-10794
after	-10795
agues	-10796
allys	-10797
alous	-10798
amous	-10799
anese	-10800
anged	-10801
arage	-10802
atsby	-10803
aying	-10804
blems	-10805
cally	-10806
cence	-10807
eanor	-10808
ected	-10809
edent	-10810
ented	-10811
ercus	-10812
etary	-10813
etion	-10814
fting	-10815
gancy	-10816
hting	-10817
icaly	-10818
icent	-10819
ieght	-10820
iered	-10821
inant	-10822
ioned	-10823
ioral	-10824
iries	-10825
iters	-10826
itons	-10827
ittle	-10828
lands	-10829
meber	-10830
model	-10831
nyder	-10832
olate	-10833
olled	-10834
osely	-10835
outed	-10836
rages	-10837
rance	-10838
roads	-10839
sands	-10840
stood	-10841
tered	-10842
uated	-10843
uddle	-10844
ulous	-10845
uried	-10846
uther	-10847
▁1700	-10848
▁abst	-10849
▁alie	-10850
▁alos	-10851
▁alth	-10852
▁anam	-10853
▁blew	-10854
▁brit	-10855
▁bugs	-10856
▁chip	-10857
▁cure	-10858
▁darn	-10859
▁dele	-10860
▁diet	-10861
▁driv	-10862
▁eass	-10863
▁eles	-10864
▁epis	-10865
▁erad	-10866
▁frog	-10867
▁goin	-10868
▁gray	-10869
▁grum	-10870
▁guns	-10871
▁gymn	-10872
▁horr	-10873
▁jsut	-10874
▁june	-10875
▁jury	-10876
▁keen	-10877
▁knit	-10878
▁lame	-10879
▁lied	-10880
▁lise	-10881
▁mane	-10882
▁meme	-10883
▁mini	-10884
▁mint	-10885
▁mont	-10886
▁necc	-10887
▁noon	-10888
▁nova	-10889
▁offs	-10890
▁olny	-10891
▁oppr	-10892
▁pair	-10893
▁peek	-10894
▁pour	-10895
▁regr	-10896
▁rehe	-10897
▁reig	-10898
▁ruff	-10899
▁sadd	-10900
▁scam	-10901
▁shoe	-10902
▁siad	-10903
▁soda	-10904
▁stal	-10905
▁stil	-10906
▁stun	-10907
▁sums	-10908
▁surb	-10909
▁tara	-10910
▁thes	-10911
▁thos	-10912
▁tiny	-10913
▁trun	-10914
▁unfa	-10915
▁vars	-10916
▁ware	-10917
▁weap	-10918
▁wood	-10919
▁wwii	-10920
ablity	-10921
action	-10922
arable	-10923
assing	-10924
atched	-10925
cesity	-10926
ensing	-10927
ergart	-10928
etions	-10929
forced	-10930
gority	-10931
igated	-10932
ighest	-10933
igious	-10934
ilties	-10935
inally	-10936
lities	-10937
untary	-10938
veling	-10939
▁acces	-10940
▁accid	-10941
▁agais	-10942
▁alein	-10943
▁alson	-10944
▁ambul	-10945
▁amout	-10946
▁apper	-10947
▁aroud	-10948
▁assig	-10949
▁aways	-10950
▁belts	-10951
▁beter	-10952
▁bland	-10953
▁blast	-10954
▁brush	-10955
▁buddy	-10956
▁burge	-10957
▁burns	-10958
▁campi	-10959
▁candy	-10960
▁carto	-10961
▁chips	-10962
▁choas	-10963
▁climb	-10964
▁clost	-10965
▁comap	-10966
▁comup	-10967
▁couse	-10968
▁cowor	-10969
▁diffc	-10970
▁dilig	-10971
▁disap	-10972
▁drone	-10973
▁emont	-10974
▁exers	-10975
▁exter	-10976
▁faire	-10977
▁fence	-10978
▁flies	-10979
▁fluff	-10980
▁frogs	-10981
▁frome	-10982
▁futer	-10983
▁gunna	-10984
▁haved	-10985
▁honey	-10986
▁huber	-10987
▁incom	-10988
▁infin	-10989
▁inher	-10990
▁inthe	-10991
▁japan	-10992
▁joins	-10993
▁knowl	-10994
▁korea	-10995
▁label	-10996
▁lover	-10997
▁mabye	-10998
▁mcdon	-10999
▁messy	-11000
▁milky	-11001
▁mines	-11002
▁misgu	-11003
▁movem	-11004
▁multi	-11005
▁mural	-11006
▁nhtsa	-11007
▁niche	-11008
▁numer	-11009
▁outta	-11010
▁palce	-11011
▁prize	-11012
▁pulls	-11013
▁puppy	-11014
▁raced	-11015
▁reign	-11016
▁relly	-11017
▁reput	-11018
▁rever	-11019
▁risen	-11020
▁roots	-11021
▁scars	-11022
▁schem	-11023
▁scope	-11024
▁seatb	-11025
▁selct	-11026
▁shake	-11027
▁slect	-11028
▁slows	-11029
▁smith	-11030
▁smoke	-11031
▁snack	-11032
▁souce	-11033
▁spill	-11034
▁spoon	-11035
▁spots	-11036
▁stake	-11037
▁stong	-11038
▁sunny	-11039
▁tears	-11040
▁thate	-11041
▁thins	-11042
▁thurs	-11043
▁trade	-11044
▁traum	-11045
▁troub	-11046
▁unbal	-11047
▁undec	-11048
▁undes	-11049
▁unfit	-11050
▁versa	-11051
▁votin	-11052
▁willl	-11053
▁woukd	-11054
ainable	-11055
ameters	-11056
ctratic	-11057
eficial	-11058
ensable	-11059
gnology	-11060
ictions	-11061
inction	-11062
isocial	-11063
mission	-11064
natural	-11065
ointing	-11066
ornment	-11067
ortable	-11068
percent	-11069
rifying	-11070
through	-11071
urature	-11072
▁actiry	-11073
▁agenda	-11074
▁aginst	-11075
▁aiding	-11076
▁annual	-11077
▁antiqu	-11078
▁aroung	-11079
▁artcle	-11080
▁aspire	-11081
▁assing	-11082
▁awsome	-11083
▁baking	-11084
▁beable	-11085
▁bejing	-11086
▁blacks	-11087
▁busier	-11088
▁casual	-11089
▁caters	-11090
▁certif	-11091
▁certin	-11092
▁chairs	-11093
▁choses	-11094
▁cleans	-11095
▁coarse	-11096
▁compel	-11097
▁comply	-11098
▁connot	-11099
▁consis	-11100
▁contag	-11101
▁contam	-11102
▁corpor	-11103
▁cought	-11104
▁crowds	-11105
▁debris	-11106
▁define	-11107
▁depite	-11108
▁desion	-11109
▁diseng	-11110
▁disfun	-11111
▁disint	-11112
▁docent	-11113
▁drexel	-11114
▁edited	-11115
▁embark	-11116
▁evenly	-11117
▁fabric	-11118
▁fallen	-11119
▁finger	-11120
▁footpr	-11121
▁forbid	-11122
▁fouces	-11123
▁gatsby	-11124
▁gender	-11125
▁golden	-11126
▁guides	-11127
▁holder	-11128
▁humble	-11129
▁immers	-11130
▁immort	-11131
▁injure	-11132
▁injust	-11133
▁intake	-11134
▁intend	-11135
▁league	-11136
▁legist	-11137
▁linked	-11138
▁marked	-11139
▁mighty	-11140
▁misses	-11141
▁morals	-11142
▁motive	-11143
▁myriad	-11144
▁natual	-11145
▁occure	-11146
▁output	-11147
▁pacing	-11148
▁paragh	-11149
▁pickup	-11150
▁planes	-11151
▁pleged	-11152
▁progam	-11153
▁rapper	-11154
▁redund	-11155
▁roller	-11156
▁routes	-11157
▁satell	-11158
▁sculpt	-11159
▁seaman	-11160
▁sexual	-11161
▁shines	-11162
▁smiled	-11163
▁snacks	-11164
▁sneaky	-11165
▁sparks	-11166
▁struck	-11167
▁subway	-11168
▁sucked	-11169
▁suites	-11170
▁suppos	-11171
▁survie	-11172
▁tecnol	-11173
▁temple	-11174
▁thinck	-11175
▁timing	-11176
▁titled	-11177
▁tossed	-11178
▁traces	-11179
▁trashy	-11180
▁tryout	-11181
▁underm	-11182
▁undone	-11183
▁uneasy	-11184
▁unlock	-11185
▁unrest	-11186
▁untrue	-11187
▁unusal	-11188
▁usages	-11189
▁valley	-11190
▁vallys	-11191
▁wallet	-11192
▁wastes	-11193
▁werner	-11194
▁worsen	-11195
▁wright	-11196
▁yearly	-11197
▁yellow	-11198
everance	-11199
osterous	-11200
pecially	-11201
ressions	-11202
yroidism	-11203
▁aganist	-11204
▁alittle	-11205
▁allways	-11206
▁anyones	-11207
▁atmosph	-11208
▁attacks	-11209
▁authour	-11210
▁battles	-11211
▁bedroom	-11212
▁begging	-11213
▁benfits	-11214
▁betters	-11215
▁blindly	-11216
▁boarded	-11217
▁bonding	-11218
▁bottles	-11219
▁briefly	-11220
▁burnout	-11221
▁cancell	-11222
▁caution	-11223
▁charges	-11224
▁charlie	-11225
▁cleanup	-11226
▁colloge	-11227
▁conform	-11228
▁consume	-11229
▁convice	-11230
▁cookies	-11231
▁counrty	-11232
▁crystal	-11233
▁daycare	-11234
▁defying	-11235
▁dentist	-11236
▁depsite	-11237
▁diffent	-11238
▁disobey	-11239
▁dispose	-11240
▁emotins	-11241
▁empower	-11242
▁endured	-11243
▁entails	-11244
▁essence	-11245
▁everone	-11246
▁fahrenh	-11247
▁familar	-11248
▁fantasy	-11249
▁fastest	-11250
▁fatigue	-11251
▁finnaly	-11252
▁fooling	-11253
▁fragile	-11254
▁freinds	-11255
▁furious	-11256
▁furture	-11257
▁goofing	-11258
▁greener	-11259
▁ignores	-11260
▁inflict	-11261
▁infrast	-11262
▁inhibit	-11263
▁instill	-11264
▁involed	-11265
▁jealous	-11266
▁kinetic	-11267
▁lightly	-11268
▁lincoln	-11269
▁looming	-11270
▁lunches	-11271
▁married	-11272
▁mediums	-11273
▁memeber	-11274
▁mirrors	-11275
▁misbeha	-11276
▁offense	-11277
▁opinons	-11278
▁oppourt	-11279
▁outdoor	-11280
▁passive	-11281
▁pathway	-11282
▁permits	-11283
▁persent	-11284
▁plagiar	-11285
▁pleases	-11286
▁polices	-11287
▁popping	-11288
▁populer	-11289
▁prefers	-11290
▁rallies	-11291
▁reallly	-11292
▁rebuild	-11293
▁reseach	-11294
▁revised	-11295
▁revolve	-11296
▁scienct	-11297
▁seeming	-11298
▁segoing	-11299
▁senates	-11300
▁shorter	-11301
▁showers	-11302
▁sincere	-11303
▁slavery	-11304
▁smoking	-11305
▁sounded	-11306
▁subsequ	-11307
▁sulfric	-11308
▁survied	-11309
▁tablets	-11310
▁takeing	-11311
▁technic	-11312
▁tending	-11313
▁theatre	-11314
▁themsel	-11315
▁tragedy	-11316
▁trigger	-11317
▁tuition	-11318
▁unconst	-11319
▁updates	-11320
▁usefull	-11321
▁verdant	-11322
▁verdict	-11323
▁violent	-11324
▁watered	-11325
▁weakens	-11326
▁wealthy	-11327
▁workout	-11328
▁youself	-11329
asionally	-11330
itutional	-11331
mentioned	-11332
▁abortion	-11333
▁acedemic	-11334
▁adopting	-11335
▁advertis	-11336
▁agreeing	-11337
▁analized	-11338
▁analyzed	-11339
▁arrested	-11340
▁articule	-11341
▁avalible	-11342
▁awarness	-11343
▁becasuse	-11344
▁blessing	-11345
▁brighten	-11346
▁campagin	-11347
▁chatting	-11348
▁cheering	-11349
▁chossing	-11350
▁climates	-11351
▁colloege	-11352
▁colonies	-11353
▁combines	-11354
▁compares	-11355
▁contract	-11356
▁contries	-11357
▁coverage	-11358
▁creaters	-11359
▁dangerus	-11360
▁daunting	-11361
▁deprives	-11362
▁descover	-11363
▁deserted	-11364
▁download	-11365
▁driveway	-11366
▁elecotrs	-11367
▁electers	-11368
▁eligable	-11369
▁emotinal	-11370
▁emphasis	-11371
▁enabling	-11372
▁enforces	-11373
▁enriched	-11374
▁entirety	-11375
▁estimate	-11376
▁executed	-11377
▁facility	-11378
▁finances	-11379
▁flipping	-11380
▁freetime	-11381
▁genocide	-11382
▁gigantic	-11383
▁greatful	-11384
▁grueling	-11385
▁harmless	-11386
▁helpfull	-11387
▁hindered	-11388
▁horribly	-11389
▁infamous	-11390
▁infected	-11391
▁insights	-11392
▁integral	-11393
▁interfer	-11394
▁inviting	-11395
▁japanese	-11396
▁knowledg	-11397
▁landscap	-11398
▁legislat	-11399
▁loophole	-11400
▁magazine	-11401
▁magority	-11402
▁maturity	-11403
▁mediocre	-11404
▁miscount	-11405
▁momument	-11406
▁monitors	-11407
▁multiply	-11408
▁muscules	-11409
▁notebook	-11410
▁noticing	-11411
▁obstruct	-11412
▁occasion	-11413
▁oncoming	-11414
▁passages	-11415
▁polarity	-11416
▁portrays	-11417
▁potental	-11418
▁realizes	-11419
▁reaserch	-11420
▁recevies	-11421
▁recounts	-11422
▁redirect	-11423
▁remained	-11424
▁repercus	-11425
▁revolves	-11426
▁roadwork	-11427
▁seegoing	-11428
▁shifting	-11429
▁simulate	-11430
▁slacking	-11431
▁southern	-11432
▁speacial	-11433
▁speakers	-11434
▁speeches	-11435
▁stealing	-11436
▁strapped	-11437
▁stricter	-11438
▁sunlight	-11439
▁tecnolgy	-11440
▁theorist	-11441
▁tracking	-11442
▁vaulable	-11443
▁visually	-11444
▁wildlife	-11445
▁wrecking	-11446
▁writting	-11447
entionally	-11448
▁academies	-11449
▁addicting	-11450
▁advisable	-11451
▁alexander	-11452
▁associate	-11453
▁atmoshere	-11454
▁atmospere	-11455
▁backwards	-11456
▁bascially	-11457
▁becomeing	-11458
▁breakdown	-11459
▁californa	-11460
▁canditate	-11461
▁celebrate	-11462
▁chocolate	-11463
▁chooseing	-11464
▁computure	-11465
▁consulted	-11466
▁contribut	-11467
▁contructs	-11468
▁crossings	-11469
▁cyberbull	-11470
▁decission	-11471
▁defiantly	-11472
▁deserving	-11473
▁dicovered	-11474
▁differnce	-11475
▁diffrenet	-11476
▁digitally	-11477
▁dominated	-11478
▁elcetoral	-11479
▁emergancy	-11480
▁envisions	-11481
▁eveidence	-11482
▁examining	-11483
▁excelling	-11484
▁expresion	-11485
▁extreamly	-11486
▁favorable	-11487
▁gradually	-11488
▁headaches	-11489
▁illogical	-11490
▁incipient	-11491
▁intrigued	-11492
▁intuitive	-11493
▁inventing	-11494
▁irrespons	-11495
▁jefferson	-11496
▁levittown	-11497
▁milestone	-11498
▁millitary	-11499
▁minuscule	-11500
▁miserable	-11501
▁monitored	-11502
▁mountians	-11503
▁neglected	-11504
▁paperwork	-11505
▁preparate	-11506
▁prisident	-11507
▁procedure	-11508
▁producers	-11509
▁professer	-11510
▁publicity	-11511
▁published	-11512
▁purchased	-11513
▁rebuttals	-11514
▁reflected	-11515
▁refreshed	-11516
▁relevance	-11517
▁repeating	-11518
▁requiered	-11519
▁resilient	-11520
▁roadblock	-11521
▁rolemodel	-11522
▁separated	-11523
▁seperated	-11524
▁shadowing	-11525
▁skeptical	-11526
▁sociology	-11527
▁sponsored	-11528
▁stability	-11529
▁strenuous	-11530
▁substance	-11531
▁successes	-11532
▁supervise	-11533
▁technoloy	-11534
▁therapist	-11535
▁tragedies	-11536
▁troubling	-11537
▁unbelieve	-11538
▁undecided	-11539
▁unrelated	-11540
▁utilizing	-11541
▁valcanoes	-11542
▁valueable	-11543
▁variables	-11544
▁violation	-11545
▁worksheet	-11546
consciously	-11547
▁acceptance	-11548
▁antisocial	-11549
▁astronmers	-11550
▁beforehand	-11551
▁betterment	-11552
▁brainstorm	-11553
▁burgeoning	-11554
▁campaining	-11555
▁canididate	-11556
▁certainity	-11557
▁contacting	-11558
▁converging	-11559
▁convienent	-11560
▁curiousity	-11561
▁customized	-11562
▁dealership	-11563
▁definately	-11564
▁definition	-11565
▁determines	-11566
▁diligently	-11567
▁dissapoint	-11568
▁emphasized	-11569
▁emphasizes	-11570
▁eradicated	-11571
▁everybodys	-11572
▁executives	-11573
▁expiration	-11574
▁expirience	-11575
▁favoritism	-11576
▁graduating	-11577
▁gymnastics	-11578
▁harassment	-11579
▁highlights	-11580
▁identifies	-11581
▁identities	-11582
▁imaginable	-11583
▁importants	-11584
▁improvment	-11585
▁inaccurate	-11586
▁incomplete	-11587
▁infomation	-11588
▁intriguing	-11589
▁kindergart	-11590
▁maintained	-11591
▁manageable	-11592
▁monotonous	-11593
▁neccessary	-11594
▁noticeable	-11595
▁officially	-11596
▁oportunity	-11597
▁parameters	-11598
▁passangers	-11599
▁perception	-11600
▁persuading	-11601
▁pertaining	-11602
▁pharagraph	-11603
▁possibilty	-11604
▁possiblity	-11605
▁prevention	-11606
▁proceeding	-11607
▁programmed	-11608
▁progresses	-11609
▁recovering	-11610
▁reflecting	-11611
▁satisfying	-11612
▁simulation	-11613
▁substitute	-11614
▁summertime	-11615
▁supportive	-11616
▁suspicious	-11617
▁tendencies	-11618
▁therapists	-11619
▁thereafter	-11620
▁vibrations	-11621
▁videogames	-11622
▁accumulated	-11623
▁affectively	-11624
▁astonishing	-11625
▁chronically	-11626
▁citizenship	-11627
▁commitments	-11628
▁complicates	-11629
▁composition	-11630
▁confortable	-11631
▁constraints	-11632
▁contradicts	-11633
▁convienient	-11634
▁cooperation	-11635
▁correlation	-11636
▁declaration	-11637
▁democratics	-11638
▁democtratic	-11639
▁descriptive	-11640
▁destruction	-11641
▁diminishing	-11642
▁discouraged	-11643
▁distributed	-11644
▁endangering	-11645
▁experssions	-11646
▁exspression	-11647
▁extensively	-11648
▁fundraisers	-11649
▁improvments	-11650
▁inefficient	-11651
▁infromation	-11652
▁internships	-11653
▁involuntary	-11654
▁manipulated	-11655
▁mathematics	-11656
▁opprotunity	-11657
▁particulary	-11658
▁predicament	-11659
▁prestigious	-11660
▁progressing	-11661
▁progression	-11662
▁progressive	-11663
▁pterodactyl	-11664
▁recognizing	-11665
▁reliability	-11666
▁replacement	-11667
▁restricting	-11668
▁sacrificing	-11669
▁stimulation	-11670
▁televisions	-11671
▁tempurature	-11672
▁troublesome	-11673
▁appointments	-11674
▁architecture	-11675
▁assignements	-11676
▁breakthrough	-11677
▁civilazation	-11678
▁complication	-11679
▁conditioning	-11680
▁considerably	-11681
▁contributing	-11682
▁conventional	-11683
▁dictatorship	-11684
▁disagreement	-11685
▁discouraging	-11686
▁distribution	-11687
▁geographical	-11688
▁grandparents	-11689
▁informations	-11690
▁opportunites	-11691
▁perseverance	-11692
▁practicality	-11693
▁presedential	-11694
▁recklessness	-11695
▁approximately	-11696
▁concideration	-11697
▁disappointing	-11698
▁establishment	-11699
▁exceptionally	-11700
▁experimenting	-11701
▁incorporating	-11702
▁landformation	-11703
▁misunderstood	-11704
▁neighborhoods	-11705
▁personalities	-11706
▁repercussions	-11707
▁revolutionize	-11708
▁statistically	-11709
▁substantially	-11710
▁transporation	-11711
▁unpredictable	-11712
▁advertisements	-11713
▁aforementioned	-11714
▁hypothyroidism	-11715
▁infrastructure	-11716
▁investigations	-11717
▁responsability	-11718
▁accomplishments	-11719
ba	-11720
bc	-11721
eb	-11722
eo	-11723
gl	-11724
tc	-11725
vi	-11726
any	-11727
bly	-11728
cra	-11729
dem	-11730
ear	-11731
ems	-11732
emt	-11733
eng	-11734
ete	-11735
eve	-11736
ggs	-11737
gon	-11738
han	-11739
hey	-11740
hor	-11741
ifs	-11742
img	-11743
ini	-11744
itu	-11745
lis	-11746
lop	-11747
mes	-11748
mph	-11749
nds	-11750
nig	-11751
off	-11752
oir	-11753
ony	-11754
oop	-11755
oot	-11756
orr	-11757
prt	-11758
rec	-11759
roy	-11760
sem	-11761
sih	-11762
sit	-11763
tly	-11764
tsd	-11765
uan	-11766
uar	-11767
ugu	-11768
ums	-11769
vol	-11770
vor	-11771
wer	-11772
wns	-11773
▁32	-11774
▁72	-11775
▁77	-11776
▁95	-11777
▁ae	-11778
▁bs	-11779
▁cn	-11780
▁cs	-11781
▁ee	-11782
▁ef	-11783
▁iv	-11784
▁mm	-11785
▁ny	-11786
▁sr	-11787
▁ub	-11788
▁um	-11789
abus	-11790
apse	-11791
away	-11792
baly	-11793
calc	-11794
cast	-11795
cate	-11796
cile	-11797
cion	-11798
city	-11799
dale	-11800
date	-11801
dict	-11802
does	-11803
eled	-11804
enet	-11805
erst	-11806
erts	-11807
even	-11808
fect	-11809
fted	-11810
fuly	-11811
gars	-11812
gerg	-11813
gged	-11814
held	-11815
icly	-11816
idal	-11817
igan	-11818
ilar	-11819
inng	-11820
inty	-11821
inue	-11822
iten	-11823
ithm	-11824
iums	-11825
lass	-11826
lces	-11827
lead	-11828
liar	-11829
long	-11830
lymp	-11831
mans	-11832
mark	-11833
mbly	-11834
mind	-11835
nion	-11836
oded	-11837
once	-11838
onds	-11839
onym	-11840
ords	-11841
oret	-11842
orus	-11843
osyt	-11844
ourm	-11845
oval	-11846
play	-11847
pple	-11848
puld	-11849
requ	-11850
shad	-11851
teed	-11852
thag	-11853
they	-11854
ties	-11855
uity	-11856
ulas	-11857
ults	-11858
utly	-11859
vels	-11860
vote	-11861
wich	-11862
will	-11863
xper	-11864
yone	-11865
▁abl	-11866
▁ame	-11867
▁aso	-11868
▁aux	-11869
▁ave	-11870
▁avo	-11871
▁awe	-11872
▁bbc	-11873
▁bis	-11874
▁bod	-11875
▁chn	-11876
▁cla	-11877
▁coc	-11878
▁cup	-11879
▁dop	-11880
▁dot	-11881
▁dry	-11882
▁dys	-11883
▁edu	-11884
▁feh	-11885
▁fer	-11886
▁fru	-11887
▁ftc	-11888
▁fue	-11889
▁fus	-11890
▁gor	-11891
▁gur	-11892
▁hap	-11893
▁hea	-11894
▁hij	-11895
▁hod	-11896
▁hte	-11897
▁idi	-11898
▁inm	-11899
▁iss	-11900
▁jod	-11901
▁jur	-11902
▁kno	-11903
▁las	-11904
▁lud	-11905
▁lun	-11906
▁mea	-11907
▁mud	-11908
▁ofc	-11909
▁oof	-11910
▁ous	-11911
▁ove	-11912
▁oyu	-11913
▁pit	-11914
▁pul	-11915
▁rap	-11916
▁ree	-11917
▁sre	-11918
▁tap	-11919
▁tea	-11920
▁tgh	-11921
▁vig	-11922
▁vil	-11923
▁vul	-11924
▁wll	-11925
▁wro	-11926
▁wwz	-11927
acher	-11928
agers	-11929
aning	-11930
arian	-11931
arted	-11932
asrop	-11933
atant	-11934
aties	-11935
atoes	-11936
aving	-11937
bbing	-11938
bodys	-11939
child	-11940
edded	-11941
ensed	-11942
feres	-11943
getic	-11944
gible	-11945
guard	-11946
guent	-11947
house	-11948
icket	-11949
ilton	-11950
inous	-11951
intly	-11952
iouse	-11953
isent	-11954
isted	-11955
istle	-11956
itant	-11957
itles	-11958
iying	-11959
izens	-11960
lexes	-11961
ogoly	-11962
oking	-11963
onuty	-11964
ordia	-11965
orous	-11966
otage	-11967
ourse	-11968
outer	-11969
peare	-11970
phins	-11971
rease	-11972
redit	-11973
reeze	-11974
riers	-11975
roids	-11976
roved	-11977
selve	-11978
shine	-11979
sible	-11980
sself	-11981
teous	-11982
their	-11983
uable	-11984
ucion	-11985
uning	-11986
urers	-11987
venus	-11988
▁2002	-11989
▁agru	-11990
▁ampl	-11991
▁apon	-11992
▁arit	-11993
▁asse	-11994
▁assu	-11995
▁bake	-11996
▁bars	-11997
▁bear	-11998
▁beep	-11999
▁bein	-12000
▁bene	-12001
▁benn	-12002
▁bing	-12003
▁blam	-12004
▁bogg	-12005
▁bore	-12006
▁brut	-12007
▁bust	-12008
▁buzz	-12009
▁caps	-12010
▁cere	-12011
▁chew	-12012
▁coal	-12013
▁coul	-12014
▁curi	-12015
▁damp	-12016
▁deat	-12017
▁deli	-12018
▁disb	-12019
▁dump	-12020
▁eats	-12021
▁effe	-12022
▁eggs	-12023
▁elel	-12024
▁elev	-12025
▁evem	-12026
▁evir	-12027
▁exst	-12028
▁fest	-12029
▁flun	-12030
▁foll	-12031
▁font	-12032
▁golf	-12033
▁gove	-12034
▁hace	-12035
▁halt	-12036
▁heal	-12037
▁hone	-12038
▁idia	-12039
▁inna	-12040
▁inoc	-12041
▁jack	-12042
▁july	-12043
▁kiss	-12044
▁knwo	-12045
▁ling	-12046
▁loop	-12047
▁mans	-12048
▁maps	-12049
▁mary	-12050
▁mcgr	-12051
▁moun	-12052
▁nope	-12053
▁nuet	-12054
▁obam	-12055
▁opon	-12056
▁plot	-12057
▁plur	-12058
▁polp	-12059
▁popl	-12060
▁pron	-12061
▁ptsd	-12062
▁raid	-12063
▁ramp	-12064
▁rase	-12065
▁reph	-12066
▁reso	-12067
▁ress	-12068
▁rome	-12069
▁root	-12070
▁sais	-12071
▁salt	-12072
▁sant	-12073
▁saws	-12074
▁shin	-12075
▁siti	-12076
▁sits	-12077
▁skys	-12078
▁sofe	-12079
▁stae	-12080
▁stan	-12081
▁subs	-12082
▁suck	-12083
▁sute	-12084
▁syll	-12085
▁syst	-12086
▁tale	-12087
▁tank	-12088
▁tear	-12089
▁thnk	-12090
▁toke	-12091
▁trag	-12092
▁turm	-12093
▁unbe	-12094
▁vots	-12095
▁wage	-12096
▁whay	-12097
▁wils	-12098
▁wore	-12099
▁wors	-12100
alties	-12101
ameter	-12102
anding	-12103
anging	-12104
arters	-12105
artion	-12106
athers	-12107
cation	-12108
ceding	-12109
ceeded	-12110
celing	-12111
chance	-12112
dinary	-12113
ecting	-12114
erting	-12115
esting	-12116
ficial	-12117
icient	-12118
icions	-12119
ienced	-12120
igning	-12121
iledge	-12122
intion	-12123
iscule	-12124
ithsis	-12125
judice	-12126
levent	-12127
licity	-12128
liness	-12129
omprom	-12130
onment	-12131
ontist	-12132
orious	-12133
pering	-12134
rasing	-12135
reneur	-12136
rorist	-12137
thetic	-12138
uction	-12139
ulsory	-12140
uthful	-12141
utuion	-12142
vation	-12143
▁abole	-12144
▁alout	-12145
▁alway	-12146
▁annot	-12147
▁artiv	-12148
▁athor	-12149
▁autor	-12150
▁baned	-12151
▁blogs	-12152
▁blows	-12153
▁bombs	-12154
▁bonus	-12155
▁bores	-12156
▁bount	-12157
▁brows	-12158
▁bulid	-12159
▁busch	-12160
▁cabin	-12161
▁chage	-12162
▁chalk	-12163
▁chase	-12164
▁cheif	-12165
▁chevy	-12166
▁choke	-12167
▁choos	-12168
▁citic	-12169
▁colds	-12170
▁conse	-12171
▁crave	-12172
▁crows	-12173
▁decay	-12174
▁defen	-12175
▁diary	-12176
▁doens	-12177
▁draws	-12178
▁eaten	-12179
▁eckam	-12180
▁edged	-12181
▁enemy	-12182
▁enlar	-12183
▁estab	-12184
▁ether	-12185
▁evrey	-12186
▁exert	-12187
▁exhib	-12188
▁explo	-12189
▁expri	-12190
▁farms	-12191
▁filed	-12192
▁finsh	-12193
▁fixes	-12194
▁frist	-12195
▁froms	-12196
▁gobal	-12197
▁greed	-12198
▁groan	-12199
▁guest	-12200
▁horns	-12201
▁hypoc	-12202
▁impot	-12203
▁intox	-12204
▁jacks	-12205
▁jeans	-12206
▁joing	-12207
▁jumps	-12208
▁kills	-12209
▁lakes	-12210
▁loyal	-12211
▁masks	-12212
▁moods	-12213
▁mulit	-12214
▁neutr	-12215
▁obliv	-12216
▁olymp	-12217
▁opert	-12218
▁parar	-12219
▁patic	-12220
▁paved	-12221
▁petty	-12222
▁picut	-12223
▁piers	-12224
▁piled	-12225
▁posib	-12226
▁postp	-12227
▁pries	-12228
▁progr	-12229
▁prose	-12230
▁proto	-12231
▁purse	-12232
▁pysch	-12233
▁reale	-12234
▁realm	-12235
▁reave	-12236
▁recog	-12237
▁recre	-12238
▁ridic	-12239
▁rises	-12240
▁roman	-12241
▁romen	-12242
▁salad	-12243
▁saver	-12244
▁scard	-12245
▁scint	-12246
▁scout	-12247
▁scrap	-12248
▁shady	-12249
▁shame	-12250
▁shots	-12251
▁simle	-12252
▁sivak	-12253
▁sized	-12254
▁slave	-12255
▁slept	-12256
▁slick	-12257
▁soley	-12258
▁songs	-12259
▁speek	-12260
▁spont	-12261
▁stack	-12262
▁steep	-12263
▁stock	-12264
▁stole	-12265
▁stroy	-12266
▁studd	-12267
▁stugg	-12268
▁subat	-12269
▁sweat	-12270
▁tenth	-12271
▁thast	-12272
▁thero	-12273
▁thers	-12274
▁timer	-12275
▁tring	-12276
▁unapp	-12277
▁unben	-12278
▁unden	-12279
▁unite	-12280
▁unlim	-12281
▁unsuc	-12282
▁verse	-12283
▁width	-12284
▁wight	-12285
▁woudl	-12286
▁wound	-12287
▁wrist	-12288
▁wroth	-12289
ailable	-12290
atively	-12291
cnology	-12292
erently	-12293
forward	-12294
ificent	-12295
isation	-12296
iscated	-12297
iveable	-12298
nerable	-12299
ounding	-12300
pletely	-12301
portive	-12302
▁aboard	-12303
▁absoul	-12304
▁achive	-12305
▁acient	-12306
▁admits	-12307
▁againt	-12308
▁alumni	-12309
▁attach	-12310
▁aucent	-12311
▁bacuse	-12312
▁barren	-12313
▁beging	-12314
▁behide	-12315
▁beleve	-12316
▁bogata	-12317
▁bosses	-12318
▁bottle	-12319
▁brainw	-12320
▁brands	-12321
▁breeze	-12322
▁buttes	-12323
▁cables	-12324
▁camara	-12325
▁campag	-12326
▁canned	-12327
▁cleary	-12328
▁cloths	-12329
▁contri	-12330
▁coping	-12331
▁craked	-12332
▁dafted	-12333
▁darker	-12334
▁deemed	-12335
▁derect	-12336
▁dilema	-12337
▁dimens	-12338
▁divide	-12339
▁dnager	-12340
▁drawer	-12341
▁easliy	-12342
▁easyer	-12343
▁eather	-12344
▁edgars	-12345
▁eighty	-12346
▁empath	-12347
▁encomp	-12348
▁enourm	-12349
▁enrich	-12350
▁entail	-12351
▁entrep	-12352
▁ethics	-12353
▁expret	-12354
▁exuber	-12355
▁feeing	-12356
▁female	-12357
▁filthy	-12358
▁forest	-12359
▁foward	-12360
▁frinds	-12361
▁frozen	-12362
▁gloomy	-12363
▁gravit	-12364
▁helper	-12365
▁hieght	-12366
▁hitler	-12367
▁hosted	-12368
▁imagen	-12369
▁induce	-12370
▁ingles	-12371
▁insign	-12372
▁insist	-12373
▁intact	-12374
▁intric	-12375
▁journy	-12376
▁lambor	-12377
▁laughs	-12378
▁layers	-12379
▁learnd	-12380
▁leting	-12381
▁liable	-12382
▁lowest	-12383
▁luckly	-12384
▁luther	-12385
▁malala	-12386
▁mentor	-12387
▁meting	-12388
▁miller	-12389
▁millon	-12390
▁minist	-12391
▁mishap	-12392
▁mutual	-12393
▁needes	-12394
▁nether	-12395
▁nicest	-12396
▁notion	-12397
▁occupy	-12398
▁oppion	-12399
▁orthod	-12400
▁palnet	-12401
▁partly	-12402
▁perent	-12403
▁phenom	-12404
▁philos	-12405
▁posses	-12406
▁potter	-12407
▁poular	-12408
▁pounds	-12409
▁praise	-12410
▁precis	-12411
▁presum	-12412
▁prides	-12413
▁privel	-12414
▁probal	-12415
▁proble	-12416
▁prolif	-12417
▁purely	-12418
▁pythag	-12419
▁qoutes	-12420
▁recgon	-12421
▁redone	-12422
▁remedy	-12423
▁respos	-12424
▁revert	-12425
▁revise	-12426
▁romeny	-12427
▁sailer	-12428
▁salary	-12429
▁segrag	-12430
▁shakes	-12431
▁sheets	-12432
▁sholud	-12433
▁shoukd	-12434
▁sicent	-12435
▁slides	-12436
▁soloar	-12437
▁spends	-12438
▁spouse	-12439
▁stared	-12440
▁stoped	-12441
▁studie	-12442
▁stuffs	-12443
▁symbol	-12444
▁taping	-12445
▁themes	-12446
▁tooken	-12447
▁totaly	-12448
▁trafic	-12449
▁travle	-12450
▁trough	-12451
▁trusts	-12452
▁unconv	-12453
▁undest	-12454
▁unexpl	-12455
▁utmost	-12456
▁vandal	-12457
▁vehicl	-12458
▁veunus	-12459
▁wasent	-12460
▁waster	-12461
▁wealth	-12462
▁weapon	-12463
▁weighs	-12464
▁wildly	-12465
▁wished	-12466
▁woukld	-12467
bilities	-12468
children	-12469
essional	-12470
etheless	-12471
itiution	-12472
lication	-12473
peration	-12474
ronomers	-12475
▁abloish	-12476
▁abought	-12477
▁accross	-12478
▁activty	-12479
▁acurate	-12480
▁advisor	-12481
▁agaisnt	-12482
▁agianst	-12483
▁alieans	-12484
▁amercia	-12485
▁amusing	-12486
▁anarchy	-12487
▁antanas	-12488
▁assists	-12489
▁assures	-12490
▁authoer	-12491
▁avarage	-12492
▁babysit	-12493
▁beaches	-12494
▁belives	-12495
▁blocked	-12496
▁bolster	-12497
▁bothers	-12498
▁bridges	-12499
▁burdens	-12500
▁butterf	-12501
▁candiad	-12502
▁canyons	-12503
▁carpool	-12504
▁carring	-12505
▁cashier	-12506
▁changer	-12507
▁chasing	-12508
▁circles	-12509
▁clarify	-12510
▁closets	-12511
▁closing	-12512
▁coinced	-12513
▁colored	-12514
▁confron	-12515
▁congres	-12516
▁conquer	-12517
▁consent	-12518
▁consper	-12519
▁cricket	-12520
▁crosses	-12521
▁currier	-12522
▁deflict	-12523
▁denying	-12524
▁deprive	-12525
▁despair	-12526
▁devoted	-12527
▁dissect	-12528
▁distort	-12529
▁dressed	-12530
▁dresses	-12531
▁emitted	-12532
▁enemies	-12533
▁ethical	-12534
▁examlpe	-12535
▁exclude	-12536
▁factory	-12537
▁farmers	-12538
▁farming	-12539
▁fishing	-12540
▁fitting	-12541
▁flordia	-12542
▁frowned	-12543
▁gradute	-12544
▁guiding	-12545
▁handing	-12546
▁handles	-12547
▁honking	-12548
▁honored	-12549
▁horizon	-12550
▁hostage	-12551
▁hurtful	-12552
▁impulse	-12553
▁indiana	-12554
▁inexper	-12555
▁inprove	-12556
▁interes	-12557
▁iphones	-12558
▁itsself	-12559
▁journal	-12560
▁kicking	-12561
▁landfor	-12562
▁lawyers	-12563
▁liquify	-12564
▁literal	-12565
▁methode	-12566
▁metting	-12567
▁mexican	-12568
▁mileage	-12569
▁mothers	-12570
▁muslces	-12571
▁nuetral	-12572
▁outfits	-12573
▁penalty	-12574
▁perpend	-12575
▁pickett	-12576
▁planent	-12577
▁plannet	-12578
▁plummer	-12579
▁polular	-12580
▁possibe	-12581
▁posting	-12582
▁potosyt	-12583
▁pouring	-12584
▁presure	-12585
▁prototy	-12586
▁publish	-12587
▁qualify	-12588
▁racking	-12589
▁reasion	-12590
▁rehears	-12591
▁removal	-12592
▁replies	-12593
▁reserch	-12594
▁restore	-12595
▁reviews	-12596
▁robbing	-12597
▁roughly	-12598
▁safetly	-12599
▁scedule	-12600
▁scholar	-12601
▁setback	-12602
▁shuttle	-12603
▁shyness	-12604
▁sitesee	-12605
▁skiping	-12606
▁someway	-12607
▁spacing	-12608
▁stright	-12609
▁strives	-12610
▁studnet	-12611
▁stumble	-12612
▁subways	-12613
▁tension	-12614
▁thorugh	-12615
▁touches	-12616
▁underts	-12617
▁unequal	-12618
▁unsatis	-12619
▁utterly	-12620
▁varsity	-12621
▁virtues	-12622
▁volcano	-12623
▁vothing	-12624
▁wallets	-12625
▁wheelch	-12626
▁whistle	-12627
▁withing	-12628
▁worring	-12629
▁wrongly	-12630
qualified	-12631
▁accounts	-12632
▁accually	-12633
▁acutally	-12634
▁adapting	-12635
▁admitted	-12636
▁advocate	-12637
▁allotted	-12638
▁animails	-12639
▁assembly	-12640
▁atending	-12641
▁basicaly	-12642
▁betrayal	-12643
▁brighest	-12644
▁caculate	-12645
▁campiagn	-12646
▁candates	-12647
▁carfully	-12648
▁cartoons	-12649
▁catasrop	-12650
▁certaint	-12651
▁clasroom	-12652
▁classify	-12653
▁colorful	-12654
▁comeback	-12655
▁commands	-12656
▁commence	-12657
▁communit	-12658
▁comprise	-12659
▁comptuer	-12660
▁comupter	-12661
▁conveyed	-12662
▁countrie	-12663
▁cramming	-12664
▁creators	-12665
▁cyndonia	-12666
▁decipher	-12667
▁declared	-12668
▁depleted	-12669
▁destroys	-12670
▁detector	-12671
▁develope	-12672
▁diameter	-12673
▁diffcult	-12674
▁dificult	-12675
▁dioxcide	-12676
▁discoved	-12677
▁disision	-12678
▁distress	-12679
▁division	-12680
▁doubtful	-12681
▁douglass	-12682
▁drawback	-12683
▁elctions	-12684
▁embraced	-12685
▁endeavor	-12686
▁engineer	-12687
▁episodes	-12688
▁especial	-12689
▁examines	-12690
▁expelled	-12691
▁explaine	-12692
▁expresss	-12693
▁extrater	-12694
▁facetime	-12695
▁flexable	-12696
▁flunking	-12697
▁fraction	-12698
▁freguent	-12699
▁freshman	-12700
▁furthers	-12701
▁galaxies	-12702
▁generate	-12703
▁goodwill	-12704
▁governed	-12705
▁grabbing	-12706
▁grasping	-12707
▁hamilton	-12708
▁handsome	-12709
▁happends	-12710
▁happiest	-12711
▁headache	-12712
▁hopfully	-12713
▁imagined	-12714
▁impaired	-12715
▁inferior	-12716
▁interior	-12717
▁kitchens	-12718
▁landings	-12719
▁laughter	-12720
▁launched	-12721
▁marching	-12722
▁maryland	-12723
▁mastered	-12724
▁mechanic	-12725
▁memebers	-12726
▁michigan	-12727
▁mindsets	-12728
▁misinter	-12729
▁motorist	-12730
▁naturaly	-12731
▁necesary	-12732
▁olympiad	-12733
▁oppisite	-12734
▁opposers	-12735
▁outdoors	-12736
▁overcrow	-12737
▁overload	-12738
▁overuled	-12739
▁paragrph	-12740
▁paycheck	-12741
▁percents	-12742
▁persists	-12743
▁pertains	-12744
▁photogra	-12745
▁prescrib	-12746
▁presdent	-12747
▁prompted	-12748
▁protests	-12749
▁reacting	-12750
▁readings	-12751
▁recogniz	-12752
▁reflexes	-12753
▁rejected	-12754
▁repaired	-12755
▁responds	-12756
▁restrain	-12757
▁restroom	-12758
▁reviewed	-12759
▁roadways	-12760
▁sandwich	-12761
▁scedules	-12762
▁schooler	-12763
▁sciences	-12764
▁shutting	-12765
▁singular	-12766
▁sociable	-12767
▁sofeware	-12768
▁soldiers	-12769
▁somethig	-12770
▁sponsors	-12771
▁stations	-12772
▁stepping	-12773
▁stucture	-12774
▁studious	-12775
▁suicidal	-12776
▁sunshine	-12777
▁supervis	-12778
▁sweating	-12779
▁switches	-12780
▁syllabus	-12781
▁tangible	-12782
▁technolg	-12783
▁therfore	-12784
▁tiresome	-12785
▁undersat	-12786
▁unfairly	-12787
▁utilizes	-12788
▁verbally	-12789
▁versions	-12790
▁weekdays	-12791
▁westover	-12792
▁wheather	-12793
▁whitting	-12794
▁winnning	-12795
▁workshop	-12796
driverless	-12797
▁accompany	-12798
▁acquiring	-12799
▁activitis	-12800
▁actuality	-12801
▁afterward	-12802
▁amplified	-12803
▁anythings	-12804
▁apartment	-12805
▁assaulted	-12806
▁attracted	-12807
▁bandwagon	-12808
▁believers	-12809
▁branching	-12810
▁cadidates	-12811
▁cancelled	-12812
▁civilians	-12813
▁cognitive	-12814
▁columbian	-12815
▁comminute	-12816
▁commotion	-12817
▁compiling	-12818
▁conscious	-12819
▁conveying	-12820
▁corrected	-12821
▁councilor	-12822
▁countires	-12823
▁coworkers	-12824
▁cumputers	-12825
▁decieving	-12826
▁definatly	-12827
▁depicting	-12828
▁desicions	-12829
▁disagreed	-12830
▁dismissal	-12831
▁distracts	-12832
▁diversely	-12833
▁driverles	-12834
▁energetic	-12835
▁enhancing	-12836
▁enriching	-12837
▁evedience	-12838
▁excercise	-12839
▁excersise	-12840
▁execution	-12841
▁expermint	-12842
▁facinated	-12843
▁gardening	-12844
▁happyness	-12845
▁illusions	-12846
▁impending	-12847
▁imposible	-12848
▁inclusion	-12849
▁indentify	-12850
▁inportant	-12851
▁intuition	-12852
▁lifeguard	-12853
▁lunchtime	-12854
▁managable	-12855
▁mechanism	-12856
▁memorized	-12857
▁miniscule	-12858
▁misguided	-12859
▁multitask	-12860
▁mysteries	-12861
▁neccesity	-12862
▁noticable	-12863
▁novemeber	-12864
▁oblivious	-12865
▁obsticals	-12866
▁obsticles	-12867
▁overpower	-12868
▁penalties	-12869
▁photoshop	-12870
▁portrayed	-12871
▁positivly	-12872
▁possesses	-12873
▁predident	-12874
▁prejudice	-12875
▁probabaly	-12876
▁procesess	-12877
▁promotion	-12878
▁proposing	-12879
▁purposely	-12880
▁redundant	-12881
▁referring	-12882
▁regulated	-12883
▁religions	-12884
▁renewable	-12885
▁requested	-12886
▁restraint	-12887
▁scarsdale	-12888
▁scientits	-12889
▁screaming	-12890
▁sentenced	-12891
▁societies	-12892
▁stundents	-12893
▁techonoly	-12894
▁tecnoligy	-12895
▁tolerance	-12896
▁transfers	-12897
▁unlimited	-12898
▁unwilling	-12899
▁upsetting	-12900
▁varieties	-12901
▁violating	-12902
▁accumulate	-12903
▁accusation	-12904
▁agreements	-12905
▁antiquated	-12906
▁assistence	-12907
▁billboards	-12908
▁calculated	-12909
▁candiddate	-12910
▁candinates	-12911
▁cerificate	-12912
▁challeging	-12913
▁comforting	-12914
▁complexity	-12915
▁compulsory	-12916
▁computures	-12917
▁conclucion	-12918
▁conflicted	-12919
▁connecting	-12920
▁consisting	-12921
▁constition	-12922
▁constraint	-12923
▁contagious	-12924
▁controling	-12925
▁correlates	-12926
▁counceling	-12927
▁courageous	-12928
▁definently	-12929
▁delivering	-12930
▁desination	-12931
▁devastated	-12932
▁displaying	-12933
▁educations	-12934
▁efficently	-12935
▁envirnment	-12936
▁evaluation	-12937
▁exspensive	-12938
▁facinating	-12939
▁frightened	-12940
▁guarantees	-12941
▁humanities	-12942
▁immediatly	-12943
▁indicating	-12944
▁interferes	-12945
▁internally	-12946
▁ironically	-12947
▁laboratory	-12948
▁legitimate	-12949
▁literature	-12950
▁medication	-12951
▁misterious	-12952
▁monitoring	-12953
▁monumental	-12954
▁mostlikely	-12955
▁negativity	-12956
▁objectives	-12957
▁occupation	-12958
▁parargraph	-12959
▁perceiving	-12960
▁pollutions	-12961
▁precidency	-12962
▁prediction	-12963
▁preferable	-12964
▁presisdent	-12965
▁priviledge	-12966
▁privileged	-12967
▁proportion	-12968
▁pursuiting	-12969
▁reassuring	-12970
▁rebellious	-12971
▁recognizes	-12972
▁rediculous	-12973
▁repetitive	-12974
▁reseachers	-12975
▁rightfully	-12976
▁seperation	-12977
▁simplifies	-12978
▁simplistic	-12979
▁sitiuation	-12980
▁somepeople	-12981
▁specialist	-12982
▁surportive	-12983
▁suspension	-12984
▁techonlogy	-12985
▁temptation	-12986
▁uniqueness	-12987
▁variations	-12988
▁vulnerable	-12989
▁weathering	-12990
▁witnessing	-12991
▁adavantages	-12992
▁adolescence	-12993
▁adventurous	-12994
▁anticipated	-12995
▁appointment	-12996
▁attractions	-12997
▁authorities	-12998
▁celebrities	-12999
▁commercials	-13000
▁compromised	-13001
▁confiscated	-13002
▁constituion	-13003
▁contemplate	-13004
▁counterpart	-13005
▁desperately	-13006
▁dimensional	-13007
▁disappeared	-13008
▁disasterous	-13009
▁disinterest	-13010
▁disregarded	-13011
▁disruptions	-13012
▁distinction	-13013
▁electorates	-13014
▁eligibility	-13015
▁enforcement	-13016
▁examination	-13017
▁exceptional	-13018
▁independant	-13019
▁influencing	-13020
▁inspiration	-13021
▁intoxicated	-13022
▁meaningless	-13023
▁misbehaving	-13024
▁neighboring	-13025
▁nonetheless	-13026
▁occupations	-13027
▁oppertonuty	-13028
▁punishments	-13029
▁resourceful	-13030
▁restriction	-13031
▁shakespeare	-13032
▁similarites	-13033
▁spontaneous	-13034
▁standpoints	-13035
▁suprisingly	-13036
▁suspensions	-13037
▁teachnology	-13038
▁unavailable	-13039
▁underground	-13040
▁undesirable	-13041
▁unification	-13042
▁volunteered	-13043
▁acknowledged	-13044
▁administered	-13045
▁announcement	-13046
▁appreciation	-13047
▁appreciative	-13048
▁atomospheric	-13049
▁collectively	-13050
▁compromising	-13051
▁conspiracies	-13052
▁coordination	-13053
▁demostration	-13054
▁descriptions	-13055
▁entrepreneur	-13056
▁envirornment	-13057
▁imaginations	-13058
▁immortalized	-13059
▁incorporates	-13060
▁intersection	-13061
▁knowledgable	-13062
▁measurements	-13063
▁motivational	-13064
▁orthodontist	-13065
▁performances	-13066
▁possiblities	-13067
▁preparedness	-13068
▁preposterous	-13069
▁satisfaction	-13070
▁scientificly	-13071
▁unbeneficial	-13072
▁unimaginable	-13073
▁unrestricted	-13074
▁unsuccessful	-13075
▁argumentative	-13076
▁collaborating	-13077
▁comprehending	-13078
▁consititution	-13079
▁contributions	-13080
▁deteriorating	-13081
▁gratification	-13082
▁heartbreaking	-13083
▁informational	-13084
▁intentionally	-13085
▁malfunctioned	-13086
▁misconception	-13087
▁perpendicular	-13088
▁potosytithsis	-13089
▁stereotypical	-13090
▁transitioning	-13091
▁unbelieveable	-13092
▁groundbreaking	-13093
▁interpretation	-13094
▁multiplication	-13095
▁professionally	-13096
▁recommendation	-13097
▁represenitives	-13098
▁representitive	-13099
▁subconsciously	-13100
▁experimentation	-13101
▁procrastinating	-13102
▁recommendations	-13103
19	-13104
bo	-13105
cr	-13106
cs	-13107
eg	-13108
sm	-13109
sp	-13110
tr	-13111
ua	-13112
uf	-13113
uw	-13114
vp	-13115
yn	-13116
yy	-13117
aby	-13118
aca	-13119
aed	-13120
aer	-13121
aru	-13122
auc	-13123
aze	-13124
ban	-13125
bet	-13126
bir	-13127
bis	-13128
cen	-13129
cey	-13130
cla	-13131
cri	-13132
cto	-13133
edi	-13134
eds	-13135
ege	-13136
eor	-13137
fui	-13138
gue	-13139
hen	-13140
hol	-13141
ibe	-13142
iev	-13143
iks	-13144
imk	-13145
isy	-13146
iur	-13147
iut	-13148
ivl	-13149
kul	-13150
lef	-13151
lel	-13152
lst	-13153
mal	-13154
mnt	-13155
mor	-13156
nus	-13157
obe	-13158
oby	-13159
onh	-13160
onw	-13161
ork	-13162
ott	-13163
pct	-13164
pgh	-13165
pox	-13166
pre	-13167
rab	-13168
rad	-13169
rin	-13170
sol	-13171
sto	-13172
tim	-13173
uch	-13174
uct	-13175
uff	-13176
umn	-13177
uve	-13178
vis	-13179
who	-13180
yld	-13181
yls	-13182
▁52	-13183
▁eb	-13184
▁eq	-13185
▁gh	-13186
▁hs	-13187
▁ht	-13188
▁ig	-13189
▁ka	-13190
▁oe	-13191
▁pi	-13192
▁sd	-13193
abet	-13194
aint	-13195
aler	-13196
amer	-13197
amin	-13198
aned	-13199
aren	-13200
arta	-13201
atem	-13202
ayse	-13203
boys	-13204
cary	-13205
cope	-13206
ctly	-13207
cure	-13208
dain	-13209
dern	-13210
eges	-13211
elms	-13212
eman	-13213
enes	-13214
enly	-13215
enst	-13216
esis	-13217
esto	-13218
eted	-13219
etns	-13220
fael	-13221
feit	-13222
ffee	-13223
fice	-13224
fund	-13225
hern	-13226
hite	-13227
huge	-13228
icup	-13229
iend	-13230
ifig	-13231
igns	-13232
ilce	-13233
ilet	-13234
infg	-13235
inos	-13236
inum	-13237
ioce	-13238
iply	-13239
ique	-13240
irly	-13241
isis	-13242
itst	-13243
iuld	-13244
jets	-13245
lain	-13246
leys	-13247
lian	-13248
lich	-13249
ller	-13250
make	-13251
many	-13252
nate	-13253
nces	-13254
nels	-13255
nity	-13256
oder	-13257
oent	-13258
oins	-13259
oked	-13260
olar	-13261
olus	-13262
omst	-13263
omus	-13264
onia	-13265
oose	-13266
ophy	-13267
oppy	-13268
orit	-13269
orts	-13270
otiv	-13271
ouch	-13272
owns	-13273
pate	-13274
plar	-13275
pled	-13276
ragh	-13277
rall	-13278
rded	-13279
real	-13280
reds	-13281
rete	-13282
roar	-13283
roll	-13284
rtic	-13285
sery	-13286
slef	-13287
sted	-13288
stop	-13289
sung	-13290
then	-13291
tter	-13292
uase	-13293
udge	-13294
uers	-13295
uise	-13296
ulat	-13297
ulge	-13298
ulls	-13299
flix	-13300
uman	-13301
umbo	-13302
unks	-13303
vals	-13304
vern	-13305
want	-13306
wear	-13307
were	-13308
wind	-13309
word	-13310
zona	-13311
▁120	-13312
▁232	-13313
▁999	-13314
▁aaa	-13315
▁abo	-13316
▁acl	-13317
▁aes	-13318
▁ain	-13319
▁alf	-13320
▁amy	-13321
▁aro	-13322
▁atr	-13323
▁bee	-13324
▁bmv	-13325
▁bor	-13326
▁byc	-13327
▁cem	-13328
▁cna	-13329
▁coy	-13330
▁cyd	-13331
▁dan	-13332
▁dro	-13333
▁dug	-13334
▁egt	-13335
▁elc	-13336
▁ffa	-13337
▁fom	-13338
▁fra	-13339
▁fri	-13340
▁fry	-13341
▁gam	-13342
▁gav	-13343
▁han	-13344
▁hel	-13345
▁hyd	-13346
▁ifs	-13347
▁iif	-13348
▁iin	-13349
▁ike	-13350
▁iof	-13351
▁ira	-13352
▁jew	-13353
▁kee	-13354
▁lam	-13355
▁lap	-13356
▁ler	-13357
▁lig	-13358
▁lip	-13359
▁lll	-13360
▁mac	-13361
▁mvp	-13362
▁nag	-13363
▁nam	-13364
▁nba	-13365
▁ner	-13366
▁nou	-13367
▁obe	-13368
▁oun	-13369
▁pak	-13370
▁peo	-13371
▁plu	-13372
▁pus	-13373
▁que	-13374
▁rib	-13375
▁ric	-13376
▁sav	-13377
▁sca	-13378
▁scr	-13379
▁ses	-13380
▁shc	-13381
▁soe	-13382
▁sop	-13383
▁suf	-13384
▁tab	-13385
▁tak	-13386
▁tat	-13387
▁tec	-13388
▁tey	-13389
▁tge	-13390
▁thu	-13391
▁thw	-13392
▁tum	-13393
▁ugh	-13394
▁unl	-13395
▁unn	-13396
▁upr	-13397
▁vey	-13398
▁vhe	-13399
▁vik	-13400
▁wht	-13401
▁wip	-13402
▁wir	-13403
▁wok	-13404
▁www	-13405
▁yep	-13406
▁zoo	-13407
acent	-13408
achel	-13409
acted	-13410
addit	-13411
adequ	-13412
agine	-13413
ainty	-13414
allow	-13415
anely	-13416
anium	-13417
antee	-13418
apear	-13419
assed	-13420
asted	-13421
athon	-13422
attoo	-13423
avors	-13424
bands	-13425
bling	-13426
ceful	-13427
chure	-13428
cular	-13429
cured	-13430
cycle	-13431
duous	-13432
ector	-13433
eking	-13434
elman	-13435
elves	-13436
endid	-13437
eries	-13438
estic	-13439
etown	-13440
fered	-13441
heric	-13442
ialty	-13443
iance	-13444
icken	-13445
idity	-13446
ieled	-13447
iffer	-13448
igned	-13449
ilage	-13450
inals	-13451
inity	-13452
iosly	-13453
iracy	-13454
itors	-13455
itous	-13456
ivate	-13457
juven	-13458
keley	-13459
leves	-13460
levie	-13461
lexia	-13462
lying	-13463
meant	-13464
neath	-13465
olege	-13466
onged	-13467
orism	-13468
ostly	-13469
ouces	-13470
ouned	-13471
ource	-13472
owned	-13473
pathy	-13474
pects	-13475
pered	-13476
plate	-13477
ports	-13478
power	-13479
prits	-13480
proof	-13481
raham	-13482
rains	-13483
riots	-13484
rised	-13485
steps	-13486
stion	-13487
timid	-13488
tures	-13489
ucult	-13490
uents	-13491
uever	-13492
ufact	-13493
ulele	-13494
ulers	-13495
upted	-13496
ussed	-13497
utate	-13498
utely	-13499
utude	-13500
venth	-13501
vment	-13502
zebra	-13503
▁1000	-13504
▁2007	-13505
▁2011	-13506
▁ably	-13507
▁abom	-13508
▁acct	-13509
▁alab	-13510
▁alow	-13511
▁amde	-13512
▁amed	-13513
▁anch	-13514
▁ands	-13515
▁annd	-13516
▁anse	-13517
▁aout	-13518
▁artl	-13519
▁asia	-13520
▁atro	-13521
▁aven	-13522
▁bact	-13523
▁bane	-13524
▁bass	-13525
▁bast	-13526
▁batt	-13527
▁beam	-13528
▁beds	-13529
▁beer	-13530
▁begs	-13531
▁belt	-13532
▁berg	-13533
▁bind	-13534
▁blat	-13535
▁bode	-13536
▁brag	-13537
▁brim	-13538
▁buil	-13539
▁cafe	-13540
▁cale	-13541
▁cass	-13542
▁cess	-13543
▁cher	-13544
▁cict	-13545
▁clay	-13546
▁clog	-13547
▁coat	-13548
▁cote	-13549
▁coum	-13550
▁cunt	-13551
▁curt	-13552
▁dazz	-13553
▁dedu	-13554
▁deid	-13555
▁deve	-13556
▁dial	-13557
▁dill	-13558
▁dior	-13559
▁doin	-13560
▁dosn	-13561
▁esle	-13562
▁exac	-13563
▁exem	-13564
▁exit	-13565
▁expr	-13566
▁foul	-13567
▁fran	-13568
▁fron	-13569
▁fuse	-13570
▁gass	-13571
▁gate	-13572
▁geog	-13573
▁gian	-13574
▁glam	-13575
▁goer	-13576
▁gona	-13577
▁gosh	-13578
▁gram	-13579
▁guar	-13580
▁hart	-13581
▁hase	-13582
▁heap	-13583
▁heir	-13584
▁hond	-13585
▁hows	-13586
▁imop	-13587
▁impl	-13588
▁inch	-13589
▁indo	-13590
▁itll	-13591
▁jazz	-13592
▁jonh	-13593
▁khan	-13594
▁knee	-13595
▁knoe	-13596
▁laps	-13597
▁leaf	-13598
▁lend	-13599
▁leth	-13600
▁liek	-13601
▁lien	-13602
▁likr	-13603
▁logs	-13604
▁lone	-13605
▁loun	-13606
▁lsat	-13607
▁lung	-13608
▁mamm	-13609
▁mare	-13610
▁mate	-13611
▁milk	-13612
▁mone	-13613
▁mony	-13614
▁natr	-13615
▁neag	-13616
▁nort	-13617
▁nthe	-13618
▁nurt	-13619
▁onle	-13620
▁orib	-13621
▁oval	-13622
▁owed	-13623
▁pant	-13624
▁perv	-13625
▁pess	-13626
▁phra	-13627
▁pice	-13628
▁pill	-13629
▁ping	-13630
▁pods	-13631
▁poke	-13632
▁poop	-13633
▁prat	-13634
▁rail	-13635
▁rank	-13636
▁rant	-13637
▁rebr	-13638
▁recu	-13639
▁rend	-13640
▁ridd	-13641
▁shod	-13642
▁shud	-13643
▁sice	-13644
▁siml	-13645
▁slot	-13646
▁smil	-13647
▁sols	-13648
▁sons	-13649
▁sout	-13650
▁spac	-13651
▁spit	-13652
▁stig	-13653
▁subt	-13654
▁sued	-13655
▁surr	-13656
▁synd	-13657
▁tamb	-13658
▁tard	-13659
▁tect	-13660
▁tham	-13661
▁thar	-13662
▁thas	-13663
▁thid	-13664
▁thik	-13665
▁thje	-13666
▁thsi	-13667
▁tine	-13668
▁tore	-13669
▁tort	-13670
▁trhe	-13671
▁trop	-13672
▁trys	-13673
▁uber	-13674
▁uner	-13675
▁unor	-13676
▁utop	-13677
▁vain	-13678
▁vite	-13679
▁void	-13680
▁wath	-13681
▁weed	-13682
▁welf	-13683
▁whch	-13684
▁whoa	-13685
▁wile	-13686
▁wing	-13687
▁wist	-13688
▁woun	-13689
▁wuld	-13690
▁yous	-13691
abilty	-13692
aching	-13693
acious	-13694
agrees	-13695
anteed	-13696
arding	-13697
arence	-13698
assary	-13699
assure	-13700
aution	-13701
bility	-13702
blance	-13703
charge	-13704
comend	-13705
craper	-13706
cratic	-13707
ctoral	-13708
derick	-13709
enders	-13710
enging	-13711
epless	-13712
ervers	-13713
ervice	-13714
gender	-13715
height	-13716
iating	-13717
icided	-13718
icrous	-13719
inator	-13720
inetly	-13721
iosity	-13722
istion	-13723
ithout	-13724
itians	-13725
lected	-13726
lltion	-13727
luster	-13728
minded	-13729
ollect	-13730
ollege	-13731
ologic	-13732
olving	-13733
omable	-13734
opular	-13735
orates	-13736
ortant	-13737
oshing	-13738
ouched	-13739
outhor	-13740
quired	-13741
rature	-13742
repres	-13743
resher	-13744
resion	-13745
resses	-13746
ribing	-13747
ribute	-13748
ritory	-13749
riving	-13750
roding	-13751
ronics	-13752
rusted	-13753
stream	-13754
udents	-13755
unteed	-13756
unties	-13757
uption	-13758
ussion	-13759
veryor	-13760
▁abaut	-13761
▁acess	-13762
▁acton	-13763
▁actor	-13764
▁adore	-13765
▁affil	-13766
▁aford	-13767
▁aided	-13768
▁alian	-13769
▁allen	-13770
▁amont	-13771
▁amost	-13772
▁ample	-13773
▁amuse	-13774
▁angel	-13775
▁aniam	-13776
▁ankle	-13777
▁appel	-13778
▁archa	-13779
▁argum	-13780
▁arugu	-13781
▁asian	-13782
▁aspir	-13783
▁assoc	-13784
▁avent	-13785
▁bacon	-13786
▁banks	-13787
▁bendz	-13788
▁benus	-13789
▁betwe	-13790
▁biger	-13791
▁billy	-13792
▁blunt	-13793
▁brian	-13794
▁brock	-13795
▁bulbs	-13796
▁bussy	-13797
▁butts	-13798
▁cabon	-13799
▁calss	-13800
▁camar	-13801
▁canbe	-13802
▁caref	-13803
▁carve	-13804
▁carzy	-13805
▁casue	-13806
▁chest	-13807
▁chunk	-13808
▁comer	-13809
▁comet	-13810
▁comic	-13811
▁comit	-13812
▁conce	-13813
▁coner	-13814
▁consp	-13815
▁cough	-13816
▁couls	-13817
▁cours	-13818
▁crops	-13819
▁cuase	-13820
▁curse	-13821
▁dange	-13822
▁datab	-13823
▁deans	-13824
▁debil	-13825
▁deeds	-13826
▁demor	-13827
▁denst	-13828
▁diect	-13829
▁direc	-13830
▁disab	-13831
▁disav	-13832
▁distr	-13833
▁dodge	-13834
▁drift	-13835
▁easer	-13836
▁emost	-13837
▁emoth	-13838
▁energ	-13839
▁enogh	-13840
▁erath	-13841
▁escal	-13842
▁evere	-13843
▁evind	-13844
▁exeed	-13845
▁facal	-13846
▁fades	-13847
▁fairy	-13848
▁farth	-13849
▁fccla	-13850
▁feild	-13851
▁figer	-13852
▁firef	-13853
▁fires	-13854
▁firts	-13855
▁fisrt	-13856
▁forum	-13857
▁freel	-13858
▁frend	-13859
▁glich	-13860
▁gonig	-13861
▁greek	-13862
▁grind	-13863
▁guild	-13864
▁harry	-13865
▁hawii	-13866
▁heats	-13867
▁hefty	-13868
▁hicup	-13869
▁hints	-13870
▁hotel	-13871
▁humen	-13872
▁infur	-13873
▁injoy	-13874
▁instu	-13875
▁intes	-13876
▁intre	-13877
▁irrat	-13878
▁ivent	-13879
▁james	-13880
▁jesus	-13881
▁joint	-13882
▁kines	-13883
▁kinks	-13884
▁lasts	-13885
▁lawns	-13886
▁layed	-13887
▁legos	-13888
▁loath	-13889
▁loser	-13890
▁lyric	-13891
▁mails	-13892
▁manny	-13893
▁mealt	-13894
▁mecan	-13895
▁migth	-13896
▁misch	-13897
▁modle	-13898
▁monna	-13899
▁monop	-13900
▁moter	-13901
▁munic	-13902
▁navag	-13903
▁nesse	-13904
▁nukul	-13905
▁oddly	-13906
▁ofter	-13907
▁onthe	-13908
▁oters	-13909
▁overd	-13910
▁overt	-13911
▁panet	-13912
▁perci	-13913
▁peron	-13914
▁pesky	-13915
▁pixal	-13916
▁pluse	-13917
▁polot	-13918
▁posts	-13919
▁prote	-13920
▁pubic	-13921
▁rearr	-13922
▁repes	-13923
▁resem	-13924
▁reuse	-13925
▁runer	-13926
▁salty	-13927
▁samll	-13928
▁sandy	-13929
▁satel	-13930
▁sayed	-13931
▁sayin	-13932
▁schoo	-13933
▁scool	-13934
▁scoot	-13935
▁scort	-13936
▁scott	-13937
▁scram	-13938
▁seeks	-13939
▁semin	-13940
▁senor	-13941
▁setup	-13942
▁shack	-13943
▁shuld	-13944
▁somet	-13945
▁sorta	-13946
▁spain	-13947
▁spins	-13948
▁stagn	-13949
▁steam	-13950
▁strat	-13951
▁stunt	-13952
▁suing	-13953
▁surge	-13954
▁surve	-13955
▁sworn	-13956
▁teleg	-13957
▁teles	-13958
▁thare	-13959
▁thart	-13960
▁thimk	-13961
▁thoun	-13962
▁tours	-13963
▁trace	-13964
▁tryin	-13965
▁tuned	-13966
▁tweak	-13967
▁ubiqu	-13968
▁unatt	-13969
▁undem	-13970
▁unexc	-13971
▁unexp	-13972
▁unfor	-13973
▁union	-13974
▁unpre	-13975
▁unsur	-13976
▁usful	-13977
▁varys	-13978
▁vensu	-13979
▁verge	-13980
▁volly	-13981
▁watse	-13982
▁wears	-13983
▁wernt	-13984
▁widen	-13985
▁winer	-13986
▁wiped	-13987
▁wraps	-13988
▁yards	-13989
▁yearn	-13990
▁yoiur	-13991
▁yorks	-13992
▁youse	-13993
▁youve	-13994
acation	-13995
agrants	-13996
arentee	-13997
attered	-13998
balance	-13999
bergers	-14000
blished	-14001
cations	-14002
chooled	-14003
endable	-14004
erstown	-14005
faction	-14006
ference	-14007
iations	-14008
icapped	-14009
ierment	-14010
ificant	-14011
insible	-14012
issions	-14013
istered	-14014
lectors	-14015
ledging	-14016
million	-14017
ologies	-14018
onisble	-14019
onymous	-14020
pective	-14021
proport	-14022
ralling	-14023
rendous	-14024
ressing	-14025
reversy	-14026
ritical	-14027
rowaves	-14028
stition	-14029
thought	-14030
unction	-14031
verment	-14032
▁accord	-14033
▁accure	-14034
▁acidic	-14035
▁adhere	-14036
▁agenst	-14037
▁ailens	-14038
▁aiming	-14039
▁allien	-14040
▁alters	-14041
▁amoung	-14042
▁anough	-14043
▁apples	-14044
▁appreh	-14045
▁aricle	-14046
▁arived	-14047
▁assgin	-14048
▁attion	-14049
▁baised	-14050
▁bitter	-14051
▁blinds	-14052
▁blocks	-14053
▁boosts	-14054
▁borrow	-14055
▁bribed	-14056
▁bubble	-14057
▁bullet	-14058
▁buring	-14059
▁burned	-14060
▁busing	-14061
▁canada	-14062
▁canind	-14063
▁canyon	-14064
▁captin	-14065
▁catost	-14066
▁charts	-14067
▁cheese	-14068
▁chioce	-14069
▁choirs	-14070
▁chorus	-14071
▁chrome	-14072
▁cleard	-14073
▁clique	-14074
▁cllege	-14075
▁cloest	-14076
▁coffee	-14077
▁colaps	-14078
▁comfor	-14079
▁comman	-14080
▁compli	-14081
▁conser	-14082
▁contol	-14083
▁cookie	-14084
▁cooler	-14085
▁couldv	-14086
▁crator	-14087
▁crises	-14088
▁crowed	-14089
▁cruise	-14090
▁crutch	-14091
▁dealer	-14092
▁delays	-14093
▁democr	-14094
▁desing	-14095
▁despit	-14096
▁devlop	-14097
▁dining	-14098
▁diseal	-14099
▁disval	-14100
▁divert	-14101
▁dixide	-14102
▁dozens	-14103
▁dumped	-14104
▁eaiser	-14105
▁editor	-14106
▁elctor	-14107
▁emtion	-14108
▁erodes	-14109
▁ethier	-14110
▁expore	-14111
▁facter	-14112
▁faical	-14113
▁fairer	-14114
▁finale	-14115
▁floats	-14116
▁floods	-14117
▁flower	-14118
▁franch	-14119
▁fucher	-14120
▁fueled	-14121
▁funded	-14122
▁funner	-14123
▁fusses	-14124
▁futrue	-14125
▁gamble	-14126
▁grandf	-14127
▁greace	-14128
▁greedy	-14129
▁grumpy	-14130
▁hacker	-14131
▁harmed	-14132
▁hassel	-14133
▁headqu	-14134
▁heated	-14135
▁heaven	-14136
▁hiking	-14137
▁hooked	-14138
▁horrid	-14139
▁humens	-14140
▁idiots	-14141
▁illist	-14142
▁impart	-14143
▁impede	-14144
▁inposs	-14145
▁intead	-14146
▁intent	-14147
▁intert	-14148
▁intros	-14149
▁killer	-14150
▁layout	-14151
▁lazing	-14152
▁leaned	-14153
▁limite	-14154
▁majors	-14155
▁malins	-14156
▁manned	-14157
▁marine	-14158
▁meager	-14159
▁measly	-14160
▁melted	-14161
▁methid	-14162
▁mexico	-14163
▁midter	-14164
▁minors	-14165
▁mirrow	-14166
▁misjud	-14167
▁misuse	-14168
▁morale	-14169
▁mounth	-14170
▁movent	-14171
▁namely	-14172
▁nascar	-14173
▁nitros	-14174
▁nonren	-14175
▁novice	-14176
▁offend	-14177
▁offten	-14178
▁oldest	-14179
▁openly	-14180
▁opions	-14181
▁opnion	-14182
▁opprit	-14183
▁panick	-14184
▁pargar	-14185
▁pedals	-14186
▁phenon	-14187
▁physic	-14188
▁pionts	-14189
▁planed	-14190
▁planit	-14191
▁poorer	-14192
▁popped	-14193
▁portra	-14194
▁preach	-14195
▁priced	-14196
▁prints	-14197
▁prizes	-14198
▁purple	-14199
▁pursit	-14200
▁pusuit	-14201
▁racist	-14202
▁rafael	-14203
▁ranges	-14204
▁rating	-14205
▁reaons	-14206
▁reaosn	-14207
▁recess	-14208
▁reiter	-14209
▁render	-14210
▁renown	-14211
▁replay	-14212
▁requir	-14213
▁resent	-14214
▁reside	-14215
▁restur	-14216
▁revote	-14217
▁rhetor	-14218
▁rigged	-14219
▁rolled	-14220
▁sacred	-14221
▁sanity	-14222
▁scence	-14223
▁scenes	-14224
▁scheme	-14225
▁schhol	-14226
▁segerg	-14227
▁sentor	-14228
▁serval	-14229
▁setups	-14230
▁sharks	-14231
▁shoudl	-14232
▁shovel	-14233
▁sighed	-14234
▁silver	-14235
▁simial	-14236
▁simile	-14237
▁simill	-14238
▁simlie	-14239
▁singal	-14240
▁singel	-14241
▁sistem	-14242
▁siting	-14243
▁sivaks	-14244
▁skates	-14245
▁skewed	-14246
▁slaves	-14247
▁sloppy	-14248
▁smater	-14249
▁sparta	-14250
▁speack	-14251
▁sprint	-14252
▁staffs	-14253
▁stairs	-14254
▁stance	-14255
▁stares	-14256
▁stikes	-14257
▁stimul	-14258
▁stroke	-14259
▁studdy	-14260
▁sucess	-14261
▁sudent	-14262
▁sueing	-14263
▁surpir	-14264
▁syatem	-14265
▁tallys	-14266
▁tattoo	-14267
▁taxies	-14268
▁texted	-14269
▁theese	-14270
▁therom	-14271
▁theyll	-14272
▁ticked	-14273
▁tought	-14274
▁towers	-14275
▁tragic	-14276
▁traval	-14277
▁triang	-14278
▁unbare	-14279
▁uncont	-14280
▁unness	-14281
▁unresp	-14282
▁unseen	-14283
▁uproar	-14284
▁usless	-14285
▁vanish	-14286
▁votors	-14287
▁wander	-14288
▁warmth	-14289
▁waters	-14290
▁weekly	-14291
▁whilst	-14292
▁wilson	-14293
ablished	-14294
adequate	-14295
arenteed	-14296
asically	-14297
boarding	-14298
cedented	-14299
ceptible	-14300
ctionary	-14301
curities	-14302
derstand	-14303
ductions	-14304
elligent	-14305
erations	-14306
fensible	-14307
function	-14308
ifferent	-14309
lections	-14310
otivated	-14311
ountable	-14312
reciated	-14313
rionment	-14314
rodinary	-14315
▁abandon	-14316
▁abraham	-14317
▁actirty	-14318
[...]
