<unk>	0
<s>	0
</s>	0
▁1	-0
00	-1
▁스	-2
▁s	-3
▁아	-4
▁2	-5
▁a	-6
▁b	-7
▁c	-8
백화	-9
백화점	-10
▁3	-11
01	-12
▁m	-13
▁p	-14
▁여	-15
▁l	-16
▁5	-17
▁남	-18
이스	-19
▁여성	-20
▁블	-21
▁현	-22
▁6	-23
▁g	-24
▁현대	-25
▁d	-26
▁오	-27
▁t	-28
▁4	-29
02	-30
▁바	-31
▁라	-32
▁하	-33
▁신	-34
▁에	-35
▁레	-36
▁n	-37
▁h	-38
셔츠	-39
▁k	-40
▁남성	-41
▁f	-42
10	-43
▁7	-44
▁w	-45
▁갤	-46
▁e	-47
17	-48
▁미	-49
▁현대백화점	-50
cm	-51
케이스	-52
03	-53
레이	-54
▁프	-55
라이	-56
▁8	-57
▁j	-58
▁보	-59
▁베	-60
▁r	-61
50	-62
▁카	-63
세트	-64
▁가	-65
▁모	-66
al	-67
11	-68
▁롯	-69
▁롯데	-70
▁트	-71
▁티	-72
▁로	-73
▁플	-74
04	-75
▁패	-76
▁리	-77
12	-78
▁14	-79
걸이	-80
▁아이	-81
▁무	-82
14	-83
18	-84
▁i	-85
▁청	-86
▁코	-87
▁자	-88
▁마	-89
▁롯데백화점	-90
▁하프	-91
▁반	-92
이트	-93
할인	-94
er	-95
▁비	-96
▁소	-97
클럽	-98
16	-99
▁디	-100
▁브	-101
▁원	-102
▁크	-103
▁다	-104
▁블랙	-105
▁하프클럽	-106
▁캐	-107
▁이	-108
▁ak	-109
▁그	-110
ml	-111
▁v	-112
▁슬	-113
피스	-114
세계	-115
팬츠	-116
▁유	-117
▁0	-118
▁정	-119
15	-120
▁수	-121
럭시	-122
▁포	-123
▁9	-124
▁나	-125
▁파	-126
리아	-127
▁갤럭시	-128
스트	-129
▁바보	-130
▁18	-131
ac	-132
사랑	-133
or	-134
구할인	-135
▁청구할인	-136
20	-137
mm	-138
all	-139
13	-140
in	-141
▁바보사랑	-142
▁헤	-143
▁오가	-144
▁인	-145
▁신세계	-146
▁지	-147
▁기	-148
oo	-149
박스	-150
▁제	-151
▁대	-152
an	-153
▁블루	-154
mall	-155
▁네	-156
▁클	-157
▁사	-158
배송	-159
▁메	-160
우스	-161
05	-162
▁시	-163
▁데	-164
on	-165
▁고	-166
06	-167
▁아트	-168
▁u	-169
▁후	-170
▁토	-171
as	-172
ar	-173
▁티셔츠	-174
리스	-175
▁키	-176
en	-177
러스	-178
▁삼	-179
이비	-180
▁화	-181
▁세	-182
니트	-183
30	-184
hmall	-185
▁실	-186
▁아디	-187
다스	-188
▁갤러	-189
▁12	-190
▁신한	-191
▁스트	-192
▁체	-193
▁아디다스	-194
▁갤러리아	-195
디오	-196
▁아트박스	-197
▁무료	-198
▁더	-199
▁전	-200
▁목	-201
000	-202
로스	-203
이어	-204
▁o	-205
st	-206
▁루	-207
25	-208
▁무료배송	-209
▁배	-210
▁엘	-211
▁13	-212
▁선	-213
이드	-214
▁주	-215
▁공	-216
ol	-217
라인	-218
▁골	-219
▁x	-220
▁미니	-221
07	-222
시계	-223
▁노	-224
▁bl	-225
22	-226
▁베이	-227
▁팬츠	-228
플러스	-229
라이프	-230
인트	-231
08	-232
플라	-233
▁라디오	-234
가방	-235
▁정품	-236
ss	-237
귀걸이	-238
▁라디오사	-239
▁와	-240
▁패션	-241
▁17	-242
라스	-243
타이	-244
▁커	-245
▁16	-246
ts	-247
et	-248
24	-249
▁화이트	-250
▁도	-251
▁장	-252
▁케이스	-253
▁y	-254
23	-255
19	-256
09	-257
핑크	-258
▁쿠	-259
▁슈	-260
보리	-261
키즈	-262
▁피	-263
▁원피스	-264
▁브라	-265
지갑	-266
op	-267
ea	-268
▁테	-269
it	-270
▁우	-271
▁드	-272
티셔츠	-273
운드	-274
▁빈	-275
스티	-276
▁롱	-277
▁니트	-278
▁백	-279
▁오가게	-280
▁삼성	-281
바지	-282
le	-283
▁201	-284
74	-285
oom	-286
35	-287
▁신세계백화점	-288
100	-289
▁체크	-290
스타	-291
26	-292
▁퍼	-293
▁올	-294
▁폴	-295
▁투	-296
▁일	-297
▁매	-298
▁귀걸이	-299
팬티	-300
▁가죽	-301
주얼	-302
at	-303
▁러	-304
▁버	-305
▁lk	-306
▁슬림	-307
▁목걸이	-308
▁poom	-309
▁조	-310
▁페	-311
ic	-312
지스	-313
▁스타	-314
▁뉴	-315
▁나이	-316
리어	-317
가죽	-318
el	-319
▁오가닉	-320
▁아이폰	-321
▁st	-322
▁q	-323
플라자	-324
▁핸	-325
▁안	-326
73	-327
▁반팔	-328
bk	-329
us	-330
▁애	-331
▁알	-332
▁긴	-333
용품	-334
75	-335
bl	-336
▁나이키	-337
▁15	-338
▁닥	-339
▁한	-340
라우스	-341
포츠	-342
ro	-343
▁01	-344
▁100	-345
벨트	-346
21	-347
컬러	-348
28	-349
▁네이비	-350
▁헤지스	-351
▁타	-352
am	-353
▁스트라이프	-354
▁어	-355
글라스	-356
▁베이직	-357
점퍼	-358
▁10	-359
원피스	-360
34	-361
▁핑크	-362
랙스	-363
▁양	-364
로스백	-365
▁오가닉맘	-366
il	-367
▁세트	-368
▁보리	-369
36	-370
▁1300	-371
▁보리보리	-372
펌프	-373
▁면	-374
이크	-375
커즈	-376
▁해	-377
sb	-378
ed	-379
▁필	-380
▁케	-381
공용	-382
▁핫	-383
랜드	-384
ad	-385
▁00	-386
커버	-387
레이닝	-388
om	-389
▁z	-390
ack	-391
니커즈	-392
▁셔츠	-393
▁레드	-394
이즈	-395
커트	-396
76	-397
70	-398
▁부	-399
▁프리	-400
이블	-401
▁심	-402
웨어	-403
▁닥스	-404
맨투	-405
맨투맨	-406
▁배색	-407
▁패션플러스	-408
▁특	-409
▁호	-410
▁그레이	-411
54	-412
▁추	-413
co	-414
▁남자	-415
▁발	-416
▁자켓	-417
숄더	-418
38	-419
▁방	-420
29	-421
▁캐주얼	-422
▁샤	-423
노트	-424
pt	-425
▁플라	-426
▁구	-427
▁동	-428
▁cl	-429
60	-430
re	-431
ab	-432
▁라운드	-433
정품	-434
▁백팩	-435
▁엠	-436
55	-437
전자	-438
is	-439
자인	-440
버스	-441
브라	-442
반지	-443
▁50	-444
렌치	-445
acc	-446
▁머	-447
넥타이	-448
리드	-449
▁꾸	-450
os	-451
▁sp	-452
▁하이	-453
골드	-454
펌프스	-455
▁lg	-456
64	-457
▁심플	-458
▁제이	-459
▁워	-460
▁긴팔	-461
▁포인트	-462
▁빈폴	-463
▁강	-464
코트	-465
es	-466
▁대구	-467
▁르	-468
80	-469
▁트레이닝	-470
▁에어	-471
▁진	-472
id	-473
로우	-474
jj	-475
ch	-476
이어리	-477
▁핫트	-478
▁핫트랙스	-479
▁명	-480
아이	-481
▁플라워	-482
39	-483
▁실버	-484
78	-485
kg	-486
▁빅	-487
▁서	-488
▁큐	-489
32	-490
65	-491
▁단	-492
40	-493
▁ne	-494
▁차	-495
▁br	-496
운동	-497
▁골드	-498
▁pl	-499
31	-500
▁스마	-501
▁요	-502
br	-503
▁액	-504
▁30	-505
▁영	-506
▁크로스백	-507
▁솔	-508
스터	-509
▁컬러	-510
45	-511
가구	-512
이아	-513
▁카드	-514
▁울	-515
▁추가	-516
▁다이어리	-517
79	-518
▁스니커즈	-519
▁중	-520
▁꾸밈	-521
탠디	-522
▁상	-523
▁스포츠	-524
▁데님	-525
▁02	-526
ba	-527
필름	-528
▁펌프스	-529
소매	-530
▁후드	-531
슈즈	-532
ap	-533
스티커	-534
보호	-535
▁맨투맨	-536
▁1200	-537
▁숄더	-538
▁탠디	-539
▁젤	-540
▁sm	-541
니스	-542
▁핸드	-543
▁갤럭시노트	-544
자켓	-545
바이	-546
리즈	-547
ou	-548
▁탑	-549
▁프로	-550
▁sh	-551
하우스	-552
ee	-553
팔찌	-554
▁밀	-555
▁게	-556
▁볼	-557
▁내	-558
래식	-559
일리	-560
▁초	-561
스크	-562
▁후추	-563
200	-564
테리어	-565
▁프린	-566
멀티	-567
▁엔	-568
▁후추통	-569
립온	-570
▁ac	-571
혼방	-572
▁천	-573
ag	-574
▁특가	-575
▁야	-576
▁기모	-577
▁빌	-578
▁레이	-579
놀이	-580
▁ch	-581
▁정장	-582
▁레이스	-583
▁그린	-584
▁푸	-585
제이	-586
▁스카	-587
배색	-588
▁ml	-589
▁쇼	-590
▁대구백화점	-591
골프	-592
▁패턴	-593
27	-594
33	-595
▁프리미	-596
▁거	-597
디건	-598
▁휴	-599
81	-600
가드	-601
▁텐	-602
84	-603
cs	-604
▁위	-605
▁남여	-606
001	-607
ms	-608
렉스	-609
▁벽	-610
영복	-611
부츠	-612
▁20	-613
▁헬	-614
▁블라우스	-615
▁자동	-616
▁바이	-617
▁여자	-618
쥬얼	-619
95	-620
▁25	-621
의자	-622
▁아동	-623
▁예	-624
▁인테리어	-625
▁캐시	-626
스킨	-627
▁국	-628
런닝	-629
ow	-630
▁500	-631
프트	-632
니어	-633
▁ss	-634
밴드	-635
▁유아	-636
▁라인	-637
깅스	-638
99	-639
▁be	-640
71	-641
도어	-642
▁에코	-643
ig	-644
85	-645
리브	-646
래픽	-647
너스	-648
집업	-649
렌즈	-650
▁유니	-651
▁디자인	-652
▁24	-653
nc	-654
wa	-655
gb	-656
▁손	-657
▁비비	-658
im	-659
sh	-660
▁멀티	-661
61	-662
충전	-663
▁본	-664
ot	-665
▁순	-666
▁레노	-667
▁클래식	-668
장식	-669
ur	-670
▁빌리	-671
▁선글라스	-672
포인트	-673
ak	-674
렌지	-675
트로	-676
▁kb	-677
▁남여공용	-678
▁카라	-679
▁200	-680
nd	-681
olor	-682
▁운동	-683
침대	-684
▁듀	-685
레스	-686
매트	-687
▁더블	-688
▁숄더백	-689
63	-690
샌들	-691
▁니	-692
▁몰	-693
▁black	-694
옴므	-695
사이즈	-696
▁플랫	-697
▁명품	-698
mp	-699
▁전기	-700
로즈	-701
▁벨	-702
▁토트	-703
ing	-704
포트	-705
sk	-706
체크	-707
101	-708
fw	-709
82	-710
▁허	-711
▁레노마	-712
▁당	-713
▁빌리버스	-714
▁스커트	-715
72	-716
▁스타일	-717
▁저	-718
▁프리미엄	-719
sp	-720
▁cas	-721
범퍼	-722
▁직	-723
▁sl	-724
▁브라운	-725
레이디	-726
90	-727
▁03	-728
▁11	-729
▁쿨	-730
▁경	-731
▁글	-732
▁로퍼	-733
시티	-734
▁bk	-735
▁점퍼	-736
▁여성반지	-737
▁문	-738
이프	-739
▁솔리드	-740
ip	-741
▁그래픽	-742
44	-743
iv	-744
▁코트	-745
모리	-746
▁건	-747
83	-748
▁ab	-749
▁웨	-750
ec	-751
밴딩	-752
▁앤	-753
▁반지	-754
▁wh	-755
▁온	-756
ay	-757
▁기본	-758
▁풀	-759
az	-760
모자	-761
▁슈퍼	-762
내의	-763
▁앵	-764
▁여아	-765
▁치	-766
▁am	-767
▁팔찌	-768
62	-769
▁원목	-770
아트	-771
▁트리	-772
▁600	-773
▁데일리	-774
▁스웨	-775
ir	-776
ft	-777
▁리본	-778
▁at	-779
토리	-780
▁사각	-781
▁당일	-782
▁여성용	-783
500	-784
▁지오	-785
▁에스	-786
▁모던	-787
소기	-788
스타일	-789
퍼즐	-790
▁usb	-791
▁고급	-792
데이	-793
전거	-794
웃도어	-795
카라	-796
▁라이트	-797
▁스마트	-798
▁생	-799
98	-800
color	-801
▁by	-802
싱글	-803
토너	-804
▁넥타이	-805
의류	-806
상품	-807
▁헤어	-808
▁언	-809
300	-810
▁팬	-811
▁비너스	-812
174	-813
▁민	-814
▁sc	-815
▁할인	-816
wh	-817
68	-818
▁1000	-819
스튜	-820
▁펜	-821
구두	-822
sm	-823
▁물	-824
▁슬립온	-825
▁벨트	-826
▁커플	-827
▁주방	-828
77	-829
ue	-830
▁등	-831
레나	-832
▁메탈	-833
51	-834
▁천연	-835
▁매트	-836
▁소가죽	-837
▁에이	-838
▁린	-839
▁cm	-840
pa	-841
▁산	-842
▁tr	-843
▁충전	-844
▁포켓	-845
94	-846
oc	-847
인용	-848
▁멜	-849
010	-850
▁까	-851
▁칼	-852
프로	-853
▁질	-854
남점	-855
패턴	-856
어트	-857
▁금	-858
▁남성용	-859
▁캐시백	-860
이퍼	-861
▁캠	-862
란스	-863
▁스피	-864
▁일반	-865
um	-866
투스	-867
▁맥	-868
바이텐	-869
▁텐바이텐	-870
▁베이지	-871
▁자전거	-872
io	-873
필터	-874
▁터	-875
리퍼	-876
sw	-877
보호필름	-878
▁골프	-879
▁크림	-880
▁노트	-881
▁여성화	-882
포함	-883
용도	-884
▁ad	-885
▁40	-886
ul	-887
겨울	-888
인치	-889
un	-890
▁선물	-891
▁mc	-892
스튜어트	-893
▁시계	-894
96	-895
▁60	-896
▁컴	-897
▁로고	-898
여아	-899
▁검	-900
▁300	-901
▁크리스	-902
ds	-903
ge	-904
▁축	-905
프리	-906
▁32	-907
▁hd	-908
▁so	-909
발송	-910
울렛	-911
▁광	-912
센스	-913
▁책	-914
티지	-915
▁sk	-916
▁캘	-917
▁모니	-918
▁통	-919
▁스텐	-920
러브	-921
스커트	-922
▁case	-923
▁젤리	-924
▁cr	-925
▁루즈	-926
▁150	-927
▁new	-928
▁와이드	-929
▁남녀	-930
▁슈즈	-931
110	-932
▁파워	-933
아울렛	-934
▁홈	-935
스포	-936
공구	-937
▁루이	-938
증정	-939
▁오버	-940
▁임	-941
002	-942
▁아레나	-943
52	-944
▁ar	-945
▁스카프	-946
37	-947
▁헤드	-948
▁스탠	-949
▁액정	-950
pl	-951
▁꽃	-952
풍기	-953
hd	-954
av	-955
▁스판	-956
▁힐	-957
카드	-958
레이스	-959
▁스킨	-960
58	-961
▁엑	-962
bs	-963
트리	-964
▁타이	-965
데코	-966
▁러브	-967
ah	-968
욕실	-969
ia	-970
▁수영복	-971
블랙	-972
▁as	-973
발란스	-974
우드	-975
남아	-976
지아	-977
▁프린트	-978
ps	-979
42	-980
▁씨	-981
▁감	-982
▁팬티	-983
▁2017	-984
라이트	-985
▁바디	-986
패드	-987
▁비비안	-988
▁토트백	-989
▁휴대	-990
▁al	-991
▁패딩	-992
▁쉬	-993
dp	-994
▁다용도	-995
66	-996
▁소프트	-997
▁에잇	-998
케이트	-999
▁운동화	-1000
▁nc	-1001
백팩	-1002
▁접	-1003
▁다이	-1004
블라우스	-1005
로퍼	-1006
▁분	-1007
▁슬림핏	-1008
▁누	-1009
▁하드	-1010
▁식	-1011
세컨	-1012
▁오리	-1013
gr	-1014
블루	-1015
▁콜	-1016
▁컨	-1017
▁led	-1018
▁ms	-1019
▁bb	-1020
보이	-1021
이지	-1022
ct	-1023
▁연	-1024
▁만	-1025
▁ma	-1026
▁게스	-1027
nv	-1028
cd	-1029
▁탁	-1030
▁th	-1031
▁태	-1032
▁캐논	-1033
▁fl	-1034
▁업	-1035
▁런닝	-1036
세컨즈	-1037
비아	-1038
▁에잇세컨즈	-1039
jk	-1040
▁com	-1041
▁플레이	-1042
▁브이	-1043
102	-1044
▁축구	-1045
클라인	-1046
완구	-1047
▁가방	-1048
▁큐빅	-1049
또즈	-1050
▁검정	-1051
mt	-1052
▁af	-1053
▁400	-1054
시아	-1055
스포츠	-1056
▁pro	-1057
난감	-1058
be	-1059
보드	-1060
▁04	-1061
까또즈	-1062
버튼	-1063
▁월	-1064
▁루이까또즈	-1065
나무	-1066
▁욕실	-1067
69	-1068
▁질스튜어트	-1069
남성	-1070
▁트라이	-1071
우치	-1072
▁가디건	-1073
▁푸마	-1074
▁28	-1075
▁쁘	-1076
이스트	-1077
▁쥬	-1078
▁범퍼	-1079
▁엘르	-1080
▁빠	-1081
ff	-1082
600	-1083
ver	-1084
and	-1085
소음	-1086
▁지오지아	-1087
▁래	-1088
▁공구	-1089
53	-1090
▁밴딩	-1091
▁gb	-1092
▁소매	-1093
▁pk	-1094
▁sw	-1095
▁키즈	-1096
▁지퍼	-1097
▁어린	-1098
jp	-1099
크림	-1100
▁2016	-1101
비스	-1102
▁엘케이트	-1103
▁자수	-1104
시트	-1105
▁행	-1106
osa	-1107
▁남녀공용	-1108
▁su	-1109
▁북	-1110
▁pnc	-1111
키니	-1112
▁봄	-1113
다운	-1114
48	-1115
▁압	-1116
신세계	-1117
▁키친	-1118
▁dc	-1119
▁택	-1120
ga	-1121
▁빅사이즈	-1122
그레이	-1123
루스	-1124
▁ck	-1125
▁아기	-1126
▁브리	-1127
▁bo	-1128
one	-1129
▁di	-1130
▁미소	-1131
41	-1132
▁도트	-1133
▁스테	-1134
▁프릴	-1135
포켓	-1136
▁진주	-1137
▁앵클	-1138
오버	-1139
아지	-1140
▁핸들	-1141
▁겨울	-1142
▁베스트	-1143
프린	-1144
▁장식	-1145
▁학	-1146
레인	-1147
mc	-1148
▁갤러리아백화점	-1149
밍크	-1150
▁공식	-1151
ut	-1152
▁남아	-1153
▁gr	-1154
700	-1155
▁삼성전자	-1156
엣지	-1157
▁요가	-1158
201	-1159
adi	-1160
dt	-1161
▁19	-1162
타입	-1163
▁안경	-1164
▁수납	-1165
▁스위	-1166
▁와인	-1167
렉트	-1168
베이비	-1169
59	-1170
▁삼각	-1171
▁샌들	-1172
▁아웃도어	-1173
프레	-1174
▁몰리즈	-1175
▁집업	-1176
▁코튼	-1177
▁hp	-1178
sl	-1179
▁뉴발란스	-1180
인형	-1181
▁자동차	-1182
사각	-1183
퀘어	-1184
지털	-1185
▁히	-1186
49	-1187
액자	-1188
몬드	-1189
▁레깅스	-1190
▁07	-1191
▁블루투스	-1192
▁nb	-1193
▁원형	-1194
플라워	-1195
▁냉	-1196
▁등산	-1197
▁취	-1198
▁el	-1199
▁sd	-1200
피아	-1201
▁캠핑	-1202
▁벽시계	-1203
▁반지갑	-1204
▁로즈	-1205
▁국내	-1206
▁ja	-1207
ell	-1208
▁옐	-1209
▁대형	-1210
400	-1211
old	-1212
▁프라	-1213
ite	-1214
터리	-1215
페이스	-1216
▁80	-1217
wp	-1218
▁ii	-1219
테일	-1220
▁드라이	-1221
니아	-1222
ent	-1223
▁쿠키	-1224
▁250	-1225
▁미소페	-1226
▁다이아	-1227
▁싱글	-1228
▁캘빈	-1229
▁오렌지	-1230
▁재	-1231
▁안전	-1232
스판	-1233
800	-1234
ce	-1235
▁어린이	-1236
랍장	-1237
56	-1238
장갑	-1239
bt	-1240
▁캔	-1241
쇼핑	-1242
▁폴리	-1243
ne	-1244
잠옷	-1245
▁무선	-1246
▁차량	-1247
레이디스	-1248
뉴욕	-1249
아이몰	-1250
tr	-1251
▁롯데아이몰	-1252
▁당일발송	-1253
▁lf	-1254
▁800	-1255
▁투명	-1256
시스	-1257
▁퓨	-1258
▁액정보호필름	-1259
ub	-1260
▁퀸	-1261
벽시계	-1262
th	-1263
gd	-1264
닷컴	-1265
선물	-1266
더웨어	-1267
세사	-1268
▁메트로	-1269
▁공용	-1270
▁라이	-1271
▁쁘띠	-1272
▁스티	-1273
▁ap	-1274
150	-1275
88	-1276
드릴	-1277
▁밍크	-1278
▁다운	-1279
넥스	-1280
▁여름	-1281
▁강아지	-1282
ie	-1283
플러	-1284
▁편	-1285
▁캘빈클라인	-1286
▁모다	-1287
▁센	-1288
ik	-1289
▁베네	-1290
크로스백	-1291
bp	-1292
▁스파	-1293
dr	-1294
쥬얼리	-1295
gy	-1296
▁75	-1297
▁정품토너	-1298
▁윈	-1299
▁55	-1300
▁블루독	-1301
러치	-1302
ys	-1303
900	-1304
da	-1305
ws	-1306
▁sa	-1307
▁올리	-1308
▁빨	-1309
iz	-1310
▁soft	-1311
▁하트	-1312
▁폭	-1313
던트	-1314
수납	-1315
▁루즈핏	-1316
ny	-1317
wt	-1318
cp	-1319
011	-1320
67	-1321
▁바지	-1322
▁실리	-1323
▁이어	-1324
▁에코스킨	-1325
▁ls	-1326
▁아르	-1327
▁메트로시티	-1328
▁실내	-1329
▁001	-1330
▁베이비	-1331
▁립	-1332
텍스	-1333
▁le	-1334
▁취미	-1335
▁120	-1336
▁마이크	-1337
▁신발	-1338
▁bc	-1339
▁절	-1340
020	-1341
ov	-1342
디자인	-1343
겸용	-1344
블리	-1345
▁다이어리케이스	-1346
▁참	-1347
▁문구	-1348
상하	-1349
▁장지갑	-1350
▁스웨이드	-1351
▁캡	-1352
▁jj	-1353
ass	-1354
▁coms	-1355
레어	-1356
종세트	-1357
▁ladi	-1358
높이	-1359
af	-1360
811	-1361
▁빈티지	-1362
램프	-1363
▁디지털	-1364
덜트	-1365
▁옥	-1366
▁흑	-1367
▁랩	-1368
▁bs	-1369
쉬가드	-1370
te	-1371
▁다크	-1372
▁eco	-1373
43	-1374
ter	-1375
ool	-1376
▁이지	-1377
▁케이블	-1378
▁토너	-1379
네스	-1380
▁탑보이	-1381
89	-1382
▁젠	-1383
양이	-1384
▁에버	-1385
▁퍼플	-1386
103	-1387
▁for	-1388
▁오버핏	-1389
▁럭	-1390
46	-1391
▁방수	-1392
003	-1393
ks	-1394
▁디오	-1395
▁in	-1396
일랜드	-1397
▁휴대용	-1398
▁입	-1399
kt	-1400
터링	-1401
▁no	-1402
▁주니어	-1403
치노	-1404
▁ag	-1405
▁se	-1406
▁키덜트	-1407
여성	-1408
▁ladiosa	-1409
▁22	-1410
청소기	-1411
▁롤	-1412
▁그래픽스티커	-1413
▁pr	-1414
▁세라	-1415
173	-1416
색상	-1417
▁스피커	-1418
▁과	-1419
루션	-1420
▁새	-1421
▁최	-1422
mi	-1423
▁35	-1424
▁ph	-1425
▁pt	-1426
▁커피	-1427
▁acc	-1428
드라이	-1429
▁호루스	-1430
닉스	-1431
▁크로스	-1432
쉴드	-1433
▁애견	-1434
▁달	-1435
▁써	-1436
▁스탠드	-1437
▁오픈	-1438
메이드	-1439
메라	-1440
▁린넨	-1441
벤누	-1442
무늬	-1443
능성	-1444
세븐	-1445
▁호루스벤누	-1446
▁워싱	-1447
가디건	-1448
▁모노	-1449
▁빠른	-1450
유럽	-1451
자수	-1452
▁링	-1453
오프	-1454
네이	-1455
소용	-1456
ph	-1457
▁탁구	-1458
▁셀	-1459
바디	-1460
이너	-1461
수입	-1462
아동	-1463
▁휠	-1464
후드	-1465
링백	-1466
▁an	-1467
▁or	-1468
모리타	-1469
공방	-1470
▁칼라	-1471
▁아모리타	-1472
케이	-1473
에스	-1474
▁김	-1475
▁락	-1476
▁plus	-1477
장고	-1478
▁샤워	-1479
▁팬시	-1480
▁반팔티	-1481
스틱	-1482
▁클러치	-1483
슬림	-1484
리오	-1485
▁감성	-1486
▁보쉬	-1487
▁2018	-1488
ma	-1489
▁홀	-1490
▁cj	-1491
▁소다	-1492
목걸이	-1493
스텔	-1494
▁두	-1495
웨이	-1496
리케이스	-1497
라이드	-1498
▁드로즈	-1499
▁마이	-1500
▁여행	-1501
▁bf	-1502
▁별	-1503
▁잭	-1504
▁간	-1505
▁프레	-1506
▁순면	-1507
▁상하	-1508
▁꼬	-1509
▁북유럽	-1510
▁영공방	-1511
크릿	-1512
라운드	-1513
▁45	-1514
92	-1515
▁sn	-1516
▁mb	-1517
▁모자	-1518
▁nd	-1519
▁듀얼	-1520
플링	-1521
티브	-1522
수영복	-1523
▁옐로우	-1524
▁아이보리	-1525
▁잔	-1526
▁ed	-1527
▁작	-1528
▁스트랩	-1529
미스	-1530
화이트	-1531
▁gold	-1532
스트라이프	-1533
▁hs	-1534
▁하드케이스	-1535
신발	-1536
▁모다아울렛	-1537
004	-1538
▁해피	-1539
▁쿠션	-1540
91	-1541
▁tg	-1542
레깅스	-1543
▁옵	-1544
쿠아	-1545
▁네파	-1546
▁직소	-1547
▁앞	-1548
▁화장	-1549
▁줄	-1550
▁카렉스	-1551
▁클라	-1552
▁반바지	-1553
▁부츠	-1554
▁li	-1555
제화	-1556
▁레인	-1557
▁md	-1558
93	-1559
기모	-1560
est	-1561
▁독	-1562
맥스	-1563
믹스	-1564
▁hi	-1565
▁co	-1566
▁몽	-1567
선글라스	-1568
핸드	-1569
류가방	-1570
▁굽	-1571
▁set	-1572
▁고세	-1573
▁la	-1574
마스	-1575
▁알로	-1576
ha	-1577
에르	-1578
릭터	-1579
86	-1580
로렌	-1581
47	-1582
▁르젠	-1583
▁체인	-1584
▁장난감	-1585
방지	-1586
▁mt	-1587
97	-1588
▁리복	-1589
▁쿠키세븐	-1590
트라	-1591
012	-1592
▁pc	-1593
▁키친아트	-1594
▁플랫슈즈	-1595
드민	-1596
▁업소용	-1597
▁jh	-1598
em	-1599
ill	-1600
▁핸들커버	-1601
레치	-1602
바라	-1603
▁힐링	-1604
데님	-1605
▁숏	-1606
202	-1607
▁유리	-1608
▁러블리	-1609
▁cd	-1610
긴소	-1611
▁생활	-1612
▁앵클부츠	-1613
ink	-1614
▁거실	-1615
▁패플	-1616
▁고양이	-1617
▁라운드넥	-1618
▁26	-1619
▁콤	-1620
▁맨	-1621
▁쿠루	-1622
aw	-1623
브릭	-1624
▁레고	-1625
티드	-1626
선반	-1627
▁헬로	-1628
드민턴	-1629
ju	-1630
▁코코	-1631
▁cc	-1632
▁fil	-1633
▁sf	-1634
sc	-1635
105	-1636
주니어	-1637
▁메쉬	-1638
▁속	-1639
▁tw	-1640
▁소니	-1641
120	-1642
ix	-1643
▁실리콘	-1644
▁fr	-1645
hc	-1646
▁파우치	-1647
▁벤	-1648
▁백화점	-1649
▁보호	-1650
oy	-1651
업용	-1652
월드	-1653
브라운	-1654
▁dp	-1655
메리	-1656
라스틱	-1657
▁mlb	-1658
▁노트북	-1659
▁동서	-1660
판매	-1661
▁스프	-1662
▁데코	-1663
▁cn	-1664
▁옷	-1665
▁뽀	-1666
▁알파	-1667
▁베네통	-1668
87	-1669
로고	-1670
▁양말	-1671
바스	-1672
스니커즈	-1673
조각	-1674
ion	-1675
▁미러	-1676
uc	-1677
▁엠씨	-1678
▁프렌치	-1679
▁해외	-1680
▁무소음	-1681
▁카카	-1682
▁코인	-1683
301	-1684
▁blue	-1685
푸마	-1686
fl	-1687
큐리	-1688
181	-1689
▁101	-1690
렁크	-1691
ate	-1692
샴푸	-1693
▁캣	-1694
▁스톤	-1695
▁헬스	-1696
▁플러스	-1697
57	-1698
▁슬링백	-1699
▁스마트폰	-1700
테스	-1701
가능	-1702
▁에뜨	-1703
▁직소퍼즐	-1704
▁해리	-1705
▁스퀘어	-1706
다리	-1707
ine	-1708
▁비치	-1709
▁기능성	-1710
mb	-1711
▁캐리어	-1712
ng	-1713
▁akmall	-1714
ht	-1715
자기	-1716
art	-1717
▁투톤	-1718
▁450	-1719
175	-1720
▁re	-1721
▁cp	-1722
▁db	-1723
슬립온	-1724
전기	-1725
▁라푸마	-1726
하트	-1727
▁캐쥬얼	-1728
▁엘리	-1729
so	-1730
030	-1731
▁저지	-1732
용량	-1733
▁사이드	-1734
▁망	-1735
터치	-1736
천점	-1737
코루	-1738
ax	-1739
▁mo	-1740
▁음	-1741
지통	-1742
▁실크	-1743
ls	-1744
분당	-1745
조끼	-1746
▁경량	-1747
▁필터	-1748
mr	-1749
주복	-1750
분당점	-1751
104	-1752
▁디오사	-1753
▁gt	-1754
▁안경테	-1755
▁한국	-1756
치대	-1757
팩트	-1758
▁손목	-1759
▁70	-1760
코팅	-1761
▁머큐리	-1762
▁래쉬가드	-1763
▁gg	-1764
▁레터링	-1765
리터	-1766
▁아쿠아	-1767
▁오일	-1768
양말	-1769
▁ca	-1770
▁동서가구	-1771
언더웨어	-1772
▁85	-1773
▁구두	-1774
▁범퍼케이스	-1775
▁와코루	-1776
나염	-1777
리본	-1778
▁ex	-1779
▁white	-1780
▁우드	-1781
▁올리브	-1782
bg	-1783
스피	-1784
005	-1785
▁ts	-1786
▁모니즈	-1787
져지	-1788
스포드	-1789
▁플라스틱	-1790
▁힐링쉴드	-1791
펙스	-1792
▁랜	-1793
팩토리	-1794
▁변	-1795
은품	-1796
▁모리케이스	-1797
소바	-1798
코즈	-1799
▁스틸	-1800
se	-1801
▁넥	-1802
▁사무	-1803
kl	-1804
▁드레스	-1805
▁에뜨와	-1806
▁ct	-1807
▁회	-1808
브리	-1809
▁스키니	-1810
▁크리스탈	-1811
▁네이	-1812
▁스몰	-1813
▁카드지갑	-1814
▁목재	-1815
▁kl	-1816
▁런닝화	-1817
▁90	-1818
▁전동	-1819
▁압소바	-1820
▁신세계강	-1821
▁신세계강남점	-1822
▁신상	-1823
▁퓨어	-1824
▁마이크로	-1825
ud	-1826
원목	-1827
젝터	-1828
즈니	-1829
▁지갑	-1830
azz	-1831
냄비	-1832
▁렌즈	-1833
▁휠라	-1834
▁레볼	-1835
▁23	-1836
▁05	-1837
소가죽	-1838
▁트렌치	-1839
up	-1840
▁주얼	-1841
▁핸드폰	-1842
▁gre	-1843
hs	-1844
▁sb	-1845
▁감성쇼핑	-1846
건조	-1847
▁ba	-1848
▁코인코즈	-1849
클로	-1850
▁테이블	-1851
▁프로스	-1852
소몰	-1853
▁110	-1854
▁아이콘	-1855
▁un	-1856
미니	-1857
슬리	-1858
▁악	-1859
베이	-1860
▁일자	-1861
tp	-1862
▁브이넥	-1863
▁동물	-1864
스카	-1865
015	-1866
▁hj	-1867
▁오토	-1868
▁민소매	-1869
▁다이아몬드	-1870
▁lc	-1871
에스티	-1872
러운	-1873
코리아	-1874
og	-1875
▁가구	-1876
▁용	-1877
체인	-1878
▁양면	-1879
▁mar	-1880
▁dw	-1881
ca	-1882
111	-1883
▁ln	-1884
▁청소기	-1885
aks	-1886
▁dm	-1887
▁pa	-1888
▁야구	-1889
▁배드민턴	-1890
접시	-1891
설치	-1892
▁기타	-1893
먼트	-1894
오픈	-1895
▁리틀	-1896
▁커플링	-1897
▁베어	-1898
▁프로스펙스	-1899
가르	-1900
미어	-1901
tb	-1902
▁이동	-1903
▁헤지스골프	-1904
▁베카	-1905
006	-1906
▁미즈	-1907
▁캐릭터	-1908
▁크리	-1909
프린트	-1910
pcs	-1911
▁dl	-1912
▁매직	-1913
와이어	-1914
▁키높이	-1915
▁men	-1916
▁교	-1917
▁에고	-1918
▁and	-1919
▁복	-1920
디언	-1921
▁아가	-1922
▁크레	-1923
시트지	-1924
▁펀	-1925
엑스	-1926
노바	-1927
pm	-1928
▁키플링	-1929
등포	-1930
sr	-1931
▁hazz	-1932
▁뷰	-1933
브로	-1934
나멜	-1935
▁daks	-1936
▁은	-1937
▁컷	-1938
▁해리슨	-1939
들기	-1940
▁카페	-1941
스테	-1942
등포점	-1943
▁bag	-1944
▁밍크뮤	-1945
▁mr	-1946
위드	-1947
홀더	-1948
▁썬	-1949
원점	-1950
▁tv	-1951
이불	-1952
▁본사	-1953
▁ny	-1954
▁hazzys	-1955
▁65	-1956
유리	-1957
레이트	-1958
프릴	-1959
▁보드	-1960
▁레볼루션	-1961
▁농	-1962
na	-1963
▁ds	-1964
▁톰	-1965
013	-1966
극세사	-1967
▁lh	-1968
▁엘레	-1969
▁df	-1970
탱크	-1971
▁면혼방	-1972
▁미즈노	-1973
우산	-1974
▁06	-1975
▁허리	-1976
그린	-1977
164	-1978
▁주얼리	-1979
개월	-1980
▁외	-1981
로시	-1982
by	-1983
▁민트	-1984
립스	-1985
▁펜던트	-1986
도우	-1987
▁amj	-1988
란지	-1989
▁케이	-1990
▁스트레치	-1991
정리	-1992
203	-1993
쿠션	-1994
set	-1995
▁컬	-1996
▁피에르	-1997
▁보조	-1998
▁계	-1999
▁봉	-2000
▁바람	-2001
▁lw	-2002
▁tb	-2003
▁돌	-2004
▁평	-2005
▁매트리스	-2006
▁트레	-2007
▁성	-2008
스토	-2009
▁36	-2010
idas	-2011
▁골지	-2012
▁머플러	-2013
▁차량용	-2014
폴라	-2015
▁adidas	-2016
핸들	-2017
sa	-2018
▁aj	-2019
블럭	-2020
▁mp	-2021
▁클렌	-2022
▁베카치노	-2023
▁tp	-2024
▁cf	-2025
일드	-2026
▁레이어	-2027
▁카메라	-2028
xt	-2029
▁워터	-2030
소나	-2031
bo	-2032
▁스마토	-2033
▁시스	-2034
▁우먼	-2035
▁불	-2036
패딩	-2037
러쉬	-2038
이식	-2039
▁빠른배송	-2040
막이	-2041
▁pp	-2042
정장	-2043
025	-2044
fe	-2045
이브	-2046
▁38	-2047
021	-2048
▁인형	-2049
▁광주	-2050
▁콘	-2051
고리	-2052
▁쉬즈	-2053
171	-2054
▁긴소매	-2055
수원점	-2056
▁폰	-2057
▁다이소몰	-2058
fm	-2059
식스	-2060
▁국산	-2061
가르뎅	-2062
이나	-2063
▁강화	-2064
▁현관	-2065
조절	-2066
▁피에르가르뎅	-2067
▁벽걸이	-2068
▁미디	-2069
▁반팔티셔츠	-2070
▁상의	-2071
▁디즈니	-2072
▁타임	-2073
▁아웃도어스	-2074
▁카키	-2075
bb	-2076
ho	-2077
밑단	-2078
셀렉트	-2079
▁인조	-2080
▁대구신세계	-2081
▁리얼	-2082
마트	-2083
▁21	-2084
▁에스콰	-2085
▁나무	-2086
▁침대	-2087
▁귀	-2088
▁네오	-2089
케어	-2090
▁ym	-2091
▁cw	-2092
▁신일	-2093
테이블	-2094
rm	-2095
치마	-2096
▁밴드	-2097
gx	-2098
bu	-2099
커튼	-2100
▁홍	-2101
ard	-2102
▁ps	-2103
▁min	-2104
tg	-2105
▁byc	-2106
첨이	-2107
014	-2108
▁이어폰	-2109
▁옥스포드	-2110
가위	-2111
▁아트셀렉트	-2112
170	-2113
기점	-2114
▁예스	-2115
▁bp	-2116
▁dg	-2117
▁mi	-2118
▁스냅	-2119
▁콜핑	-2120
▁요가복	-2121
▁소형	-2122
▁학생	-2123
에이	-2124
엄프	-2125
▁올리비아	-2126
베리	-2127
▁nw	-2128
▁에스콰이아	-2129
ood	-2130
로마	-2131
▁종	-2132
▁ep	-2133
▁집	-2134
▁bz	-2135
aza	-2136
▁900	-2137
▁러브캣	-2138
▁트라이엄프	-2139
▁34	-2140
▁사은품	-2141
시오	-2142
시리즈	-2143
ep	-2144
▁ah	-2145
지널	-2146
106	-2147
▁아이콘팜	-2148
▁bg	-2149
▁plaza	-2150
▁판	-2151
베어	-2152
▁27	-2153
▁dr	-2154
▁광주신세계	-2155
▁애플	-2156
▁얼	-2157
버리	-2158
▁010	-2159
▁버튼	-2160
▁pgd	-2161
▁33	-2162
▁72	-2163
▁플레어	-2164
▁메이	-2165
▁릴	-2166
모형	-2167
▁인디	-2168
▁슬랙스	-2169
▁fila	-2170
▁골든	-2171
▁베네통키즈	-2172
ti	-2173
▁대용량	-2174
셔링	-2175
▁절개	-2176
▁모니터	-2177
파리	-2178
▁da	-2179
007	-2180
▁리바	-2181
▁패브릭	-2182
▁펫	-2183
172	-2184
▁트윈	-2185
정기	-2186
▁sr	-2187
▁스페	-2188
▁색상	-2189
▁웰	-2190
▁에고이스트	-2191
▁핀	-2192
▁gl	-2193
182	-2194
신상	-2195
▁의자	-2196
▁hz	-2197
▁파파	-2198
앤폴	-2199
▁크로	-2200
016	-2201
가라	-2202
로로	-2203
팍스	-2204
▁까사	-2205
▁쉐	-2206
단기	-2207
▁아이스	-2208
▁폼	-2209
▁ns	-2210
추럴	-2211
▁헨	-2212
▁슬리퍼	-2213
도트	-2214
플라이	-2215
▁tm	-2216
▁폴라	-2217
▁접이식	-2218
dw	-2219
안경	-2220
로라	-2221
▁닥터	-2222
▁지프	-2223
해점	-2224
▁프라다	-2225
▁중형	-2226
to	-2227
▁08	-2228
▁미키	-2229
리빙	-2230
▁nv	-2231
매입	-2232
키티	-2233
▁탄	-2234
게임	-2235
뮤즈	-2236
의정	-2237
▁bm	-2238
▁ws	-2239
에프	-2240
크리스	-2241
▁로엠	-2242
▁레이어드	-2243
코너	-2244
▁ka	-2245
▁레더	-2246
에스티나	-2247
드림	-2248
▁제이에스티나	-2249
▁캐시미어	-2250
정용	-2251
스톤	-2252
▁pw	-2253
cl	-2254
리츠	-2255
▁청바지	-2256
kp	-2257
좋은	-2258
노우	-2259
에어	-2260
트임	-2261
▁에센스	-2262
▁rc	-2263
▁top	-2264
클리	-2265
칫솔	-2266
▁쉬폰	-2267
▁kn	-2268
▁비즈	-2269
▁킨	-2270
머스	-2271
121	-2272
▁엠보	-2273
아웃도어	-2274
▁팔	-2275
퀼팅	-2276
스피커	-2277
▁노와이어	-2278
책장	-2279
▁개	-2280
플로	-2281
▁uv	-2282
▁페이	-2283
▁테니스	-2284
▁스코	-2285
ower	-2286
▁울트라	-2287
▁펄	-2288
wn	-2289
▁42	-2290
수트	-2291
서랍장	-2292
반팔	-2293
아일랜드	-2294
▁버클	-2295
▁서랍장	-2296
017	-2297
구니	-2298
▁스크	-2299
▁밑단	-2300
토이즈	-2301
022	-2302
920	-2303
▁레이디	-2304
ta	-2305
▁호야	-2306
▁clt	-2307
▁바바라	-2308
250	-2309
▁살	-2310
▁쓰	-2311
ang	-2312
냉장고	-2313
▁lp	-2314
▁르샵	-2315
cb	-2316
와이	-2317
테크	-2318
▁세미	-2319
▁아가타	-2320
▁구스	-2321
▁유선	-2322
▁블랙스	-2323
이너웨어	-2324
의정부	-2325
오리	-2326
▁to	-2327
베스트	-2328
▁105	-2329
▁폴앤폴	-2330
니클	-2331
130	-2332
핸드백	-2333
잡이	-2334
▁발렌	-2335
▁쿠쿠	-2336
▁플립	-2337
의정부점	-2338
레드	-2339
▁iv	-2340
▁red	-2341
▁허브	-2342
▁트렁크	-2343
▁디팍스	-2344
▁케네스	-2345
▁클리어	-2346
푸드	-2347
▁et	-2348
▁서류가방	-2349
▁젤리케이스	-2350
용기	-2351
▁의류	-2352
140	-2353
per	-2354
▁볼캡	-2355
009	-2356
▁밤	-2357
배터리	-2358
▁거실장	-2359
드라이버	-2360
케이블	-2361
트레이닝	-2362
lg	-2363
▁메리	-2364
스트로	-2365
▁익	-2366
셔리	-2367
주얼리	-2368
▁윌	-2369
외선	-2370
프라	-2371
베아	-2372
▁무지	-2373
▁잉	-2374
▁펠	-2375
▁gs	-2376
▁스티치	-2377
▁철	-2378
단계	-2379
친구	-2380
018	-2381
▁바람막이	-2382
리나	-2383
302	-2384
▁샴푸	-2385
▁안전화	-2386
▁가죽케이스	-2387
▁공기	-2388
▁000	-2389
아미	-2390
▁극세사	-2391
▁1500	-2392
책상	-2393
▁이중	-2394
▁현관문	-2395
▁앳	-2396
▁52	-2397
▁에디	-2398
하이	-2399
▁미쏘	-2400
wc	-2401
008	-2402
▁열	-2403
▁48	-2404
▁바보디자인	-2405
자마	-2406
040	-2407
ock	-2408
▁ho	-2409
▁뽀로로	-2410
잡화	-2411
▁휘	-2412
꾸보	-2413
삼각	-2414
741	-2415
▁파스텔	-2416
ja	-2417
▁디꾸보	-2418
▁mg	-2419
▁햄	-2420
스키	-2421
▁프렌치캣	-2422
▁사선	-2423
▁수입	-2424
▁시트	-2425
ex	-2426
▁커버	-2427
▁콤비	-2428
▁항	-2429
▁힙	-2430
▁풋	-2431
ort	-2432
▁go	-2433
▁130	-2434
▁런	-2435
렉션	-2436
에로	-2437
▁미들	-2438
▁jb	-2439
올리브	-2440
▁빈폴레이디스	-2441
▁필라	-2442
블랑	-2443
ids	-2444
▁na	-2445
ns	-2446
▁폭스	-2447
210	-2448
일러	-2449
▁전용	-2450
▁투버튼	-2451
hb	-2452
▁gc	-2453
▁cs	-2454
▁ti	-2455
▁블루종	-2456
▁볼륨	-2457
601	-2458
프레임	-2459
eep	-2460
▁dk	-2461
▁믹스	-2462
▁보닌	-2463
▁전자	-2464
▁천연소가죽	-2465
▁보온	-2466
리아나	-2467
▁마스크	-2468
▁95	-2469
▁페라	-2470
▁삼성정품	-2471
▁빈폴아웃도어	-2472
숙녀	-2473
전용	-2474
nm	-2475
▁웨지	-2476
▁커스	-2477
센셜	-2478
▁mlt	-2479
qu	-2480
▁퍼플로우	-2481
헨지	-2482
라켓	-2483
토이	-2484
115	-2485
▁소파	-2486
▁스톤헨지	-2487
▁td	-2488
데이션	-2489
스크린	-2490
수기	-2491
▁로얄	-2492
▁패드	-2493
마니	-2494
▁단화	-2495
▁sil	-2496
fs	-2497
싸개	-2498
205	-2499
▁64	-2500
▁일본	-2501
소나이트	-2502
크로	-2503
▁리스트	-2504
▁유니크	-2505
커피	-2506
019	-2507
▁눈	-2508
▁월렛	-2509
▁헬로키티	-2510
160	-2511
204	-2512
▁보브	-2513
▁핏	-2514
▁ge	-2515
▁103	-2516
▁멜란지	-2517
rs	-2518
▁bj	-2519
pk	-2520
▁클러치백	-2521
ve	-2522
▁ro	-2523
개입	-2524
▁예쁜	-2525
▁크루	-2526
킹화	-2527
▁머그	-2528
▁에나멜	-2529
우주복	-2530
▁럭셔리	-2531
▁박스	-2532
▁180	-2533
▁퍼즐	-2534
꽂이	-2535
▁쿨러	-2536
125	-2537
▁명함	-2538
▁왕	-2539
리버	-2540
dx	-2541
스토리	-2542
▁브리츠	-2543
▁nt	-2544
▁on	-2545
▁테마	-2546
▁산업용	-2547
히터	-2548
▁de	-2549
▁아카	-2550
앤온	-2551
블릭	-2552
키지	-2553
▁가을	-2554
▁hdmi	-2555
▁리바이스	-2556
록스	-2557
▁리필	-2558
▁도어	-2559
와이퍼	-2560
▁샌	-2561
경량	-2562
▁조이	-2563
나이	-2564
프링	-2565
▁펀칭	-2566
wo	-2567
주전자	-2568
▁스카이	-2569
117	-2570
▁온앤온	-2571
▁캔버스	-2572
ib	-2573
▁bu	-2574
식기	-2575
▁풀오버	-2576
▁쌤	-2577
로이	-2578
보호대	-2579
▁컵	-2580
이션	-2581
▁mk	-2582
me	-2583
배기	-2584
버터	-2585
▁액자	-2586
▁자주	-2587
▁딥	-2588
미아	-2589
116	-2590
▁js	-2591
▁책상	-2592
가모	-2593
▁29	-2594
▁ce	-2595
▁테마케이스	-2596
▁아이러브	-2597
303	-2598
▁rm	-2599
▁tc	-2600
▁어반	-2601
▁nav	-2602
▁카카오프	-2603
제품	-2604
운동화	-2605
▁러닝	-2606
▁엣지	-2607
▁통굽	-2608
▁cv	-2609
▁완구	-2610
▁트루	-2611
▁쌤소나이트	-2612
710	-2613
▁po	-2614
▁컴포트	-2615
▁요넥스	-2616
▁2000	-2617
023	-2618
501	-2619
▁mic	-2620
▁mas	-2621
▁카카오프렌즈	-2622
숄더백	-2623
▁cor	-2624
▁레스포	-2625
▁앳코너	-2626
▁가스	-2627
md	-2628
강스	-2629
▁en	-2630
▁작업	-2631
▁튜	-2632
▁ev	-2633
인증	-2634
▁스위트	-2635
▁제이로렌	-2636
▁착	-2637
gh	-2638
▁헌	-2639
헤드	-2640
▁프린팅	-2641
▁데님팬츠	-2642
eco	-2643
▁주름	-2644
aa	-2645
워크	-2646
▁언더	-2647
▁큰	-2648
154	-2649
▁700	-2650
▁레스포색	-2651
포장	-2652
▁긴팔셔츠	-2653
▁박	-2654
024	-2655
cc	-2656
▁fs	-2657
▁옵티	-2658
▁몰드	-2659
▁lap	-2660
▁시에로	-2661
▁강화유리	-2662
▁케네스레이디	-2663
▁목욕	-2664
180	-2665
▁가디언	-2666
즈나	-2667
▁바이빔	-2668
▁패플키즈	-2669
if	-2670
▁rt	-2671
▁kh	-2672
▁식탁	-2673
▁패치	-2674
▁쉬즈미스	-2675
▁암	-2676
▁아이더	-2677
▁카시오	-2678
▁루미	-2679
060	-2680
▁나염	-2681
▁스틱	-2682
▁레이저	-2683
포맨	-2684
▁브로	-2685
▁mon	-2686
▁모직	-2687
▁cool	-2688
▁엠씨옴므	-2689
310	-2690
▁인기	-2691
조이	-2692
▁잠옷	-2693
▁남성화	-2694
도라	-2695
소재	-2696
제인	-2697
▁hea	-2698
dn	-2699
▁88	-2700
▁하의	-2701
앙스	-2702
▁에이스	-2703
▁페라가모	-2704
pp	-2705
버드	-2706
▁테크	-2707
▁침	-2708
릿지	-2709
▁350	-2710
▁클렌징	-2711
▁게스키즈	-2712
▁가정용	-2713
▁에이미	-2714
장난감	-2715
습기	-2716
▁플로	-2717
체형	-2718
▁je	-2719
▁pink	-2720
nt	-2721
▁네이처	-2722
▁서랍	-2723
▁와이어	-2724
나라	-2725
쥬디	-2726
하드	-2727
026	-2728
센텀	-2729
로디	-2730
스텐	-2731
▁hr	-2732
031	-2733
▁디월	-2734
센텀점	-2735
▁마우스	-2736
▁스냅백	-2737
지퍼	-2738
▁우븐	-2739
젝트	-2740
▁에이비	-2741
▁신세계센텀점	-2742
파이	-2743
▁쇼트	-2744
플렉스	-2745
▁the	-2746
▁메종	-2747
▁navy	-2748
▁싸	-2749
ero	-2750
112	-2751
176	-2752
506	-2753
▁blk	-2754
▁오리지널	-2755
▁쟈	-2756
▁58	-2757
▁과일	-2758
▁무냐	-2759
▁인조가죽	-2760
701	-2761
▁에센셜	-2762
▁jaju	-2763
wb	-2764
▁향	-2765
504	-2766
▁플라스틱아일랜드	-2767
네오	-2768
인드	-2769
임스	-2770
츄럴	-2771
▁입체	-2772
▁ec	-2773
▁브루	-2774
▁디월트	-2775
구공	-2776
▁blu	-2777
ka	-2778
앤질	-2779
▁임부	-2780
다이아	-2781
소품	-2782
▁iw	-2783
데올리브	-2784
▁모혼방	-2785
▁aa	-2786
▁it	-2787
▁옆	-2788
▁헨리	-2789
rd	-2790
▁ga	-2791
▁ks	-2792
▁언발	-2793
긴팔	-2794
▁스노우	-2795
받이	-2796
▁eh	-2797
▁np	-2798
▁바스	-2799
▁공식수입	-2800
230	-2801
▁선반	-2802
▁블루독베이비	-2803
리에	-2804
▁잭앤질	-2805
▁엘레강스	-2806
▁09	-2807
▁겸용	-2808
▁캐주얼화	-2809
ke	-2810
안시	-2811
▁선물세트	-2812
▁곰	-2813
▁104	-2814
go	-2815
ry	-2816
센트	-2817
트니스	-2818
▁str	-2819
▁총	-2820
밀리	-2821
▁신상품	-2822
▁각	-2823
▁터틀	-2824
인천점	-2825
휴지통	-2826
산점	-2827
▁dh	-2828
마우스	-2829
▁jack	-2830
▁올리브데올리브	-2831
033	-2832
151	-2833
ree	-2834
▁ih	-2835
▁신세계인천점	-2836
fc	-2837
가지	-2838
107	-2839
▁스웨터	-2840
▁class	-2841
있는	-2842
▁버블	-2843
비티	-2844
스트랩	-2845
패치	-2846
▁아메리	-2847
▁헤지스레이디스	-2848
시크릿	-2849
▁코베아	-2850
▁헤지스남성	-2851
▁탈	-2852
▁mis	-2853
▁점	-2854
▁es	-2855
▁핸드메이드	-2856
▁bh	-2857
▁클럽	-2858
특가	-2859
kr	-2860
▁커튼	-2861
엉이	-2862
▁rs	-2863
▁모음	-2864
▁카파	-2865
▁제임스	-2866
▁좌	-2867
int	-2868
▁내추럴	-2869
▁cy	-2870
▁터치	-2871
▁mx	-2872
▁만들기	-2873
lt	-2874
▁ip	-2875
전화	-2876
▁책장	-2877
▁stl	-2878
▁말	-2879
사지	-2880
▁내의	-2881
▁전문	-2882
네이도	-2883
▁한립	-2884
andy	-2885
ight	-2886
▁트렌치코트	-2887
▁포인트스티커	-2888
타임	-2889
파니	-2890
▁글라스	-2891
▁트레이닝복	-2892
gi	-2893
▁is	-2894
▁슬라이	-2895
구스	-2896
▁av	-2897
▁로만	-2898
▁비누	-2899
▁앵글	-2900
▁act	-2901
본사	-2902
타올	-2903
▁시크릿	-2904
108	-2905
▁230	-2906
▁84	-2907
▁cg	-2908
▁로션	-2909
▁마끼	-2910
▁바비	-2911
▁엑스	-2912
▁티아이	-2913
▁델	-2914
109	-2915
▁54	-2916
122	-2917
▁에버드림	-2918
▁74	-2919
▁ht	-2920
▁퀼팅	-2921
▁흑색	-2922
▁플리츠	-2923
163	-2924
▁모이스	-2925
▁진공	-2926
▁sou	-2927
▁듀얼케이스	-2928
산업	-2929
▁네일	-2930
▁디스	-2931
▁티아이포맨	-2932
펙트	-2933
▁강남점	-2934
▁로제이	-2935
ive	-2936
▁bt	-2937
▁위즈	-2938
▁로우	-2939
▁우아미	-2940
▁프로젝터	-2941
가든	-2942
트인	-2943
162	-2944
▁듀퐁	-2945
▁플래	-2946
▁108	-2947
세서	-2948
코디	-2949
▁트랙	-2950
드로즈	-2951
▁거치대	-2952
▁125	-2953
▁중지갑	-2954
망스	-2955
035	-2956
ace	-2957
▁후드티	-2958
▁필라테스	-2959
▁크리스마스	-2960
나인	-2961
mme	-2962
▁쿠기	-2963
닐라	-2964
▁240	-2965
▁시슬리	-2966
801	-2967
▁cat	-2968
출고	-2969
태리	-2970
blk	-2971
▁혼방	-2972
▁rd	-2973
워시	-2974
▁유기	-2975
리스푼	-2976
팬티세트	-2977
코아	-2978
▁에이치	-2979
라운	-2980
406	-2981
▁태슬	-2982
마스크	-2983
▁제노바	-2984
▁he	-2985
▁토네이도	-2986
▁에스티	-2987
▁자전거의류	-2988
▁앙	-2989
러리	-2990
119	-2991
▁스포	-2992
▁ra	-2993
▁나시	-2994
남아긴소	-2995
마켓	-2996
우더	-2997
mf	-2998
구로	-2999
남자	-3000
141	-3001
▁66	-3002
ker	-3003
113	-3004
▁장갑	-3005
▁1800	-3006
▁한일	-3007
▁39	-3008
▁ol	-3009
032	-3010
▁리빙	-3011
▁스와	-3012
제거	-3013
구로점	-3014
▁jill	-3015
▁국내산	-3016
▁mini	-3017
▁함	-3018
소닉	-3019
네이비	-3020
028	-3021
▁세컨	-3022
카페	-3023
305	-3024
▁쥬시	-3025
▁저소음	-3026
▁77	-3027
피아노	-3028
무냐	-3029
▁트임	-3030
▁마끼다	-3031
▁2015	-3032
자동	-3033
▁로만손	-3034
▁크로커	-3035
▁andz	-3036
▁sj	-3037
▁반고	-3038
▁엔틱	-3039
▁위드	-3040
mo	-3041
▁ow	-3042
라인더	-3043
기능	-3044
do	-3045
앤코	-3046
▁필립스	-3047
sd	-3048
▁뚜	-3049
바인	-3050
바구니	-3051
파우치	-3052
▁세인트	-3053
▁올레	-3054
▁스티커	-3055
▁slim	-3056
▁폭스타일	-3057
aba	-3058
믹서	-3059
▁cam	-3060
▁블럭	-3061
▁페리	-3062
401	-3063
ime	-3064
▁무냐무냐	-3065
베이직	-3066
vc	-3067
1000	-3068
부착	-3069
셔널	-3070
스웨	-3071
123	-3072
▁aq	-3073
▁정리	-3074
029	-3075
114	-3076
▁로맨	-3077
050	-3078
▁car	-3079
▁버터	-3080
캐주얼	-3081
슬립	-3082
▁715	-3083
▁cb	-3084
▁나비	-3085
세사리	-3086
ox	-3087
브릿지	-3088
와이드	-3089
185	-3090
마이크	-3091
무료	-3092
소스	-3093
▁후앙스	-3094
▁신세계몰	-3095
▁클라이드	-3096
루즈	-3097
▁pol	-3098
▁스테인	-3099
식탁	-3100
▁ssd	-3101
어스	-3102
eg	-3103
더스	-3104
▁spf	-3105
▁kv	-3106
▁비지	-3107
▁세련	-3108
세서리	-3109
슬리퍼	-3110
▁ros	-3111
▁커스텀	-3112
▁털	-3113
소파	-3114
161	-3115
901	-3116
▁eb	-3117
▁그라	-3118
▁베개	-3119
▁니콘	-3120
▁토니	-3121
▁스트레이트	-3122
fr	-3123
ian	-3124
▁단가라	-3125
매직	-3126
엡손	-3127
워싱	-3128
▁53	-3129
▁야마	-3130
모니	-3131
퍼니	-3132
▁세탁	-3133
▁잡화	-3134
▁라이프	-3135
▁앨	-3136
▁애니	-3137
▁83	-3138
페이스샵	-3139
▁더페이스샵	-3140
밥솥	-3141
아르	-3142
콰즈	-3143
▁보니	-3144
▁아메리칸	-3145
yp	-3146
▁티파니	-3147
sf	-3148
uv	-3149
난방	-3150
폭스	-3151
761	-3152
▁기획	-3153
▁수제	-3154
▁틴	-3155
▁풍	-3156
디스	-3157
로그	-3158
▁뉴욕	-3159
▁셔링	-3160
ck	-3161
▁43	-3162
브랜드	-3163
계절	-3164
리수	-3165
044	-3166
▁아이러브제이	-3167
▁완	-3168
▁pu	-3169
▁bas	-3170
▁3000	-3171
▁초경량	-3172
910	-3173
▁아름	-3174
렌지대	-3175
▁바닐라	-3176
nw	-3177
051	-3178
▁빨래	-3179
▁bel	-3180
▁인테리어벽시계	-3181
▁56	-3182
▁kids	-3183
▁랑	-3184
▁라벨	-3185
nk	-3186
스러운	-3187
db	-3188
보우	-3189
▁hl	-3190
▁쇼핑	-3191
▁딸	-3192
▁조끼	-3193
▁키스	-3194
▁유기농	-3195
플랫	-3196
▁세이	-3197
▁엡손	-3198
▁핸드폰케이스	-3199
커루	-3200
리퍼블릭	-3201
루미	-3202
모스	-3203
▁송	-3204
▁우아미가구	-3205
기장	-3206
렌드	-3207
메이	-3208
젤리	-3209
창고	-3210
▁op	-3211
▁녹	-3212
▁채	-3213
027	-3214
510	-3215
▁탑걸	-3216
청바지	-3217
▁스콰즈	-3218
▁트리아나	-3219
ory	-3220
▁버커루	-3221
랜치	-3222
방울	-3223
221	-3224
▁id	-3225
모차	-3226
원단	-3227
화장	-3228
▁wi	-3229
대형	-3230
220	-3231
▁gy	-3232
▁밀레	-3233
영등포점	-3234
▁신세계영등포점	-3235
178	-3236
▁diy	-3237
페라	-3238
▁파랑	-3239
▁하이넥	-3240
▁71	-3241
▁쥬얼리	-3242
위스	-3243
▁타미	-3244
머니	-3245
▁인터	-3246
▁끈	-3247
▁신사	-3248
▁lt	-3249
제로	-3250
▁큐티	-3251
▁글로	-3252
▁놀이	-3253
래스	-3254
옥스	-3255
▁km	-3256
▁이태리	-3257
모델	-3258
▁좋은	-3259
▁나즈나	-3260
pc	-3261
▁sg	-3262
▁올레포	-3263
도기	-3264
수건	-3265
커스	-3266
▁블록	-3267
타이어	-3268
▁키보드	-3269
▁next	-3270
▁할	-3271
행거	-3272
▁엘지	-3273
▁슬리브	-3274
▁스타일러스	-3275
실버	-3276
▁헨리넥	-3277
▁5000	-3278
711	-3279
플로어	-3280
블러	-3281
038	-3282
190	-3283
▁베가	-3284
▁스파오	-3285
습식	-3286
▁팀	-3287
터스	-3288
▁뷰티	-3289
▁제임스딘	-3290
그립	-3291
▁bd	-3292
▁금강	-3293
▁하우스	-3294
▁550	-3295
코드	-3296
▁bq	-3297
클래식	-3298
건조대	-3299
▁카운	-3300
▁슈퍼싱글	-3301
▁dd	-3302
▁160	-3303
▁우먼스	-3304
▁자연	-3305
rt	-3306
남방	-3307
라벨	-3308
콜라	-3309
use	-3310
▁여성슬립온	-3311
▁깔	-3312
끼리	-3313
왁스	-3314
▁세럼	-3315
▁아임	-3316
▁쿠비	-3317
티비티	-3318
▁면스판	-3319
가락	-3320
서랍	-3321
▁허니	-3322
▁140	-3323
bw	-3324
px	-3325
▁89	-3326
▁육	-3327
▁쇼퍼	-3328
▁재킷	-3329
스터기	-3330
▁놈	-3331
▁피핀	-3332
▁와이퍼	-3333
앤루	-3334
▁49	-3335
▁99	-3336
루네오	-3337
뿔테	-3338
118	-3339
▁37	-3340
▁메디	-3341
▁하이힐	-3342
▁칫솔	-3343
ust	-3344
▁선풍기	-3345
▁이니스	-3346
▁올레포빅	-3347
▁오브	-3348
▁코스	-3349
▁남성가방	-3350
스턴	-3351
▁ver	-3352
퓨터	-3353
132	-3354
▁ld	-3355
스카프	-3356
▁터틀넥	-3357
▁위즈위드	-3358
▁출	-3359
앤락	-3360
xl	-3361
지어	-3362
ike	-3363
▁마인드	-3364
▁이니스프리	-3365
천원	-3366
▁xl	-3367
▁노랑	-3368
▁담	-3369
▁ir	-3370
▁지방	-3371
045	-3372
▁릴리	-3373
뛰드	-3374
505	-3375
구성	-3376
041	-3377
046	-3378
gn	-3379
▁tf	-3380
러스트	-3381
▁윌슨	-3382
▁피치	-3383
▁인테리어액자	-3384
▁에뛰드	-3385
▁에코백	-3386
▁조립	-3387
▁필웰	-3388
▁220	-3389
▁제이제이	-3390
▁ecoeco	-3391
▁hy	-3392
▁모형	-3393
uart	-3394
▁울혼방	-3395
▁설	-3396
종택	-3397
코스	-3398
픽스	-3399
▁kt	-3400
▁긴팔티	-3401
나시	-3402
단화	-3403
▁az	-3404
▁까미	-3405
▁칠	-3406
까프	-3407
본점	-3408
▁kw	-3409
▁아날	-3410
▁락앤락	-3411
▁목재모형	-3412
▁창	-3413
▁라지	-3414
▁바나	-3415
▁아웃	-3416
야크	-3417
ans	-3418
▁si	-3419
▁청소	-3420
▁폴로	-3421
▁르까프	-3422
▁야마하	-3423
▁축구화	-3424
액티비티	-3425
131	-3426
▁로맨틱	-3427
▁패플액티비티	-3428
ci	-3429
▁잇	-3430
까지	-3431
▁te	-3432
▁사랑	-3433
여아긴소	-3434
받침	-3435
126	-3436
703	-3437
▁구찌	-3438
▁루루	-3439
▁롯데닷컴	-3440
▁타임월드	-3441
mw	-3442
▁jk	-3443
▁게이	-3444
▁210	-3445
▁silver	-3446
▁잠	-3447
▁데이	-3448
▁프랑	-3449
디움	-3450
▁퍼피	-3451
▁페이퍼	-3452
▁닥스골프	-3453
▁데일리슈	-3454
133	-3455
▁106	-3456
gs	-3457
다이	-3458
조크	-3459
tec	-3460
▁tandy	-3461
▁신세계본점	-3462
데즈	-3463
마라	-3464
받침대	-3465
▁메모리	-3466
경기점	-3467
▁신세계경기점	-3468
▁병	-3469
350	-3470
▁도자기	-3471
▁블랙야크	-3472
▁겐	-3473
▁iph	-3474
▁드라이버	-3475
콜렉트	-3476
▁46	-3477
▁뿔테	-3478
▁jeep	-3479
▁쥬시쥬디	-3480
▁my	-3481
▁방한	-3482
502	-3483
▁hw	-3484
▁부드	-3485
▁오조크	-3486
▁잭니클	-3487
▁잭니클라우스	-3488
▁pg	-3489
▁pj	-3490
▁공식수입원	-3491
▁나인	-3492
▁수영	-3493
▁배낭	-3494
▁ats	-3495
602	-3496
nic	-3497
▁dv	-3498
▁루나	-3499
▁윈드	-3500
▁원터치	-3501
▁이너	-3502
▁에멀	-3503
260	-3504
▁러빙	-3505
▁뮤	-3506
모터	-3507
지오	-3508
▁스케	-3509
▁쌍	-3510
인하	-3511
ton	-3512
▁스터	-3513
삭스	-3514
에라	-3515
타일	-3516
▁데미	-3517
▁멜로디	-3518
▁사무용	-3519
▁뱅	-3520
▁핸드백	-3521
▁일러스트	-3522
▁밸	-3523
하는	-3524
say	-3525
▁벨라	-3526
▁이불	-3527
▁부엉이	-3528
▁차이나	-3529
▁보조배터리	-3530
124	-3531
320	-3532
▁kk	-3533
▁스토	-3534
he	-3535
034	-3536
▁언더웨어	-3537
ux	-3538
▁윙	-3539
▁제조	-3540
▁파코	-3541
▁메트로시티주얼리	-3542
레오	-3543
▁접시	-3544
▁225	-3545
▁그랜드	-3546
▁트리시	-3547
070	-3548
▁러그	-3549
▁티렌	-3550
래지어	-3551
반바지	-3552
▁아크	-3553
▁젤리스푼	-3554
비즈	-3555
oll	-3556
▁59	-3557
▁바풀	-3558
▁호환	-3559
비골드	-3560
▁코데즈	-3561
mg	-3562
걸즈	-3563
칼라	-3564
▁ko	-3565
▁iz	-3566
▁qr	-3567
▁파우더	-3568
▁알로앤루	-3569
▁케이스위스	-3570
ist	-3571
▁오르	-3572
▁베이스	-3573
폴리	-3574
043	-3575
▁자석	-3576
165	-3577
▁미샤	-3578
스페이스	-3579
라반	-3580
타워	-3581
▁kr	-3582
fp	-3583
▁dn	-3584
▁rn	-3585
▁램프	-3586
유아동	-3587
▁뒷	-3588
▁홑	-3589
생산	-3590
155	-3591
▁비타	-3592
oogi	-3593
kh	-3594
▁jp	-3595
▁지방시	-3596
▁크롬	-3597
오피스	-3598
▁파자마	-3599
▁킹	-3600
▁햇	-3601
era	-3602
▁fw	-3603
▁모달	-3604
에프지	-3605
리얼	-3606
▁cz	-3607
▁레몬	-3608
cr	-3609
머리	-3610
제작	-3611
280	-3612
▁gk	-3613
▁브러쉬	-3614
▁브루노	-3615
고기	-3616
▁시리즈	-3617
▁적	-3618
048	-3619
▁rg	-3620
▁er	-3621
▁벨벳	-3622
▁봉제	-3623
▁에이비에프지	-3624
▁너	-3625
▁엔젤	-3626
▁102	-3627
ii	-3628
알라	-3629
코튼	-3630
▁인견	-3631
our	-3632
로브	-3633
어싱	-3634
▁109	-3635
▁mcf	-3636
▁grey	-3637
153	-3638
▁hu	-3639
▁me	-3640
▁지지	-3641
상하복	-3642
▁back	-3643
▁파코라반	-3644
▁fm	-3645
몬스터	-3646
▁디테일	-3647
▁옵티머스	-3648
▁트리시클로	-3649
스민	-3650
720	-3651
▁ly	-3652
▁빨강	-3653
▁ever	-3654
036	-3655
bm	-3656
포드	-3657
042	-3658
마운	-3659
짜임	-3660
▁수트	-3661
▁트리샤	-3662
▁썸	-3663
레쉬	-3664
▁레디	-3665
▁펌프스힐	-3666
▁쏘	-3667
여자	-3668
mah	-3669
▁파인	-3670
▁골프화	-3671
▁gn	-3672
▁손목시계	-3673
▁증정	-3674
▁탁상	-3675
▁330	-3676
▁하이브	-3677
키드	-3678
파워	-3679
단서랍장	-3680
▁hmall	-3681
넘기	-3682
프렌즈	-3683
▁aw	-3684
▁스킨푸드	-3685
▁koogi	-3686
▁트레이닝팬츠	-3687
156	-3688
▁원더	-3689
▁첨이	-3690
▁super	-3691
에버	-3692
한국	-3693
▁리안	-3694
▁폴햄	-3695
머드릴	-3696
코사	-3697
▁lm	-3698
▁오드	-3699
▁근	-3700
▁날	-3701
nyx	-3702
▁rh	-3703
▁프로텍	-3704
배낭	-3705
▁세련된	-3706
kn	-3707
체어	-3708
ond	-3709
0002	-3710
난로	-3711
랑이	-3712
스탠	-3713
▁kp	-3714
▁축구공	-3715
▁까사미아	-3716
211	-3717
▁신세계김	-3718
▁green	-3719
머그	-3720
▁신세계김해점	-3721
도계	-3722
몽드	-3723
워너	-3724
타월	-3725
▁tng	-3726
아머	-3727
유니	-3728
패션	-3729
▁숙녀	-3730
▁스키	-3731
▁후디	-3732
▁win	-3733
▁tngt	-3734
dl	-3735
▁벌	-3736
낚시	-3737
▁보이	-3738
▁야상	-3739
믹서기	-3740
▁시스루	-3741
▁낭	-3742
카시	-3743
▁머리	-3744
▁회전	-3745
꼭지	-3746
세스	-3747
앵글	-3748
ens	-3749
아동내의	-3750
▁팝	-3751
▁건식	-3752
▁iphone	-3753
▁신세계의정부점	-3754
▁숲	-3755
뉴엘	-3756
▁im	-3757
▁엔터	-3758
▁mcs	-3759
240	-3760
ith	-3761
메탈	-3762
바나	-3763
▁제스	-3764
▁필름	-3765
gc	-3766
즈미	-3767
차단	-3768
▁엑토	-3769
거치대	-3770
▁여성로퍼	-3771
▁레노마키즈	-3772
▁jillst	-3773
산부	-3774
▁파리	-3775
게터	-3776
허브	-3777
144	-3778
▁jr	-3779
▁독일	-3780
▁예작	-3781
▁사피아노	-3782
▁pe	-3783
▁센터	-3784
▁탱크	-3785
▁net	-3786
▁jillstuart	-3787
걸스	-3788
135	-3789
152	-3790
▁차콜	-3791
▁러빙홈	-3792
iss	-3793
▁드롭	-3794
▁우산	-3795
컴바인	-3796
▁화장대	-3797
▁프리미어	-3798
hr	-3799
포스	-3800
950	-3801
ber	-3802
▁옷장	-3803
▁나이스	-3804
테스마라	-3805
기본	-3806
702	-3807
이프릴	-3808
▁고게터	-3809
▁세라믹	-3810
▁헤드폰	-3811
▁삼각팬티	-3812
▁올리비아로렌	-3813
▁뱀	-3814
▁콩	-3815
그랑	-3816
▁카운테스마라	-3817
그릇	-3818
말리	-3819
이클	-3820
티백	-3821
▁건강	-3822
▁방탄	-3823
▁암막	-3824
레이어	-3825
▁닥스핸드백	-3826
039	-3827
▁gp	-3828
▁샤이	-3829
▁750	-3830
▁마인드브릿지	-3831
선택	-3832
▁쇼베	-3833
▁여성구두	-3834
de	-3835
▁흡	-3836
▁당일출고	-3837
상의	-3838
▁78	-3839
▁86	-3840
루미늄	-3841
▁쇼베뉴엘	-3842
▁샤틴	-3843
▁세면	-3844
▁파운	-3845
mate	-3846
▁ax	-3847
▁mh	-3848
▁순금	-3849
▁이유	-3850
▁내츄럴	-3851
▁실내복	-3852
▁코데즈컴바인	-3853
식품	-3854
▁31	-3855
▁ai	-3856
▁cx	-3857
▁엔비	-3858
기앤코	-3859
▁게이밍	-3860
052	-3861
168	-3862
ull	-3863
▁지컷	-3864
▁앤듀	-3865
▁이노	-3866
▁커브	-3867
미러	-3868
080	-3869
▁kf	-3870
▁컷팅	-3871
▁스마일	-3872
▁낭만	-3873
▁니콜	-3874
▁제옥스	-3875
ope	-3876
▁리버	-3877
▁시크	-3878
▁카모	-3879
ple	-3880
ance	-3881
▁유모차	-3882
본사정품	-3883
럭스	-3884
티노	-3885
▁오피스	-3886
진주	-3887
▁아이슈즈	-3888
lp	-3889
실내	-3890
206	-3891
▁매그	-3892
▁헌트	-3893
▁코스타	-3894
▁루루골드	-3895
▁본사정품	-3896
저지	-3897
▁wt	-3898
aby	-3899
▁남방	-3900
▁서울	-3901
▁도로시	-3902
▁클라이	-3903
▁lb	-3904
▁of	-3905
플레인	-3906
▁하이브리드	-3907
mu	-3908
142	-3909
ect	-3910
▁eq	-3911
▁tt	-3912
▁레코	-3913
▁로지	-3914
▁매쉬	-3915
▁수분	-3916
▁옴므	-3917
▁벨티드	-3918
▁사파리	-3919
▁밀리	-3920
▁밀폐	-3921
▁헤라	-3922
▁마스터	-3923
▁인디고	-3924
▁퍼펙트	-3925
▁휴지통	-3926
▁번	-3927
▁석	-3928
128	-3929
930	-3930
▁sv	-3931
▁ta	-3932
▁가야	-3933
패키지	-3934
ko	-3935
프스	-3936
▁애완	-3937
▁파나	-3938
▁360	-3939
▁lo	-3940
▁공식판매	-3941
▁gd	-3942
▁트래	-3943
링본	-3944
셋트	-3945
실업	-3946
베이지	-3947
▁바이오	-3948
▁예스비	-3949
▁아이워너	-3950
엘비	-3951
ies	-3952
▁까르	-3953
브리지	-3954
▁fit	-3955
061	-3956
▁ke	-3957
▁토오픈	-3958
▁캘빈클라인진	-3959
수용	-3960
▁pm	-3961
라이팬	-3962
pack	-3963
오일	-3964
▁센텀	-3965
lc	-3966
광택	-3967
▁51	-3968
장지갑	-3969
피엑스	-3970
▁수납장	-3971
▁basic	-3972
ade	-3973
▁웨이브	-3974
▁이동식	-3975
▁덕	-3976
데미	-3977
세이	-3978
▁라코	-3979
▁보호대	-3980
서류가방	-3981
▁classic	-3982
기구	-3983
망치	-3984
508	-3985
▁fe	-3986
▁강력	-3987
시티점	-3988
▁128	-3989
▁오클리	-3990
▁레인보우	-3991
▁ya	-3992
▁식기	-3993
▁오프	-3994
▁코팅	-3995
▁티엔	-3996
▁폴스	-3997
▁엠엘비	-3998
▁마일드	-3999
▁플리스	-4000
▁센텀시티점	-4001
그로	-4002
▁kc	-4003
▁코렐	-4004
▁슬라이드	-4005
즐리	-4006
307	-4007
ook	-4008
▁포토	-4009
▁끌	-4010
버클	-4011
127	-4012
▁마블	-4013
▁임부복	-4014
▁브루노말리	-4015
가루	-4016
▁폴리스	-4017
▁프랜치	-4018
▁플라이	-4019
▁피어싱	-4020
▁슈즈러브	-4021
▁영등포점	-4022
▁스테인레스	-4023
▁마린	-4024
▁메리제인	-4025
절기	-4026
▁스프레이	-4027
▁패기앤코	-4028
▁황	-4029
mlx	-4030
▁테일러	-4031
▁여행가방	-4032
▁클라비스	-4033
▁폴리쉬	-4034
▁라코스테	-4035
▁카드수납	-4036
▁버터플라이	-4037
고트	-4038
브이	-4039
ity	-4040
▁73	-4041
▁tn	-4042
▁발목	-4043
▁버버리	-4044
프로젝터	-4045
▁color	-4046
mn	-4047
▁레오	-4048
▁망사	-4049
▁mj	-4050
▁va	-4051
▁디디	-4052
▁코나	-4053
▁lov	-4054
클레	-4055
145	-4056
▁mds	-4057
▁star	-4058
▁알루미늄	-4059
텔라	-4060
▁고급형	-4061
▁쇼퍼백	-4062
▁워킹화	-4063
▁슬라이딩	-4064
피거	-4065
▁rx	-4066
▁안티	-4067
1200	-4068
▁롤업	-4069
격인하	-4070
▁카카오	-4071
▁카라코사	-4072
▁관	-4073
ant	-4074
▁62	-4075
▁러플	-4076
▁루디	-4077
▁레디핏	-4078
▁인천점	-4079
estro	-4080
▁오플로어	-4081
▁파운데이션	-4082
▁츄	-4083
군샵	-4084
다일	-4085
▁노마	-4086
▁수퍼	-4087
▁치마	-4088
수납장	-4089
▁44	-4090
▁체리	-4091
▁cro	-4092
▁올오버	-4093
▁조군샵	-4094
▁지지피엑스	-4095
▁ew	-4096
▁wp	-4097
라이너	-4098
티시아	-4099
▁임산부	-4100
▁메종티시아	-4101
la	-4102
▁con	-4103
▁네오프	-4104
▁낭만창고	-4105
▁수유	-4106
▁soup	-4107
한복	-4108
055	-4109
힐피거	-4110
▁에트로	-4111
▁휴대폰	-4112
베개	-4113
▁맥스	-4114
▁추천	-4115
▁파티	-4116
▁계양	-4117
▁시그	-4118
tc	-4119
▁섹	-4120
062	-4121
ita	-4122
▁슈펜	-4123
▁lcd	-4124
bkx	-4125
▁보디	-4126
▁스트링	-4127
▁mcm	-4128
▁더리드	-4129
▁라텍스	-4130
레이드	-4131
행기	-4132
호환	-4133
▁와펜	-4134
비누	-4135
age	-4136
▁큐브	-4137
갤러리	-4138
▁비즈니스	-4139
▁거울	-4140
▁마운	-4141
▁미니멈	-4142
▁직사각	-4143
fh	-4144
채널	-4145
청정기	-4146
▁레코브	-4147
▁엘리자	-4148
▁후드집업	-4149
▁maestro	-4150
▁짐	-4151
js	-4152
▁랠	-4153
134	-4154
207	-4155
▁록	-4156
시락	-4157
▁코지	-4158
▁타미힐피거	-4159
▁군	-4160
수전	-4161
kla	-4162
▁ask	-4163
▁선물용	-4164
▁긴팔티셔츠	-4165
503	-4166
▁oh	-4167
▁여행용	-4168
레탄	-4169
방석	-4170
파크	-4171
▁dy	-4172
▁mm	-4173
▁wd	-4174
▁영실업	-4175
▁파나소닉	-4176
kc	-4177
166	-4178
▁마스	-4179
메이트	-4180
▁스프링	-4181
▁구스다운	-4182
▁첨이첨이	-4183
▁굿	-4184
중계	-4185
▁리치	-4186
▁비스	-4187
▁젖	-4188
거울	-4189
▁미미	-4190
▁샤인	-4191
▁행거	-4192
에이크	-4193
▁바스켓	-4194
▁이미	-4195
▁블루문	-4196
▁부드러운	-4197
183	-4198
▁어깨	-4199
웨스트	-4200
▁ggpx	-4201
리안	-4202
미닌	-4203
케아	-4204
▁크로커다일	-4205
▁netmate	-4206
테이프	-4207
▁타뮤즈	-4208
▁뮬	-4209
건강	-4210
▁67	-4211
▁씨씨	-4212
▁트리플	-4213
과학	-4214
▁gu	-4215
▁세차	-4216
스탠드	-4217
▁반에이크	-4218
생활	-4219
▁수면	-4220
▁107	-4221
▁냉장고	-4222
▁제조한국	-4223
▁에뛰드하우스	-4224
베르	-4225
인원	-4226
전지	-4227
177	-4228
▁fg	-4229
▁up	-4230
▁건조	-4231
스프링	-4232
idge	-4233
▁카즈미	-4234
▁퍼스트	-4235
▁보루네오	-4236
▁네이처리퍼블릭	-4237
비트	-4238
oya	-4239
▁dt	-4240
▁오브엠	-4241
▁엔터식스	-4242
ase	-4243
▁브알라	-4244
▁프라임	-4245
hi	-4246
▁흰	-4247
워머	-4248
902	-4249
uma	-4250
▁301	-4251
▁미들힐	-4252
▁비지트인	-4253
▁엘르이너웨어	-4254
wd	-4255
네즈	-4256
등급	-4257
▁ul	-4258
▁뉴코아	-4259
▁비지트인뉴욕	-4260
143	-4261
▁매트블랙	-4262
▁천연가죽	-4263
▁에코스킨팩토리	-4264
▁udt	-4265
▁유니폼	-4266
▁길	-4267
리형	-4268
▁수동	-4269
▁디자인액자	-4270
▁이케아	-4271
▁프랜치캣	-4272
녹스	-4273
▁cooler	-4274
▁엄	-4275
▁ef	-4276
▁아만	-4277
▁제이스	-4278
▁we	-4279
▁수원	-4280
▁써스	-4281
▁마몽드	-4282
klaus	-4283
▁쓰리	-4284
▁kmc	-4285
330	-4286
▁행사	-4287
그라인더	-4288
▁micro	-4289
비타	-4290
주름	-4291
037	-4292
▁모닝	-4293
▁블랑	-4294
▁410	-4295
▁건습식	-4296
프로젝트	-4297
gen	-4298
▁꼬망스	-4299
▁액티브	-4300
▁리안뉴욕	-4301
미기	-4302
애플	-4303
▁초코	-4304
▁포함	-4305
이크업	-4306
ellow	-4307
▁아르마니	-4308
마크	-4309
047	-4310
▁랠리	-4311
귤러	-4312
멕스	-4313
이더	-4314
▁hm	-4315
턱받이	-4316
▁pur	-4317
▁충전기	-4318
po	-4319
rb	-4320
상트	-4321
시안	-4322
리소스	-4323
▁ear	-4324
▁에어로	-4325
▁금강제화	-4326
레토	-4327
▁wc	-4328
▁모비스	-4329
nicklaus	-4330
▁jacknicklaus	-4331
끄럼	-4332
▁시즌	-4333
▁아사	-4334
▁lea	-4335
▁모이스처	-4336
▁주방용품	-4337
상자	-4338
▁배터리	-4339
로브스키	-4340
▁봉제인형	-4341
sj	-4342
디션	-4343
▁헤링본	-4344
cg	-4345
▁워커	-4346
▁all	-4347
▁섹시	-4348
▁후아	-4349
▁650	-4350
▁테이트	-4351
▁homme	-4352
▁색	-4353
머플러	-4354
▁280	-4355
▁afr	-4356
▁더데이	-4357
fb	-4358
▁월드	-4359
▁사계절	-4360
▁쿠비카	-4361
935	-4362
▁차렵	-4363
▁데상트	-4364
▁야구모자	-4365
▁트윈키즈	-4366
착기	-4367
패너	-4368
▁토끼	-4369
▁행복	-4370
▁170	-4371
▁카페트	-4372
▁coolertec	-4373
블록	-4374
▁디디에	-4375
▁팜	-4376
▁공방	-4377
1001	-4378
▁zip	-4379
▁쇼핑백	-4380
dy	-4381
보관	-4382
클린	-4383
405	-4384
▁무릎	-4385
▁발수	-4386
▁선택	-4387
▁포체	-4388
▁003	-4389
▁col	-4390
▁보호필름	-4391
▁92	-4392
▁깔끔	-4393
▁배기	-4394
데이아	-4395
▁레트로	-4396
▁보카시	-4397
▁디디에두	-4398
로션	-4399
▁47	-4400
▁63	-4401
▁mz	-4402
▁고무	-4403
▁텐셀	-4404
▁디디에두보	-4405
▁갈	-4406
▁81	-4407
▁dj	-4408
▁베베	-4409
그래픽	-4410
정리함	-4411
ivus	-4412
▁트루젠	-4413
데이아일랜드	-4414
▁belivus	-4415
로드	-4416
▁트윌	-4417
▁235	-4418
aj	-4419
▁톨	-4420
거지	-4421
그릴	-4422
ork	-4423
▁hc	-4424
▁ye	-4425
마운트	-4426
ther	-4427
▁wom	-4428
▁후아유	-4429
▁스와로브스키	-4430
235	-4431
▁bro	-4432
▁jjc	-4433
▁에어컨	-4434
▁플레이그로	-4435
장형	-4436
▁메모	-4437
▁베르	-4438
▁핸디	-4439
코지	-4440
ide	-4441
▁게임	-4442
▁트랜	-4443
▁락포트	-4444
▁옷걸이	-4445
▁베이직팩토리	-4446
dm	-4447
링크	-4448
610	-4449
ote	-4450
▁경기점	-4451
▁line	-4452
▁휘트니스	-4453
ner	-4454
▁마크	-4455
▁남성반지	-4456
▁퀵	-4457
욜라	-4458
잉크	-4459
절개	-4460
▁수저	-4461
전화기	-4462
▁로지텍	-4463
페어	-4464
360	-4465
▁틴트	-4466
레인지	-4467
▁유니코	-4468
▁flower	-4469
tl	-4470
없음	-4471
▁eg	-4472
▁헤리	-4473
▁맥시	-4474
▁스툴	-4475
데님팬츠	-4476
에이프릴	-4477
▁hoya	-4478
▁써스데이아일랜드	-4479
▁하늘	-4480
▁met	-4481
원형	-4482
604	-4483
▁크레욜라	-4484
더블	-4485
▁sun	-4486
▁반집업	-4487
▁세이코	-4488
협탁	-4489
▁가로	-4490
▁학교	-4491
▁dcba	-4492
▁아만에이프릴	-4493
▁페이퍼플레인	-4494
소독	-4495
우리	-4496
ize	-4497
▁캐스	-4498
▁스코노	-4499
▁토니모리	-4500
▁덴	-4501
▁ff	-4502
▁소이	-4503
▁57	-4504
▁tk	-4505
▁라임	-4506
▁cap	-4507
▁앞치마	-4508
▁러닝리소스	-4509
▁친	-4510
측정	-4511
que	-4512
▁엠포	-4513
▁퍼퓸	-4514
스키니	-4515
▁컴퓨터	-4516
묶음	-4517
토트	-4518
▁항공	-4519
도조절	-4520
▁빈폴골프	-4521
▁브랜드	-4522
▁hiba	-4523
마루	-4524
터블	-4525
▁역	-4526
고급	-4527
▁gm	-4528
▁clp	-4529
▁퀸센스	-4530
▁노스페이스	-4531
qe	-4532
미츠	-4533
▁변기	-4534
▁카멜	-4535
▁유아동	-4536
선풍기	-4537
▁슈가	-4538
▁플루	-4539
▁245	-4540
▁비비드	-4541
반소	-4542
irl	-4543
▁xi	-4544
트먼트	-4545
다이어리	-4546
090	-4547
der	-4548
▁나노	-4549
▁누빔	-4550
▁har	-4551
▁amjr	-4552
런스	-4553
앵클	-4554
▁rb	-4555
▁ve	-4556
▁냄비	-4557
▁베리	-4558
레스트	-4559
▁edt	-4560
▁충전식	-4561
▁jawa	-4562
▁먼	-4563
251	-4564
311	-4565
▁76	-4566
▁스윗	-4567
▁골드바	-4568
▁정장화	-4569
▁드레스룸	-4570
▁아카데미	-4571
▁mario	-4572
▁오션	-4573
타카	-4574
▁스텝	-4575
▁센터시티	-4576
▁톤	-4577
ara	-4578
led	-4579
▁실속	-4580
▁파파야	-4581
▁발렌티노	-4582
▁파워핸들	-4583
보시	-4584
▁마리	-4585
▁113	-4586
▁매그제이	-4587
rg	-4588
▁따	-4589
▁홑겹	-4590
프린터	-4591
mh	-4592
릭스	-4593
▁앰	-4594
208	-4595
▁bn	-4596
▁스페셜	-4597
▁로엠걸즈	-4598
fg	-4599
▁충	-4600
스띠	-4601
▁fi	-4602
▁브리프	-4603
▁운동복	-4604
▁일반핏	-4605
▁부츠컷	-4606
▁free	-4607
▁혼	-4608
▁002	-4609
▁김해점	-4610
▁코나드	-4611
bridge	-4612
ye	-4613
로랑	-4614
▁마더	-4615
스코트	-4616
슬리브	-4617
▁질바이	-4618
마리	-4619
살균	-4620
402	-4621
▁애쉬	-4622
▁우주복	-4623
▁그레이스	-4624
▁덱	-4625
▁빔	-4626
파인	-4627
ley	-4628
str	-4629
▁ej	-4630
텀블러	-4631
▁씨씨콜렉트	-4632
xx	-4633
正品	-4634
▁토드	-4635
▁페미닌	-4636
▁국내생산	-4637
▁언더아머	-4638
▁사은품증정	-4639
oon	-4640
▁줄자	-4641
▁티비	-4642
▁파이	-4643
하남점	-4644
▁아이오	-4645
▁신세계하남점	-4646
▁★	-4647
돌이	-4648
err	-4649
▁과학	-4650
▁안나	-4651
▁정장팬츠	-4652
▁미키하우스	-4653
▁캉	-4654
파드	-4655
722	-4656
▁pb	-4657
▁편안	-4658
마산점	-4659
cool	-4660
▁아식스	-4661
▁신세계마산점	-4662
리개	-4663
블린	-4664
▁아리	-4665
이어폰	-4666
▁des	-4667
eaker	-4668
▁제이스타일	-4669
모닝	-4670
▁ki	-4671
반지갑	-4672
시스템	-4673
네브	-4674
▁냉동	-4675
▁매장	-4676
▁져지	-4677
▁라네즈	-4678
▁스터드	-4679
▁게스언더웨어	-4680
▁세인트스코트	-4681
슈트	-4682
칸토	-4683
섀도우	-4684
▁반소매	-4685
▁코멕스	-4686
▁head	-4687
▁인텐	-4688
▁이미용	-4689
▁공식판매처	-4690
▁트라이코지	-4691
▁뭉	-4692
소년	-4693
티슈	-4694
ino	-4695
▁공구몰	-4696
▁스위스	-4697
▁스포티	-4698
▁프로텍트	-4699
다이아몬드	-4700
발기	-4701
일자	-4702
클랍	-4703
충전기	-4704
▁rgb	-4705
名品	-4706
상형	-4707
▁ix	-4708
▁리모	-4709
▁보테	-4710
▁책가방	-4711
053	-4712
056	-4713
▁jm	-4714
▁lr	-4715
▁런던	-4716
▁시티	-4717
▁조직	-4718
스트라	-4719
▁심플한	-4720
▁가격인하	-4721
tt	-4722
크레	-4723
▁82	-4724
▁로보	-4725
▁파파브로	-4726
▁논	-4727
▁벙	-4728
511	-4729
810	-4730
▁잉크	-4731
▁크롭	-4732
▁air	-4733
▁나이스클랍	-4734
▁라벤	-4735
▁파란	-4736
▁sco	-4737
▁베개커버	-4738
723	-4739
ash	-4740
▁ib	-4741
▁뉴에라	-4742
▁네오프렌	-4743
소켓	-4744
크로스	-4745
▁pan	-4746
▁양가죽	-4747
▁유닉스	-4748
▁아이비골드	-4749
▁잇츠	-4750
네이션	-4751
메론	-4752
변기	-4753
▁스웨트	-4754
▁정수기	-4755
▁트위드	-4756
di	-4757
146	-4758
▁mf	-4759
▁名品	-4760
▁미니어	-4761
▁rose	-4762
▁클라우드	-4763
큐빅	-4764
184	-4765
▁ha	-4766
▁체어	-4767
▁자외선	-4768
sy	-4769
방수	-4770
산기	-4771
시간	-4772
▁hg	-4773
뷰티	-4774
are	-4775
▁웨스트	-4776
▁보디가드	-4777
▁질바이질	-4778
▁란	-4779
올렛	-4780
264	-4781
▁장롱	-4782
▁bal	-4783
▁씽	-4784
▁찰	-4785
레르	-4786
마을	-4787
쿼드	-4788
712	-4789
쭈리	-4790
241	-4791
306	-4792
▁아나	-4793
▁알로봇	-4794
qs	-4795
치스	-4796
ice	-4797
▁레귤러	-4798
▁블로퍼	-4799
▁에어워크	-4800
kw	-4801
wy	-4802
148	-4803
450	-4804
▁밀크	-4805
데이지	-4806
ring	-4807
▁master	-4808
투어	-4809
ige	-4810
ipe	-4811
▁더로라	-4812
▁프린세스	-4813
▁방풍	-4814
▁툴	-4815
▁vd	-4816
▁jdx	-4817
▁립스틱	-4818
▁우레탄	-4819
▁여성가방	-4820
oz	-4821
▁핑	-4822
키스	-4823
▁vv	-4824
만들기	-4825
▁270	-4826
▁사운드	-4827
▁주전자	-4828
쳐스	-4829
071	-4830
410	-4831
▁can	-4832
▁dis	-4833
▁표	-4834
레기	-4835
엘르	-4836
136	-4837
▁드림	-4838
▁솔로	-4839
fd	-4840
▁준	-4841
▁이니	-4842
▁공기청정기	-4843
▁헤지스키즈	-4844
▁파코라반베이비	-4845
▁파크	-4846
ster	-4847
▁삼나무	-4848
▁애니멀	-4849
▁질바이질스튜어트	-4850
▁솜	-4851
081	-4852
▁조아	-4853
▁601	-4854
▁간절기	-4855
여름	-4856
타늄	-4857
▁ud	-4858
▁장미	-4859
▁카본	-4860
▁데미지	-4861
▁바나나	-4862
구화	-4863
찬기	-4864
yle	-4865
▁낚시	-4866
▁레나	-4867
▁본딩	-4868
▁렌지대	-4869
▁오리털	-4870
▁이지넷	-4871
모아	-4872
바니	-4873
캡슐	-4874
ano	-4875
▁신생	-4876
able	-4877
▁mbf	-4878
▁nike	-4879
nb	-4880
스푼	-4881
▁히든	-4882
▁브라탑	-4883
정품토너	-4884
비뉴	-4885
옷장	-4886
그랜드	-4887
wood	-4888
▁코메론	-4889
▁슈퍼스타	-4890
하드케이스	-4891
▁낫	-4892
ure	-4893
▁세로	-4894
방문	-4895
배내	-4896
▁69	-4897
▁hk	-4898
▁플레이트	-4899
▁진공청소기	-4900
▁카렌	-4901
hp	-4902
직영	-4903
179	-4904
223	-4905
oph	-4906
▁68	-4907
▁랜드	-4908
▁뉴비스	-4909
158	-4910
플레어	-4911
▁화이트폭스	-4912
▁록시	-4913
▁viv	-4914
▁에블린	-4915
이와	-4916
167	-4917
▁us	-4918
▁수풀	-4919
▁슬립	-4920
▁크록스	-4921
ww	-4922
▁yj	-4923
리스트	-4924
플레이	-4925
▁페리미츠	-4926
▁misope	-4927
목적	-4928
일론	-4929
▁레저	-4930
레이저	-4931
▁오디오	-4932
▁일체형	-4933
▁하이드	-4934
▁메이크업	-4935
gyx	-4936
▁wb	-4937
꽈배기	-4938
신상품	-4939
▁320	-4940
▁squ	-4941
▁손잡이	-4942
▁페이스	-4943
스텝	-4944
054	-4945
550	-4946
▁미스	-4947
▁댄	-4948
봉투	-4949
심플	-4950
▁pi	-4951
▁키다리	-4952
uck	-4953
▁wr	-4954
▁분홍	-4955
▁용품	-4956
▁피코	-4957
▁202	-4958
▁gal	-4959
▁블루테일	-4960
김치	-4961
▁펜슬	-4962
투명	-4963
티아	-4964
▁nk	-4965
▁vs	-4966
▁아티	-4967
▁501	-4968
▁stco	-4969
▁돈	-4970
▁멋	-4971
304	-4972
ain	-4973
▁브이선	-4974
▁유소년	-4975
가운	-4976
디셔	-4977
225	-4978
750	-4979
▁fx	-4980
▁ji	-4981
▁메신	-4982
▁쿨링	-4983
▁호피	-4984
▁스틸레토	-4985
no	-4986
▁탱	-4987
론즈	-4988
엠보	-4989
클라	-4990
▁kj	-4991
▁비키	-4992
▁유솔	-4993
gg	-4994
▁밥	-4995
무선	-4996
캐슬	-4997
▁캔디	-4998
▁텐트	-4999
▁홈앤	-5000
less	-5001
▁스파이더	-5002
▁캐주얼가방	-5003
▁뉴코아아울렛	-5004
쿠키	-5005
▁hb	-5006
▁로쏘	-5007
▁클린	-5008
▁토이	-5009
▁diosa	-5010
▁변형	-5011
▁까미엘	-5012
▁발렌시아	-5013
다움	-5014
데무	-5015
런던	-5016
폴로	-5017
▁본점	-5018
▁치크	-5019
▁데이즈	-5020
▁비타민	-5021
▁일반형	-5022
▁헤드셋	-5023
▁상하세트	-5024
rl	-5025
tm	-5026
▁노턱	-5027
udio	-5028
▁자카드	-5029
▁브라이트	-5030
▁트리트먼트	-5031
자리	-5032
▁니모	-5033
▁지이크	-5034
▁웅	-5035
닥스	-5036
크리	-5037
▁260	-5038
▁디데무	-5039
▁걸	-5040
520	-5041
▁스튜	-5042
1101	-5043
▁트래블	-5044
삼각팬티	-5045
기타	-5046
들이	-5047
ony	-5048
▁지문	-5049
▁토마	-5050
브로스	-5051
▁글리터	-5052
▁의정부점	-5053
▁cjmall	-5054
몰드	-5055
ata	-5056
텐트	-5057
ore	-5058
▁한샘	-5059
▁톰키드	-5060
▁레인제로	-5061
▁남성스니커즈	-5062
129	-5063
act	-5064
ien	-5065
카페트	-5066
▁ser	-5067
▁나그랑	-5068
▁backpack	-5069
603	-5070
731	-5071
▁gf	-5072
▁랜덤	-5073
트렌치	-5074
▁스탠드형	-5075
끌라	-5076
▁단추	-5077
▁푸쉬	-5078
▁tbj	-5079
디아	-5080
베베	-5081
ada	-5082
▁잉글	-5083
세단기	-5084
▁185	-5085
▁브로치	-5086
▁사용	-5087
솔리드	-5088
▁스케쳐스	-5089
▁조이너스	-5090
▁약	-5091
▁문서	-5092
▁올뉴	-5093
▁테슬	-5094
바라기	-5095
스퀘어	-5096
bi	-5097
니엘	-5098
▁종이	-5099
민트	-5100
▁mv	-5101
▁속옷	-5102
▁시원	-5103
▁여권	-5104
▁dch	-5105
▁pat	-5106
▁뉴트리	-5107
▁사무실	-5108
▁신생아	-5109
▁갤럭시그랜드	-5110
hm	-5111
261	-5112
주머니	-5113
1500	-5114
▁clx	-5115
▁삼각대	-5116
▁브래지어	-5117
바일	-5118
138	-5119
도자기	-5120
▁115	-5121
▁하운드	-5122
라피	-5123
전문	-5124
▁발찌	-5125
소독기	-5126
▁afp	-5127
▁sol	-5128
▁아로마	-5129
▁케이투	-5130
로와이퍼	-5131
▁품	-5132
메쉬	-5133
무용	-5134
비쥬	-5135
309	-5136
알렉스	-5137
측정기	-5138
▁키스맥	-5139
fa	-5140
인터	-5141
066	-5142
▁수경	-5143
▁빈치스	-5144
▁galax	-5145
란자	-5146
리티	-5147
209	-5148
407	-5149
▁qf	-5150
409	-5151
▁홍삼	-5152
니걸스	-5153
▁티타늄	-5154
필터호환	-5155
▁페이즐리	-5156
▁보니알렉스	-5157
351	-5158
380	-5159
▁정장벨트	-5160
▁탁구라켓	-5161
양면	-5162
형광	-5163
925	-5164
▁케어	-5165
▁여성샌들	-5166
▁차렵이불	-5167
▁트레이닝화	-5168
다드	-5169
줄자	-5170
▁vt	-5171
▁블링	-5172
▁비와이	-5173
▁1600	-5174
저귀	-5175
▁젠틀	-5176
클로젯	-5177
▁203	-5178
▁370	-5179
▁다목적	-5180
▁고정	-5181
부내의	-5182
xs	-5183
납품	-5184
세일	-5185
068	-5186
212	-5187
ord	-5188
▁마루	-5189
▁이월	-5190
▁전국	-5191
▁후지	-5192
▁미스트	-5193
▁발수코팅	-5194
▁제이브로스	-5195
▁pf	-5196
▁가드	-5197
▁제트	-5198
▁옆트임	-5199
슬릿	-5200
137	-5201
esh	-5202
▁qu	-5203
▁tu	-5204
▁그립	-5205
▁옐로	-5206
▁380	-5207
▁ram	-5208
▁필라테스복	-5209
mv	-5210
비오	-5211
트롤	-5212
▁gh	-5213
▁랑방	-5214
▁par	-5215
짚업	-5216
802	-5217
▁터프	-5218
유니폼	-5219
2000	-5220
▁vov	-5221
▁루미엘	-5222
▁헤리티지	-5223
▁il	-5224
▁딸기	-5225
▁비니	-5226
▁신형	-5227
plus	-5228
▁파로마	-5229
▁비와이씨	-5230
▁722	-5231
▁모음전	-5232
▁엘칸토	-5233
▁1100	-5234
퍼스	-5235
헤어	-5236
651	-5237
▁lu	-5238
▁덱케	-5239
▁겟	-5240
▁샐	-5241
▁ik	-5242
1811	-5243
▁112	-5244
▁티비제이	-5245
▁질스튜어트뉴욕	-5246
도마	-5247
ype	-5248
▁낫소	-5249
▁접착	-5250
▁쇼콜라	-5251
▁클라이마	-5252
▁그래픽시계	-5253
▁여성스니커즈	-5254
gl	-5255
▁꿀	-5256
이글	-5257
작업	-5258
eam	-5259
way	-5260
▁라쿤	-5261
▁쇼츠	-5262
테이션	-5263
▁gtx	-5264
▁명함지갑	-5265
▁딕	-5266
도리	-5267
임팩	-5268
▁겐조	-5269
▁귀여	-5270
▁코어	-5271
▁쿠론	-5272
▁scx	-5273
▁나일론	-5274
▁서랍형	-5275
▁남성구두	-5276
wj	-5277
▁tl	-5278
▁스칸	-5279
▁우리	-5280
▁포트	-5281
트렁크	-5282
▁pre	-5283
▁편안한	-5284
ial	-5285
▁jn	-5286
▁삭스	-5287
▁제니	-5288
▁118	-5289
▁스텐탱크	-5290
ty	-5291
랜더	-5292
▁자스민	-5293
▁낮	-5294
브르	-5295
365	-5296
itz	-5297
▁ez	-5298
▁단체	-5299
저고리	-5300
▁프렌즈	-5301
▁엘리자벳	-5302
▁nf	-5303
▁sy	-5304
▁yb	-5305
▁듀오	-5306
▁테팔	-5307
오디오	-5308
▁mac	-5309
▁발매트	-5310
▁시스템	-5311
▁유니콘	-5312
308	-5313
ick	-5314
ao	-5315
▁꿈	-5316
디어	-5317
342	-5318
▁메르	-5319
▁lbp	-5320
▁mcw	-5321
▁믹서기	-5322
세척	-5323
ale	-5324
▁ft	-5325
▁qa	-5326
▁바쏘	-5327
▁소품	-5328
마스터	-5329
▁ssb	-5330
▁토마스	-5331
▁큐니걸스	-5332
스코	-5333
엘라	-5334
509	-5335
ish	-5336
▁114	-5337
▁컬리수	-5338
▁드라이기	-5339
난방기	-5340
레기통	-5341
▁네이쳐	-5342
▁스크래	-5343
▁전문가	-5344
욘드	-5345
▁mag	-5346
▁린나이	-5347
▁악세사리	-5348
토마	-5349
▁고어	-5350
▁디올	-5351
▁방울	-5352
▁에꼴	-5353
▁토탈	-5354
▁항균	-5355
▁스페란자	-5356
bc	-5357
공식	-5358
랜턴	-5359
에서	-5360
콤비	-5361
611	-5362
▁조거	-5363
▁포에버	-5364
▁여성펌프스	-5365
▁프로텍트엠	-5366
▁do	-5367
▁공룡	-5368
▁셀덴	-5369
▁프랑코	-5370
▁화장품	-5371
▁궁	-5372
로바	-5373
하의	-5374
▁월넛	-5375
차이나	-5376
클레보	-5377
하고	-5378
ior	-5379
▁ic	-5380
▁버킷	-5381
▁덕다운	-5382
▁미끄럼	-5383
▁바이올렛	-5384
▁헤어밴드	-5385
▁현대오피스	-5386
▁견	-5387
▁첼	-5388
단추	-5389
두기	-5390
피오	-5391
403	-5392
▁우성	-5393
건조기	-5394
▁mbw	-5395
▁신일산업	-5396
▁바이데이지	-5397
▁팩	-5398
리닝	-5399
232	-5400
903	-5401
▁보관	-5402
▁비앤	-5403
▁with	-5404
▁흄	-5405
기어	-5406
마이	-5407
▁사이	-5408
▁힙색	-5409
스웨그	-5410
▁데이지	-5411
▁화장실	-5412
래빗	-5413
270	-5414
▁올젠	-5415
▁카이	-5416
▁브리앙	-5417
▁비욘드	-5418
▁캣타워	-5419
▁커프스	-5420
▁환	-5421
규어	-5422
▁유아용	-5423
▁인버터	-5424
▁다크그레이	-5425
lb	-5426
▁겸	-5427
▁톱	-5428
▁rf	-5429
▁누리	-5430
▁누비	-5431
▁선염	-5432
▁스네	-5433
친구들	-5434
star	-5435
▁crg	-5436
▁ipt	-5437
▁코스타스웨그	-5438
dj	-5439
까사	-5440
년형	-5441
인조	-5442
▁스윙	-5443
▁조리	-5444
1102	-5445
▁이유식	-5446
▁dcwa	-5447
▁가야라이프	-5448
▁루디프로젝트	-5449
마틴	-5450
ong	-5451
▁콜라	-5452
▁와일드	-5453
pr	-5454
▁삐	-5455
동물	-5456
뱅이	-5457
여행	-5458
139	-5459
507	-5460
▁nm	-5461
▁뭉키	-5462
▁보스턴	-5463
선물세트	-5464
▁아날로그	-5465
▁미쏘시크릿	-5466
ew	-5467
▁블룸	-5468
▁클립	-5469
젓가락	-5470
▁lan	-5471
▁아임삭	-5472
▁코리아	-5473
▁후레쉬	-5474
▁탐	-5475
공기	-5476
▁물병	-5477
▁은침	-5478
▁피스	-5479
▁wat	-5480
▁면바지	-5481
▁스타킹	-5482
▁여성시계	-5483
▁레나크리스	-5484
거실	-5485
띠끄	-5486
브루	-5487
340	-5488
olf	-5489
▁vi	-5490
▁금속	-5491
▁eos	-5492
▁고광택	-5493
▁블루밍	-5494
▁싸이클	-5495
▁nepa	-5496
▁brown	-5497
▁룸	-5498
▁맛	-5499
나스	-5500
322	-5501
구성품	-5502
▁정리함	-5503
▁텀블러	-5504
▁월렛케이스	-5505
dc	-5506
▁샘	-5507
라리	-5508
로프	-5509
팔로	-5510
▁hn	-5511
▁os	-5512
▁프롬	-5513
▁논슬립	-5514
▁벙거지	-5515
▁hjba	-5516
▁확	-5517
너지	-5518
169	-5519
man	-5520
▁벤치	-5521
페라로	-5522
▁귀여운	-5523
▁캠핑용품	-5524
▁프랑코페라로	-5525
▁끄	-5526
▁난	-5527
모노	-5528
바비	-5529
캔들	-5530
▁lv	-5531
▁히트	-5532
피스트	-5533
▁sho	-5534
▁모스트	-5535
▁남성시계	-5536
▁모노블랙	-5537
▁키친플라워	-5538
골지	-5539
조직	-5540
715	-5541
▁바니	-5542
▁씽크	-5543
▁까르뜨	-5544
▁더커버	-5545
▁레이온	-5546
▁컨디셔	-5547
▁잇츠스킨	-5548
▁크리비아	-5549
hf	-5550
▁줌	-5551
▁헴	-5552
▁hh	-5553
▁무광	-5554
▁슬릿	-5555
▁워시	-5556
▁출산	-5557
▁mat	-5558
▁분리형	-5559
▁아이오페	-5560
아웃	-5561
유비	-5562
조아	-5563
▁du	-5564
▁265	-5565
웍스	-5566
한우	-5567
▁전통	-5568
에스트로	-5569
▁evercool	-5570
▁로코	-5571
▁리프	-5572
▁cle	-5573
▁르클레보	-5574
리사	-5575
▁팬던트	-5576
▁플레인	-5577
무기	-5578
▁96	-5579
▁자동차스티커	-5580
사용	-5581
추천	-5582
▁94	-5583
▁광택	-5584
▁세계	-5585
▁토토	-5586
▁한정	-5587
▁함마	-5588
▁mil	-5589
▁홈웨어	-5590
아라	-5591
택점	-5592
파우	-5593
하프	-5594
▁그림	-5595
▁푸른	-5596
평택점	-5597
atha	-5598
▁롤스크린	-5599
▁홈앤하우스	-5600
가베	-5601
리프	-5602
앤미	-5603
▁망고	-5604
▁반짝	-5605
▁비트	-5606
▁ven	-5607
▁체이스	-5608
▁지문방지	-5609
스크주니어	-5610
보스	-5611
속옷	-5612
으로	-5613
▁mw	-5614
▁더젠	-5615
화장품	-5616
▁310	-5617
▁미니백	-5618
▁채우리	-5619
▁판도라	-5620
▁하남점	-5621
▁하이탑	-5622
▁패딩점퍼	-5623
▁후드티셔츠	-5624
▁93	-5625
▁미라	-5626
▁펌프	-5627
▁테일러드	-5628
▁램	-5629
나타	-5630
놀드	-5631
장착	-5632
063	-5633
073	-5634
▁fc	-5635
▁깔끔한	-5636
▁바네스	-5637
▁에스닉	-5638
▁올인원	-5639
▁해리슨옴므	-5640
rf	-5641
tv	-5642
느낌	-5643
정제	-5644
▁79	-5645
▁87	-5646
▁jw	-5647
▁지샥	-5648
라이스	-5649
▁아이언	-5650
▁제록스	-5651
▁마에스트로	-5652
▁vc	-5653
▁미국	-5654
이블루	-5655
ange	-5656
▁275	-5657
▁lsr	-5658
▁엠포리오	-5659
벨리	-5660
우먼	-5661
지비	-5662
▁꼬마	-5663
▁클로	-5664
▁운	-5665
242	-5666
dk	-5667
pd	-5668
쁘랑	-5669
▁bi	-5670
▁원예	-5671
라스트	-5672
소프트	-5673
에디션	-5674
키보드	-5675
▁익스트	-5676
나비	-5677
▁전화	-5678
▁베어툴	-5679
▁생활용품	-5680
가스	-5681
네트	-5682
댑터	-5683
생석	-5684
섬유	-5685
학기	-5686
▁ay	-5687
▁럭스	-5688
▁무배	-5689
슬랙스	-5690
▁ben	-5691
▁cut	-5692
라노	-5693
청소	-5694
159	-5695
라텍스	-5696
쿼터스	-5697
▁자동차용품	-5698
네타	-5699
도구	-5700
084	-5701
▁대량	-5702
▁앤틱	-5703
▁톨로	-5704
lect	-5705
▁결	-5706
▁아놀드	-5707
유비쿼터스	-5708
▁legen	-5709
▁명품선글라스	-5710
▁삼성정품토너	-5711
미엄	-5712
▁공장	-5713
▁기가	-5714
▁보트	-5715
▁에프	-5716
▁좌식	-5717
▁노마진	-5718
▁쟈가드	-5719
▁스타스포츠	-5720
▁이지넷유비쿼터스	-5721
시니	-5722
058	-5723
▁발레	-5724
▁스팽	-5725
▁손수건	-5726
▁컨버스	-5727
▁골드바닷컴	-5728
▁iptime	-5729
지티	-5730
312	-5731
oma	-5732
슬림핏	-5733
▁가보시	-5734
▁옵토마	-5735
립스프링	-5736
▁로즈골드	-5737
of	-5738
057	-5739
091	-5740
988	-5741
▁mu	-5742
▁파르	-5743
▁홀더	-5744
파자마	-5745
▁윈도우	-5746
▁코끼리	-5747
▁타이즈	-5748
▁탁구복	-5749
▁테스터기	-5750
▁후라이팬	-5751
▁casio	-5752
▁러블리슈즈	-5753
▁제이제이옴므	-5754
▁발수코팅와이퍼	-5755
▁웜	-5756
세탁	-5757
익스	-5758
049	-5759
jb	-5760
lw	-5761
▁기업	-5762
▁리쥬	-5763
▁오스	-5764
▁오후	-5765
▁코너	-5766
▁미니멀	-5767
▁아크릴	-5768
▁레오파드	-5769
▁쁘띠쁘랑	-5770
▁알파치노	-5771
▁해피바스	-5772
▁캘빈클라인언더웨어	-5773
냅킨	-5774
세미	-5775
422	-5776
▁pn	-5777
▁에보	-5778
파이어	-5779
▁미디엄	-5780
▁벨크로	-5781
앵클부츠	-5782
▁딕피스트	-5783
ob	-5784
워터	-5785
유기	-5786
▁포니	-5787
▁mbs	-5788
캠브리지	-5789
▁정장구두	-5790
▁스위트플러스	-5791
▁윤	-5792
▁mn	-5793
▁보아	-5794
▁생일	-5795
▁치노	-5796
커플링	-5797
▁717	-5798
▁san	-5799
▁마사지	-5800
인테리어	-5801
프리미엄	-5802
ition	-5803
gw	-5804
mx	-5805
▁밴	-5806
모션	-5807
쌓기	-5808
323	-5809
▁김치	-5810
▁대성	-5811
커버리	-5812
▁모바일	-5813
입체	-5814
▁특대	-5815
▁elle	-5816
가로	-5817
온탑	-5818
▁iy	-5819
▁마르	-5820
▁썸머	-5821
스타킹	-5822
▁임팩트	-5823
▁풀세트	-5824
▁에스티엘	-5825
tw	-5826
▁막	-5827
262	-5828
ers	-5829
lex	-5830
▁밀알	-5831
부팬츠	-5832
▁실속형	-5833
▁패키지	-5834
▁클럽캠브리지	-5835
▁던	-5836
반사	-5837
삼성	-5838
압력	-5839
▁쥬크	-5840
바스켓	-5841
▁밀폐용기	-5842
▁바닐라비	-5843
▁왈	-5844
255	-5845
▁kd	-5846
▁냉장	-5847
▁라미	-5848
▁마그	-5849
▁성인	-5850
▁스컬	-5851
▁조각	-5852
▁헬멧	-5853
▁pet	-5854
▁트레이	-5855
▁galaxy	-5856
더기	-5857
페리	-5858
149	-5859
amo	-5860
▁oc	-5861
▁vl	-5862
▁디젤	-5863
▁왁스	-5864
앞치마	-5865
▁full	-5866
와인	-5867
215	-5868
713	-5869
enn	-5870
▁em	-5871
▁프랭	-5872
메이커	-5873
▁mbm	-5874
▁rou	-5875
▁스피드	-5876
▁키홀더	-5877
▁남자백팩	-5878
▁르젠옴므	-5879
▁바네스데코	-5880
연필	-5881
088	-5882
341	-5883
▁vr	-5884
▁라탄	-5885
▁opt	-5886
▁숙녀화	-5887
▁club	-5888
▁agatha	-5889
랭킷	-5890
064	-5891
▁집게	-5892
1002	-5893
▁255	-5894
▁테이프	-5895
▁족	-5896
저울	-5897
▁미드	-5898
▁산업	-5899
라운지	-5900
▁마운틴	-5901
▁푸쉬업	-5902
▁이너웨어	-5903
▁렉	-5904
거리	-5905
랜덤	-5906
074	-5907
▁모델	-5908
▁부티	-5909
수제화	-5910
girl	-5911
▁org	-5912
▁ball	-5913
쿨러	-5914
530	-5915
▁ci	-5916
▁디퓨	-5917
▁와이	-5918
▁716	-5919
▁tur	-5920
▁폰트리	-5921
▁프레임	-5922
▁공식본사정품	-5923
sq	-5924
072	-5925
▁눈꽃	-5926
▁짜임	-5927
▁충격	-5928
▁jcb	-5929
▁man	-5930
▁패밀리	-5931
▁헤어핀	-5932
▁골든구스	-5933
▁밀리터리	-5934
404	-5935
▁ou	-5936
▁프레쉬	-5937
▁언발란스	-5938
▁촉	-5939
교구	-5940
보온	-5941
▁ll	-5942
▁로로	-5943
▁매니	-5944
▁클릭	-5945
▁lab	-5946
▁평상형	-5947
▁155	-5948
▁다이어	-5949
▁데스크	-5950
있어	-5951
화분	-5952
065	-5953
ium	-5954
▁외부	-5955
▁튜브	-5956
적외선	-5957
토트백	-5958
▁cal	-5959
▁보드복	-5960
래쉬가드	-5961
남아긴소내의	-5962
고세	-5963
로딩	-5964
십자	-5965
포크	-5966
플래	-5967
▁디어	-5968
▁아우	-5969
브러쉬	-5970
ject	-5971
▁다이나	-5972
▁아카시아	-5973
▁앤클라인	-5974
▁전문가용	-5975
▁아메리칸이글	-5976
fx	-5977
we	-5978
티스	-5979
213	-5980
231	-5981
▁발리	-5982
▁협탁	-5983
▁max	-5984
▁신발장	-5985
▁오픈형	-5986
▁반스	-5987
▁위생	-5988
asso	-5989
▁꾸미기	-5990
▁농구공	-5991
▁디럭스	-5992
▁블렌드	-5993
▁에넥스	-5994
▁허브차	-5995
188	-5996
195	-5997
755	-5998
803	-5999
▁fa	-6000
▁아모	-6001
까리나	-6002
▁crp	-6003
▁khd	-6004
▁롱코트	-6005
▁스텐레스	-6006
km	-6007
란느	-6008
쉬폰	-6009
블랑슈	-6010
3000	-6011
▁abc	-6012
▁끄란느	-6013
▁탑온탑	-6014
▁피코크	-6015
▁아름이와	-6016
▁베스트로딩	-6017
집게	-6018
box	-6019
▁eu	-6020
▁수모	-6021
▁원두	-6022
라이크	-6023
사이드	-6024
코끼리	-6025
▁꽈배기	-6026
▁스테파	-6027
▁시원한	-6028
▁아름이와다움	-6029
릴리	-6030
313	-6031
▁단품	-6032
바시니	-6033
▁반폴라	-6034
▁브라팬티	-6035
▁커스텀에	-6036
▁프로젝트	-6037
▁턴	-6038
그램	-6039
컬트	-6040
187	-6041
725	-6042
▁mq	-6043
▁미듐	-6044
▁방독	-6045
▁앤드	-6046
▁라벤더	-6047
▁스위치	-6048
▁2001	-6049
유로와이퍼	-6050
▁saera	-6051
▁레인제로유로와이퍼	-6052
일렛	-6053
217	-6054
▁흑백	-6055
갤럭시	-6056
▁kam	-6057
▁상하복	-6058
▁soda	-6059
▁액자시계	-6060
▁cross	-6061
▁모다까리나	-6062
▁곤	-6063
반스	-6064
페인	-6065
364	-6066
ign	-6067
▁학생가방	-6068
▁까르뜨블랑슈	-6069
▁아름이와다움이	-6070
액정	-6071
216	-6072
▁헤이	-6073
반팔티	-6074
▁책꽂이	-6075
bh	-6076
▁뷔	-6077
러드	-6078
마기	-6079
512	-6080
▁간편	-6081
▁러버	-6082
▁분말	-6083
▁써클	-6084
▁헬로우	-6085
▁리쥬네브	-6086
▁보드게임	-6087
▁체이스컬트	-6088
뚜기	-6089
세상	-6090
▁pd	-6091
▁드릴	-6092
▁온더	-6093
니클립	-6094
줄넘기	-6095
▁사이즈	-6096
▁puma	-6097
▁베어파우	-6098
▁액세서리	-6099
센트플러스	-6100
▁브라팬티세트	-6101
▁현관문시트지	-6102
067	-6103
▁에르	-6104
▁캘리	-6105
그로시	-6106
면도기	-6107
에이치	-6108
▁cub	-6109
▁아이스크림	-6110
gt	-6111
▁튤	-6112
뜻한	-6113
바웃	-6114
361	-6115
oun	-6116
▁wa	-6117
▁스팀	-6118
▁편한	-6119
캐리어	-6120
▁몽블랑	-6121
▁wall	-6122
트렌치코트	-6123
▁뒤	-6124
▁뿌	-6125
파마	-6126
cmx	-6127
▁삼정	-6128
▁스토어	-6129
맞춤	-6130
이온	-6131
▁205	-6132
▁글러브	-6133
▁롱부츠	-6134
▁gray	-6135
▁life	-6136
▁light	-6137
▁발렌시아가	-6138
▁스카이블루	-6139
대리	-6140
던스	-6141
루쏘	-6142
147	-6143
▁앤섬	-6144
▁트위	-6145
▁atbp	-6146
▁정장자켓	-6147
gk	-6148
덧신	-6149
렌디	-6150
317	-6151
▁ys	-6152
▁순수	-6153
자전거	-6154
페셔널	-6155
▁gby	-6156
▁에디션	-6157
▁크루넥	-6158
디테일	-6159
▁215	-6160
▁노라인	-6161
▁baby	-6162
▁당일배송	-6163
▁애플핑크	-6164
▁컨디셔너	-6165
▁actto	-6166
민소	-6167
▁쁘리	-6168
▁송월	-6169
▁메신저	-6170
세제	-6171
191	-6172
▁육각	-6173
▁최대	-6174
0001	-6175
보드게임	-6176
▁랜드로바	-6177
▁레이디가구	-6178
요가	-6179
607	-6180
ops	-6181
▁로사	-6182
▁리드	-6183
▁소꿉	-6184
▁클리	-6185
▁725	-6186
▁kor	-6187
▁mom	-6188
▁나이프	-6189
▁스탠다드	-6190
모던	-6191
수면	-6192
스원	-6193
안감	-6194
큐브	-6195
099	-6196
222	-6197
▁어드	-6198
▁튜닝	-6199
▁티니	-6200
단가라	-6201
스티에	-6202
▁일자핏	-6203
▁2500	-6204
데기	-6205
▁젖병	-6206
1600	-6207
anic	-6208
ello	-6209
▁off	-6210
▁tee	-6211
▁여아동	-6212
▁이니셜	-6213
▁자가드	-6214
▁쁘리엘르	-6215
아리	-6216
틱스	-6217
751	-6218
ena	-6219
▁uh	-6220
▁미술	-6221
▁박시	-6222
▁순정	-6223
▁슈피	-6224
▁기본설치	-6225
▁스튜디오	-6226
가게	-6227
간식	-6228
넘버	-6229
전동	-6230
정밀	-6231
콜릿	-6232
ina	-6233
▁노빌	-6234
▁쇼파	-6235
에어컨	-6236
oroo	-6237
▁지고트	-6238
▁타이츠	-6239
바디웨어	-6240
▁패션가방	-6241
lo	-6242
먼스	-6243
420	-6244
▁에멀전	-6245
ustom	-6246
▁아이패드	-6247
▁체크패턴	-6248
▁britz	-6249
▁아디다스골프	-6250
건디	-6251
레미	-6252
르트	-6253
조셉	-6254
환경	-6255
paw	-6256
▁밀튼	-6257
▁와플	-6258
ucci	-6259
▁올리비	-6260
▁제니스	-6261
▁jaba	-6262
▁남성넥타이	-6263
▁스포츠의류	-6264
▁kooroo	-6265
fn	-6266
▁존	-6267
▁킬	-6268
bux	-6269
▁로라	-6270
▁주유	-6271
▁이어링	-6272
롱원피스	-6273
▁love	-6274
▁휠라키즈	-6275
나는	-6276
이동	-6277
721	-6278
▁61	-6279
▁vn	-6280
ella	-6281
▁웨지힐	-6282
기획	-6283
러버	-6284
벤치	-6285
순이	-6286
체티	-6287
테나	-6288
msc	-6289
msg	-6290
▁애드	-6291
▁004	-6292
핸들커버	-6293
▁남성신발	-6294
▁실버귀걸이	-6295
▁합	-6296
가리	-6297
벨라	-6298
▁철재	-6299
이퍼드	-6300
arks	-6301
▁스타디움	-6302
▁제이반스	-6303
▁stripe	-6304
ra	-6305
샤워	-6306
키퍼	-6307
850	-6308
▁멜빵	-6309
▁제주	-6310
▁256	-6311
▁ferr	-6312
▁익스트림	-6313
그림	-6314
숫자	-6315
▁스푼	-6316
▁제제	-6317
▁참고	-6318
▁코디	-6319
드레스	-6320
ench	-6321
▁cpl	-6322
▁갤러리	-6323
▁잠뱅이	-6324
깅엄	-6325
082	-6326
325	-6327
▁이탈	-6328
▁vip	-6329
▁컬러풀	-6330
▁바디워시	-6331
np	-6332
vt	-6333
저트	-6334
157	-6335
233	-6336
cam	-6337
▁rl	-6338
▁닉스	-6339
▁미용	-6340
▁본체	-6341
▁키링	-6342
끌라니	-6343
▁190	-6344
▁몬스터	-6345
▁맥끌라니	-6346
▁미니어쳐	-6347
▁스테파넬	-6348
▁티엔지티	-6349
▁올리비에스	-6350
▁싱	-6351
린넨	-6352
513	-6353
ark	-6354
▁작은	-6355
글러브	-6356
ooth	-6357
orts	-6358
▁라이더	-6359
▁4000	-6360
▁긴팔져지	-6361
▁깜	-6362
커넥	-6363
▁누디	-6364
▁엔진	-6365
▁위프	-6366
▁히터	-6367
▁에멀젼	-6368
▁컴팩트	-6369
가베네타	-6370
▁라벨루쏘	-6371
▁문서세단기	-6372
▁올리비에스클로젯	-6373
▁효	-6374
▁유로	-6375
▁티로	-6376
도시락	-6377
레터링	-6378
▁zio	-6379
▁수제화	-6380
▁dparks	-6381
▁또	-6382
085	-6383
▁jo	-6384
▁그릇	-6385
▁왈가	-6386
▁침구	-6387
▁태양	-6388
▁퍼포	-6389
▁한글	-6390
▁로즈몽	-6391
▁마산점	-6392
▁에버링	-6393
▁대량납품	-6394
▁세컨스킨	-6395
▁땡	-6396
▁훌	-6397
▁네온	-6398
▁디자	-6399
컬렉션	-6400
▁신학기	-6401
▁오뚜기	-6402
▁비치웨어	-6403
▁색상랜덤	-6404
▁왈가닥스	-6405
083	-6406
609	-6407
823	-6408
aya	-6409
▁톰포드	-6410
▁긴소매셔츠	-6411
고라	-6412
059	-6413
650	-6414
▁ig	-6415
▁rj	-6416
▁도기	-6417
▁티슈	-6418
거실장	-6419
부띠끄	-6420
▁gam	-6421
▁jun	-6422
▁mix	-6423
▁가습기	-6424
▁이스트	-6425
▁필골드	-6426
▁hiwa	-6427
가을	-6428
mse	-6429
▁메가	-6430
▁스텔라	-6431
방문시트지	-6432
▁독립스프링	-6433
덕션	-6434
틈새	-6435
vin	-6436
▁ok	-6437
▁교육	-6438
▁랜턴	-6439
▁시력	-6440
클램프	-6441
▁까사온	-6442
etter	-6443
▁custom	-6444
wi	-6445
네랄	-6446
411	-6447
709	-6448
▁ng	-6449
▁글렌	-6450
▁코카	-6451
쳇렌치	-6452
▁one	-6453
▁vmp	-6454
▁폴스부띠끄	-6455
▁숄	-6456
메가	-6457
퀴드	-6458
329	-6459
▁41	-6460
▁oo	-6461
▁점보	-6462
스터드	-6463
▁햄팬티	-6464
orita	-6465
▁레이지비	-6466
▁여자가방	-6467
▁그라데이션	-6468
▁edition	-6469
xa	-6470
yb	-6471
▁맘	-6472
꼬끄	-6473
니티	-6474
수저	-6475
075	-6476
076	-6477
iko	-6478
쇼핑몰	-6479
▁크라운	-6480
▁보테가베네타	-6481
dg	-6482
본기	-6483
지기	-6484
390	-6485
▁cu	-6486
▁영양	-6487
▁초보	-6488
▁킨록	-6489
▁토모	-6490
▁플로럴	-6491
wf	-6492
년도	-6493
밍고	-6494
홀릭	-6495
522	-6496
612	-6497
▁nx	-6498
▁대우	-6499
카메라	-6500
▁shir	-6501
hl	-6502
걸레	-6503
스파	-6504
724	-6505
812	-6506
ams	-6507
▁무스	-6508
▁캔들	-6509
▁bos	-6510
▁앵글선반	-6511
gp	-6512
kk	-6513
라마	-6514
시브	-6515
352	-6516
▁324	-6517
아르마니	-6518
▁하이파이	-6519
젤리케이스	-6520
알파	-6521
641	-6522
▁그릴	-6523
▁리피	-6524
월까지	-6525
▁psm	-6526
▁마리오	-6527
▁머니클립	-6528
▁여성벨트	-6529
py	-6530
냉동	-6531
370	-6532
ush	-6533
▁bw	-6534
▁조던	-6535
▁티어	-6536
던스랙	-6537
손잡이	-6538
프린팅	-6539
▁ind	-6540
▁체중계	-6541
▁다이어트	-6542
▁폴던스랙	-6543
▁gucci	-6544
▁다크브라운	-6545
▁갭	-6546
루프	-6547
모빌	-6548
온미	-6549
194	-6550
540	-6551
ane	-6552
ole	-6553
▁ao	-6554
▁투어	-6555
▁회색	-6556
리버치	-6557
▁asus	-6558
▁bear	-6559
▁토리버치	-6560
jm	-6561
랭스	-6562
비니	-6563
합기	-6564
069	-6565
263	-6566
523	-6567
▁엄마	-6568
▁조절	-6569
▁하우	-6570
1100	-6571
5000	-6572
aser	-6573
▁네오플	-6574
▁르꼬끄	-6575
▁목폴라	-6576
매트리스	-6577
악세사리	-6578
▁더리드우드	-6579
ua	-6580
란드	-6581
일반	-6582
쟁반	-6583
▁기존	-6584
▁대원	-6585
▁블러	-6586
▁트윙	-6587
타이즈	-6588
▁shoes	-6589
벌레	-6590
시블	-6591
폴햄	-6592
▁기린	-6593
▁열쇠	-6594
▁502	-6595
▁클레이	-6596
▁더블하트	-6597
▁스토어봄	-6598
▁bluet	-6599
▁쿠쿠토이즈	-6600
pu	-6601
861	-6602
▁간식	-6603
▁big	-6604
드라이기	-6605
▁제제데코	-6606
액자벽시계	-6607
su	-6608
sv	-6609
▁춘	-6610
리트	-6611
605	-6612
621	-6613
▁학습	-6614
모니터	-6615
▁dsl	-6616
▁비키니	-6617
▁슈피겐	-6618
▁투웨이	-6619
▁렌즈필터	-6620
▁레노마셔츠	-6621
박이	-6622
▁공간	-6623
▁앰플	-6624
일리베	-6625
▁bur	-6626
▁주유구	-6627
▁상일리베	-6628
▁project	-6629
451	-6630
704	-6631
▁dx	-6632
▁fk	-6633
▁기하	-6634
▁리포	-6635
▁뱀피	-6636
▁새미	-6637
▁편수	-6638
절단기	-6639
inal	-6640
uess	-6641
▁고어텍스	-6642
▁러브캣비쥬	-6643
▁상일리베가구	-6644
▁둥	-6645
공간	-6646
뭇잎	-6647
▁내부	-6648
▁앤디	-6649
▁nec	-6650
▁턱받이	-6651
▁작업공구	-6652
▁커스텀에이블	-6653
▁디자인액자시계	-6654
▁승	-6655
라썸	-6656
몬스	-6657
보증	-6658
지날	-6659
524	-6660
▁예츠	-6661
▁웨딩	-6662
▁착불	-6663
▁창신	-6664
▁버건디	-6665
▁브론즈	-6666
▁아모스	-6667
▁커피잔	-6668
▁wire	-6669
▁스타일온미	-6670
▁yellow	-6671
이언	-6672
하스	-6673
ato	-6674
▁98	-6675
▁rp	-6676
▁단군	-6677
▁피그	-6678
이트론	-6679
▁노카라	-6680
▁오르골	-6681
▁참장식	-6682
▁char	-6683
▁메탈시계	-6684
▁사과	-6685
▁착한	-6686
▁117	-6687
▁topgirl	-6688
zz	-6689
▁규	-6690
▁렌	-6691
슈아	-6692
크루	-6693
aco	-6694
chf	-6695
▁wk	-6696
▁리브	-6697
▁요하	-6698
▁전체	-6699
▁최신	-6700
▁티뷰	-6701
▁스토리	-6702
▁클렌저	-6703
▁card	-6704
범퍼케이스	-6705
송이	-6706
유아	-6707
086	-6708
ake	-6709
▁네비	-6710
▁방석	-6711
▁역할	-6712
▁전신	-6713
바이크	-6714
▁폴앤폴리	-6715
▁power	-6716
▁남성드로즈	-6717
fk	-6718
니다	-6719
반떼	-6720
엽서	-6721
955	-6722
▁글루	-6723
▁코치	-6724
프리카	-6725
1003	-6726
▁컬렉션	-6727
▁등산배낭	-6728
스툴	-6729
티나	-6730
▁드럼	-6731
▁만년	-6732
▁소재	-6733
▁코랄	-6734
모리스	-6735
▁401	-6736
▁voc	-6737
▁마이클	-6738
▁아동용	-6739
▁마스카라	-6740
je	-6741
▁칸	-6742
렌더	-6743
켈리	-6744
코코	-6745
253	-6746
sts	-6747
▁바바	-6748
스텔리	-6749
1800	-6750
▁spl	-6751
▁궁중	-6752
▁영문	-6753
▁우주	-6754
여자몰	-6755
▁edp	-6756
▁기저귀	-6757
▁세여자몰	-6758
▁메디테이션	-6759
기기	-6760
원주	-6761
192	-6762
905	-6763
▁양수	-6764
기능성	-6765
▁sky	-6766
▁xga	-6767
▁어바웃	-6768
▁브로이어	-6769
▁염	-6770
거스	-6771
워커	-6772
윈드	-6773
ast	-6774
▁가버	-6775
▁리플	-6776
▁메쎄	-6777
▁샌드	-6778
▁양산	-6779
▁제일	-6780
▁종합	-6781
개월분	-6782
나이더	-6783
▁btg	-6784
▁앨리스	-6785
▁테크핏	-6786
▁에이스텝	-6787
▁아놀드파마	-6788
여아긴소내의	-6789
va	-6790
라토	-6791
제리	-6792
▁기내	-6793
▁음식	-6794
▁풀컵	-6795
로우즈	-6796
오렌지	-6797
1004	-6798
▁174	-6799
▁mpg	-6800
▁골든벨	-6801
▁물놀이	-6802
▁스팽글	-6803
▁dbwa	-6804
▁guess	-6805
▁lcate	-6806
▁꼼	-6807
안전	-6808
오롱	-6809
워즈	-6810
학생	-6811
089	-6812
186	-6813
mts	-6814
▁렉스	-6815
▁소녀	-6816
▁첼시	-6817
▁탱고	-6818
▁줄넘기	-6819
▁챔	-6820
결점	-6821
흡수	-6822
079	-6823
738	-6824
ome	-6825
▁렌치	-6826
다리나	-6827
ones	-6828
무료배송	-6829
▁만다리나	-6830
ly	-6831
그라	-6832
등산	-6833
스프	-6834
장치	-6835
클렌	-6836
541	-6837
▁스탬	-6838
▁hss	-6839
▁긴바지	-6840
▁꽃무늬	-6841
▁노빌따	-6842
▁입체퍼즐	-6843
▁하이그로시	-6844
베로	-6845
재그	-6846
피온	-6847
피치	-6848
245	-6849
▁깅엄	-6850
▁엔산	-6851
▁원턱	-6852
▁인티	-6853
0003	-6854
▁기존가	-6855
▁루즈앤	-6856
▁아날도	-6857
▁최고급	-6858
▁친환경	-6859
▁코오롱	-6860
▁루즈앤라운지	-6861
705	-6862
▁ju	-6863
▁매치	-6864
▁어스	-6865
데일리	-6866
듀로이	-6867
▁장우산	-6868
▁만다리나덕	-6869
지크	-6870
234	-6871
271	-6872
904	-6873
ora	-6874
ris	-6875
▁yc	-6876
▁센스	-6877
▁피크	-6878
▁화병	-6879
1103	-6880
오리지널	-6881
▁sony	-6882
▁남성정장	-6883
▁알프렌즈	-6884
카라티셔츠	-6885
▁고급스러운	-6886
▁누리토이즈	-6887
▁레이저프린터	-6888
▁amorita	-6889
네르	-6890
담요	-6891
변형	-6892
펭귄	-6893
321	-6894
355	-6895
620	-6896
ach	-6897
bko	-6898
ont	-6899
▁리넨	-6900
▁무크	-6901
▁후면	-6902
폴리스	-6903
▁925	-6904
▁기본형	-6905
▁티포트	-6906
▁행복한	-6907
▁fore	-6908
▁golf	-6909
▁몬	-6910
싯봉	-6911
톰스	-6912
281	-6913
eld	-6914
▁트로	-6915
레이크	-6916
▁moll	-6917
hj	-6918
니컬	-6919
튜브	-6920
tsu	-6921
▁마카	-6922
▁맥주	-6923
▁스모	-6924
▁이사	-6925
정리대	-6926
▁out	-6927
▁ray	-6928
▁미디움	-6929
▁바구니	-6930
▁불스원	-6931
▁저반사	-6932
▁슈나이더	-6933
▁아날도바시니	-6934
cn	-6935
▁날개	-6936
▁내복	-6937
▁카스	-6938
▁포장	-6939
리수거	-6940
▁포스트	-6941
▁프랭키	-6942
▁been	-6943
▁전동공구	-6944
▁새미쥬얼리	-6945
▁맨투맨티셔츠	-6946
리치	-6947
227	-6948
▁구김	-6949
▁샤르	-6950
▁스코안	-6951
▁미미월드	-6952
▁leather	-6953
▁현관문방문시트지	-6954
pi	-6955
▁옴	-6956
가족	-6957
▁파포	-6958
▁ken	-6959
▁라이너	-6960
▁심리스	-6961
액세서리	-6962
▁orig	-6963
▁목욕놀이	-6964
▁series	-6965
▁블루투스스피커	-6966
모달	-6967
키트	-6968
331	-6969
▁fu	-6970
삼각대	-6971
▁mul	-6972
▁딸랑이	-6973
▁아동화	-6974
▁엔비룩	-6975
▁풋조이	-6976
▁섹시쿠키	-6977
인장	-6978
조명	-6979
화병	-6980
224	-6981
752	-6982
▁nn	-6983
▁고글	-6984
▁바다	-6985
▁보석	-6986
시슬리	-6987
1010	-6988
▁dlp	-6989
▁보드숏	-6990
▁숏팬츠	-6991
▁스칸디	-6992
▁퍼포먼스	-6993
▁크로커다일레이디	-6994
rr	-6995
베니	-6996
저가	-6997
amp	-6998
▁lx	-6999
▁리뽀	-7000
▁본넬	-7001
▁설치	-7002
그재그	-7003
▁kit	-7004
▁아이코	-7005
▁이스트팩	-7006
▁bluetooth	-7007
cw	-7008
미트	-7009
쟝센	-7010
226	-7011
nvy	-7012
▁로프	-7013
년세트	-7014
▁리모컨	-7015
▁정사각	-7016
▁토마토	-7017
압력밥솥	-7018
▁닥스숙녀	-7019
▁에꼴리에	-7020
▁딜	-7021
▁gi	-7022
▁모래	-7023
▁청정	-7024
▁크린	-7025
▁팬콧	-7026
멜로우	-7027
무전기	-7028
캐쥬얼	-7029
case	-7030
▁무결점	-7031
▁캐주얼티	-7032
▁토이트론	-7033
▁beige	-7034
▁밀튼스텔리	-7035
▁슬리브리스	-7036
▁트라이앵글	-7037
들판	-7038
위니	-7039
젠타	-7040
지지	-7041
커플	-7042
▁hv	-7043
▁디카	-7044
컴퍼니	-7045
▁zoo	-7046
▁모티브	-7047
▁안지크	-7048
▁메신저백	-7049
▁스테레오	-7050
▁아일랜드	-7051
▁에버라스트	-7052
베즈	-7053
캠프	-7054
809	-7055
mnv	-7056
▁kx	-7057
▁단색	-7058
▁마켓	-7059
▁압축	-7060
레이션	-7061
▁msi	-7062
▁미쟝센	-7063
▁1358	-7064
▁모노바비	-7065
▁핑크시슬리	-7066
sn	-7067
vv	-7068
▁넷	-7069
마일	-7070
290	-7071
▁댄디	-7072
▁웰빙	-7073
▁음악	-7074
▁향기	-7075
플라이어	-7076
▁newy	-7077
▁mollis	-7078
ok	-7079
트렌	-7080
381	-7081
ady	-7082
ini	-7083
▁십자	-7084
▁미라클	-7085
▁베스띠	-7086
▁데코라인	-7087
들러	-7088
분말	-7089
조립	-7090
▁짚업	-7091
▁펜디	-7092
분무기	-7093
▁리퀴드	-7094
▁받침대	-7095
▁jbans	-7096
▁라이프스타일	-7097
니에	-7098
상담	-7099
폰지	-7100
▁ij	-7101
▁살균	-7102
▁지니	-7103
ouch	-7104
▁에디슨	-7105
▁롱원피스	-7106
반팔티셔츠	-7107
pe	-7108
란츠	-7109
방향	-7110
카트	-7111
펠레	-7112
087	-7113
198	-7114
▁라켓	-7115
▁보습	-7116
게이션	-7117
▁네시스	-7118
▁에이지	-7119
▁레드파인	-7120
▁블루버드	-7121
▁색상선택	-7122
▁피트니스	-7123
▁홈플러스	-7124
▁다크네이비	-7125
▁newyork	-7126
gf	-7127
lr	-7128
드리	-7129
254	-7130
315	-7131
606	-7132
▁뚜껑	-7133
에센스	-7134
plow	-7135
▁005	-7136
▁ler	-7137
▁per	-7138
▁아이앤	-7139
▁애슬릿	-7140
▁지오투	-7141
▁hjwa	-7142
▁소매배색	-7143
▁티니위니	-7144
▁베스띠벨리	-7145
▁프로페셔널	-7146
▁vivien	-7147
바바	-7148
큐어	-7149
▁보정	-7150
▁야외	-7151
▁흡착	-7152
고양이	-7153
직배송	-7154
▁cla	-7155
▁프레드	-7156
▁헬스복	-7157
▁organic	-7158
▁빙	-7159
마인	-7160
컷팅	-7161
214	-7162
▁대림	-7163
▁로가	-7164
▁반찬	-7165
▁쥬얼	-7166
▁큐트	-7167
▁타원	-7168
실내복	-7169
▁골키퍼	-7170
▁다운점퍼	-7171
▁체크셔츠	-7172
▁크롬베즈	-7173
▁쿠키하우스	-7174
▁크로스바디	-7175
▁purplow	-7176
방식	-7177
272	-7178
▁nh	-7179
▁기능	-7180
▁도마	-7181
▁디아	-7182
▁애기	-7183
옐로우	-7184
▁곰돌이	-7185
▁보스턴백	-7186
▁붙	-7187
룩스	-7188
보장	-7189
볼륨	-7190
551	-7191
▁길라	-7192
▁던롭	-7193
▁동양	-7194
▁시어	-7195
▁알렉	-7196
▁옵션	-7197
브라켓	-7198
쿠스틱	-7199
0000	-7200
▁tom	-7201
다운점퍼	-7202
eshop	-7203
▁로가디스	-7204
▁원적외선	-7205
▁스포츠웨어	-7206
▁쎄	-7207
▁짱	-7208
아토	-7209
252	-7210
265	-7211
354	-7212
745	-7213
eat	-7214
▁고속	-7215
▁니키	-7216
▁양털	-7217
식탁보	-7218
1201	-7219
▁ban	-7220
▁bzv	-7221
▁면도기	-7222
▁플랫폼	-7223
▁tech	-7224
▁길라잡이	-7225
▁마더피아	-7226
▁체크배색	-7227
웨스트우드	-7228
oe	-7229
tu	-7230
세차	-7231
야기	-7232
760	-7233
▁gx	-7234
▁악어	-7235
▁치즈	-7236
▁태광	-7237
개세트	-7238
▁007	-7239
▁브라켓	-7240
▁빅토리	-7241
▁츄리닝	-7242
▁탈부착	-7243
▁dslr	-7244
▁nero	-7245
▁레이스업	-7246
▁원더브라	-7247
▁스포츠브라	-7248
비비	-7249
스퍼	-7250
362	-7251
764	-7252
841	-7253
▁석유	-7254
▁스무	-7255
▁신축	-7256
▁야채	-7257
▁제인	-7258
라이즈	-7259
▁334	-7260
▁enc	-7261
▁기하학	-7262
▁지포스	-7263
▁레이디스	-7264
▁오리지날	-7265
▁빨래건조대	-7266
▁비비안웨스트우드	-7267
od	-7268
상사	-7269
세라	-7270
지컬	-7271
퀄팅	-7272
키나	-7273
▁링클	-7274
▁치코	-7275
▁침낭	-7276
▁dot	-7277
▁nic	-7278
▁놀이방	-7279
▁엠폴햄	-7280
▁인덕션	-7281
▁프랭키뉴욕	-7282
니크	-7283
바람	-7284
봉제	-7285
위치	-7286
후아	-7287
228	-7288
tra	-7289
wbl	-7290
▁배송	-7291
▁뱅뱅	-7292
베이스	-7293
▁801	-7294
▁mid	-7295
▁나뭇잎	-7296
▁남아동	-7297
▁불가리	-7298
▁소나무	-7299
▁페이크	-7300
▁보이런던	-7301
▁암막커튼	-7302
▁마스터범퍼	-7303
▁블루레이스	-7304
▁권	-7305
▁덤	-7306
니퍼	-7307
머신	-7308
펀지	-7309
413	-7310
mpt	-7311
ume	-7312
▁ea	-7313
▁달려	-7314
스마트	-7315
압착기	-7316
▁폰케이스	-7317
▁희	-7318
aki	-7319
▁365	-7320
▁dms	-7321
▁로로텐	-7322
▁마란츠	-7323
▁플립케이스	-7324
▁외부보호필름	-7325
du	-7326
물병	-7327
실러	-7328
주방	-7329
327	-7330
708	-7331
▁슬럽	-7332
▁유럽	-7333
▁케미	-7334
▁틈새	-7335
부사각	-7336
어댑터	-7337
▁pvc	-7338
▁샤트렌	-7339
▁가죽시계	-7340
nr	-7341
리미	-7342
리카	-7343
스틸	-7344
터프	-7345
▁구제	-7346
▁세븐	-7347
▁foc	-7348
▁앙고라	-7349
블레이드	-7350
▁3811	-7351
▁abko	-7352
▁국내제작	-7353
▁매직캐슬	-7354
려한	-7355
243	-7356
740	-7357
▁분또	-7358
▁아덴	-7359
▁영국	-7360
6000	-7361
▁515	-7362
▁lte	-7363
ation	-7364
▁4811	-7365
▁ferrag	-7366
▁픽	-7367
매치	-7368
없는	-7369
552	-7370
▁퍼프	-7371
▁필드	-7372
퀘어드	-7373
클러치	-7374
▁bon	-7375
▁마젠타	-7376
▁조아스	-7377
▁퍼시스	-7378
▁daiz	-7379
▁골프용품	-7380
▁리바이스바디웨어	-7381
▁챠	-7382
189	-7383
▁노블	-7384
▁로이	-7385
▁타키	-7386
▁퍼니	-7387
작나무	-7388
▁jew	-7389
▁ltg	-7390
▁uhd	-7391
▁고스트	-7392
▁컨트롤	-7393
▁코듀로이	-7394
▁핸드크림	-7395
내장	-7396
로잉	-7397
루트	-7398
리는	-7399
면기	-7400
aji	-7401
▁티르	-7402
▁화분	-7403
1804	-7404
▁415	-7405
▁cur	-7406
▁mtm	-7407
▁샤이니	-7408
▁샤이닝	-7409
▁포터블	-7410
▁moon	-7411
▁남자가방	-7412
▁다이나믹	-7413
▁리피트리	-7414
▁이지웨어	-7415
▁corner	-7416
▁레볼루션가드	-7417
▁범	-7418
베드	-7419
베스	-7420
소리	-7421
젤라	-7422
지원	-7423
▁샤프	-7424
▁얼썸	-7425
▁클루	-7426
▁포인	-7427
▁폴딩	-7428
▁gig	-7429
▁레드박스	-7430
▁예작셔츠	-7431
▁균	-7432
볶음	-7433
tle	-7434
▁동원	-7435
▁스쿨	-7436
▁테라	-7437
에이지	-7438
클리프	-7439
▁119	-7440
▁ren	-7441
▁바쏘옴므	-7442
▁디스퀘어드	-7443
▁ferragamo	-7444
bf	-7445
▁겔	-7446
래즈	-7447
739	-7448
▁가든	-7449
▁로드	-7450
▁향수	-7451
▁회의	-7452
신발장	-7453
1700	-7454
▁006	-7455
▁애나멜	-7456
▁포래즈	-7457
레리	-7458
로사	-7459
벤트	-7460
219	-7461
▁xc	-7462
▁기념	-7463
▁병행	-7464
▁보르	-7465
▁아머	-7466
▁아미	-7467
▁전지	-7468
▁총알	-7469
▁나이트	-7470
▁업무용	-7471
▁수제구두	-7472
글로	-7473
리르	-7474
슬러	-7475
운전	-7476
623	-7477
▁노르	-7478
▁모카	-7479
▁방진	-7480
▁양념	-7481
▁탄탄	-7482
▁420	-7483
아르베니	-7484
▁mens	-7485
▁남성로퍼	-7486
▁반팔저지	-7487
▁해머드릴	-7488
▁pants	-7489
▁트레이닝티	-7490
맨투맨티셔츠	-7491
▁jd	-7492
▁니퍼	-7493
▁레니	-7494
▁리나	-7495
▁목공	-7496
▁비오	-7497
▁카고	-7498
▁테리	-7499
▁포르	-7500
▁폼폼	-7501
▁피아	-7502
▁135	-7503
▁스테판	-7504
▁오로라	-7505
▁포커스	-7506
▁나인스텝	-7507
▁아나이스	-7508
▁아웃밴드	-7509
▁니콜아르베니	-7510
yh	-7511
리모	-7512
앰프	-7513
오븐	-7514
코어	-7515
▁만능	-7516
▁수도	-7517
▁컷쏘	-7518
크레용	-7519
▁lin	-7520
▁mok	-7521
▁보슈아	-7522
▁아이잗	-7523
▁트로이	-7524
▁골드조아	-7525
▁라운드티	-7526
▁엔산마운트	-7527
사람	-7528
콜로	-7529
078	-7530
▁맨스	-7531
▁유압	-7532
▁피부	-7533
클레이	-7534
fwso	-7535
▁달려라	-7536
▁수공구	-7537
▁아반떼	-7538
▁에브리	-7539
하드케이스포함	-7540
▁쌀	-7541
보조	-7542
토스	-7543
608	-7544
906	-7545
oga	-7546
▁라셀	-7547
▁짐볼	-7548
▁트라	-7549
▁집들이	-7550
빅사이즈	-7551
▁파르펠레	-7552
▁푸른들판	-7553
▁apple	-7554
▁wallet	-7555
앤드	-7556
앤쿡	-7557
언니	-7558
튀김	-7559
ile	-7560
zia	-7561
▁402	-7562
▁log	-7563
▁에스까	-7564
▁노프레임	-7565
▁티르리르	-7566
▁닥스넥타이	-7567
▁빔프로젝터	-7568
▁아쿠아슈즈	-7569
eb	-7570
ya	-7571
▁쭈	-7572
글란	-7573
유통	-7574
전원	-7575
851	-7576
▁군모	-7577
▁달콤	-7578
ef	-7579
aho	-7580
whx	-7581
▁거품	-7582
▁리튬	-7583
▁스켓	-7584
민소매	-7585
▁you	-7586
▁lcst	-7587
▁뷔스티에	-7588
▁original	-7589
글이	-7590
루코	-7591
시야	-7592
제조	-7593
피트	-7594
077	-7595
282	-7596
353	-7597
909	-7598
orm	-7599
▁gw	-7600
▁rk	-7601
▁기계	-7602
▁루비	-7603
▁수술	-7604
▁위빙	-7605
▁이자	-7606
▁티아	-7607
▁한솔	-7608
▁헤르	-7609
지스톤	-7610
코어스	-7611
▁선수용	-7612
▁아이팝	-7613
▁트랙탑	-7614
▁파크론	-7615
남아반소	-7616
▁prada	-7617
▁forever	-7618
맑은	-7619
재킷	-7620
266	-7621
640	-7622
eck	-7623
mtp	-7624
▁야광	-7625
▁워너	-7626
▁쿨룩	-7627
다용도	-7628
아후아	-7629
▁art	-7630
▁아폴로	-7631
▁풀커버	-7632
구스패너	-7633
▁소꿉놀이	-7634
▁ziozia	-7635
ze	-7636
캔디	-7637
▁독립	-7638
▁타올	-7639
▁평생	-7640
루즈핏	-7641
메모리	-7642
▁ree	-7643
▁실리만	-7644
▁이동수	-7645
테스터기	-7646
▁seiko	-7647
▁venus	-7648
▁여성목걸이	-7649
▁캐주얼백팩	-7650
mq	-7651
▁샴	-7652
버블	-7653
수평	-7654
야상	-7655
553	-7656
eta	-7657
ily	-7658
▁금연	-7659
▁무늬	-7660
▁선수	-7661
▁hum	-7662
▁mer	-7663
▁도루코	-7664
▁스켓쥐	-7665
▁카이아	-7666
▁cnhr	-7667
▁남성백팩	-7668
▁비클리프	-7669
▁앤디애플	-7670
▁여성단화	-7671
rc	-7672
wk	-7673
그래	-7674
▁fh	-7675
▁금호	-7676
▁데논	-7677
▁도매	-7678
▁자유	-7679
▁정밀	-7680
인두기	-7681
▁다니엘	-7682
▁커브캡	-7683
▁뚜아후아	-7684
▁샤워커튼	-7685
대야	-7686
소형	-7687
363	-7688
412	-7689
824	-7690
▁tx	-7691
▁녹차	-7692
▁유광	-7693
▁편광	-7694
커넥트	-7695
▁303	-7696
▁nba	-7697
▁오키즈	-7698
▁이마트	-7699
▁쿨제이	-7700
크리스탈	-7701
▁롱슬리브	-7702
▁선물포장	-7703
▁식탁세트	-7704
▁웨이스트	-7705
▁water	-7706
wl	-7707
가닉	-7708
회전	-7709
742	-7710
ven	-7711
▁노바	-7712
▁라운	-7713
▁최초	-7714
가습기	-7715
퍼니처	-7716
1701	-7717
▁동물원	-7718
▁laur	-7719
▁폴스미스	-7720
▁gaming	-7721
망사	-7722
지탈	-7723
키친	-7724
236	-7725
283	-7726
▁px	-7727
박이장	-7728
발싸개	-7729
▁아일렛	-7730
▁탄생석	-7731
▁마이클코어스	-7732
▁웬	-7733
밀폐	-7734
사보	-7735
크만	-7736
733	-7737
arm	-7738
bok	-7739
▁감각	-7740
▁도비	-7741
▁로봇	-7742
▁아토	-7743
▁올림	-7744
▁포크	-7745
레이싱	-7746
▁utp	-7747
▁공구함	-7748
▁디저트	-7749
▁로터프	-7750
▁brent	-7751
도르	-7752
마르	-7753
red	-7754
uke	-7755
usb	-7756
▁fb	-7757
▁sx	-7758
▁도형	-7759
▁아로	-7760
▁포어	-7761
안경테	-7762
안전화	-7763
원주점	-7764
▁글로벌	-7765
▁메탈릭	-7766
▁특대형	-7767
▁프라이	-7768
amond	-7769
▁에어젤리	-7770
▁차량용품	-7771
▁women	-7772
▁멀	-7773
모직	-7774
자루	-7775
357	-7776
737	-7777
▁xk	-7778
▁글램	-7779
▁세일	-7780
▁앨빈	-7781
▁따뜻한	-7782
▁스쿼드	-7783
▁헌트키즈	-7784
▁chaji	-7785
▁플라워패턴	-7786
▁정수기필터호환	-7787
▁갤럭시그랜드맥스	-7788
oh	-7789
▁켈	-7790
면피	-7791
플랍	-7792
▁io	-7793
▁사진	-7794
▁세신	-7795
▁스콜	-7796
▁정식	-7797
▁주문	-7798
▁플랩	-7799
▁nmc	-7800
▁오리엔	-7801
▁콩순이	-7802
▁남성의류	-7803
▁옐로우스	-7804
▁카이아크만	-7805
▁collect	-7806
▁율	-7807
그리	-7808
매쉬	-7809
목욕	-7810
와프	-7811
555	-7812
▁wf	-7813
▁넥스	-7814
▁롤리	-7815
▁핀턱	-7816
캐릭터	-7817
▁bak	-7818
▁epb	-7819
▁앞머리	-7820
▁제이씨	-7821
▁2014	-7822
▁best	-7823
▁그린토이즈	-7824
▁토마스사보	-7825
포인트스티커	-7826
nn	-7827
루멘	-7828
세대	-7829
품격	-7830
msf	-7831
▁김수	-7832
▁낮은	-7833
▁알람	-7834
▁임팩	-7835
스티치	-7836
있어요	-7837
▁nat	-7838
▁신제품	-7839
▁벽걸이형	-7840
▁스크래치	-7841
▁펠로우즈	-7842
구성품증정	-7843
▁orange	-7844
▁즉	-7845
▁킥	-7846
날다	-7847
토끼	-7848
파티	-7849
화수	-7850
324	-7851
tsf	-7852
▁페어	-7853
tern	-7854
▁403	-7855
▁유무선	-7856
▁컨실러	-7857
▁크레용	-7858
▁자동벨트	-7859
▁아메리칸투어	-7860
yc	-7861
▁댕	-7862
▁미아	-7863
▁비쥬	-7864
▁laf	-7865
▁ops	-7866
▁vbr	-7867
▁모니카	-7868
▁오토컴	-7869
▁온풍기	-7870
패딩점퍼	-7871
ounge	-7872
▁남성벨트	-7873
▁수영용품	-7874
케익	-7875
포즈	-7876
542	-7877
732	-7878
cus	-7879
▁스쿠	-7880
스카이	-7881
▁세키나	-7882
▁tote	-7883
▁와인앤쿡	-7884
▁패션시계	-7885
▁남성서류가방	-7886
▁레볼루션글라스	-7887
모양	-7888
749	-7889
▁97	-7890
▁fd	-7891
▁발망	-7892
▁베디	-7893
▁호보	-7894
컵브라	-7895
▁트렌디	-7896
▁mill	-7897
▁과일나라	-7898
▁캐주얼벨트	-7899
jr	-7900
니쉬	-7901
니프	-7902
드롭	-7903
아나	-7904
어로	-7905
왕국	-7906
장미	-7907
컨셉	-7908
256	-7909
▁스누	-7910
▁익스	-7911
체인지	-7912
▁케이엘	-7913
▁0117	-7914
▁hzts	-7915
▁방탄필름	-7916
▁삼나무원목	-7917
▁mokster	-7918
xo	-7919
틀벨	-7920
097	-7921
820	-7922
new	-7923
ney	-7924
▁가능	-7925
▁넥센	-7926
▁otg	-7927
▁젠브로	-7928
▁최초가	-7929
▁액정필름	-7930
▁여성귀걸이	-7931
▁옐로우스톤	-7932
▁카라티셔츠	-7933
cambridge	-7934
깊은	-7935
모음	-7936
센서	-7937
투톤	-7938
ank	-7939
und	-7940
▁동봉	-7941
▁측정	-7942
스토어	-7943
▁144	-7944
▁amp	-7945
▁머그컵	-7946
▁비주얼	-7947
▁상하의	-7948
스튜디오	-7949
▁골드리아	-7950
▁잉글랜더	-7951
▁충격흡수	-7952
▁에이치커넥트	-7953
▁인테리어소품	-7954
▁wireless	-7955
▁cambridge	-7956
▁clubcambridge	-7957
pf	-7958
엣홈	-7959
타쿠	-7960
히트	-7961
197	-7962
ana	-7963
▁구매	-7964
▁내장	-7965
▁보라	-7966
▁콘디	-7967
▁콘솔	-7968
▁타월	-7969
▁특별	-7970
1280	-7971
2100	-7972
▁011	-7973
▁인디안	-7974
▁kaya	-7975
▁skin	-7976
▁여자구두	-7977
▁천연면피	-7978
라브	-7979
명품	-7980
314	-7981
ics	-7982
▁마틸	-7983
▁소보	-7984
▁에드	-7985
▁페르	-7986
▁흰색	-7987
풀세트	-7988
▁mcn	-7989
▁글로리	-7990
▁시그니	-7991
▁초콜릿	-7992
▁muse	-7993
▁반팔져지	-7994
▁제이리스	-7995
▁방독마스크	-7996
fo	-7997
▁wx	-7998
▁더샘	-7999
▁마틴	-8000
▁무드	-8001
▁물결	-8002
▁빨질	-8003
▁엠블	-8004
▁전판	-8005
보관함	-8006
살균기	-8007
▁175	-8008
▁디퓨저	-8009
▁신축성	-8010
▁하이퍼	-8011
▁항공점퍼	-8012
니트원피스	-8013
▁찬	-8014
프롬	-8015
▁라바	-8016
▁미씨	-8017
▁페니	-8018
▁희망	-8019
개묶음	-8020
세정제	-8021
▁512	-8022
▁fur	-8023
▁그린티	-8024
▁시보리	-8025
레이어드	-8026
입체퍼즐	-8027
▁빨질레리	-8028
▁아이섀도우	-8029
▁및	-8030
▁활	-8031
누리	-8032
러그	-8033
수염	-8034
피타	-8035
238	-8036
369	-8037
ecr	-8038
ise	-8039
yst	-8040
▁금장	-8041
▁상품	-8042
▁수딩	-8043
▁윈터	-8044
▁클랜	-8045
▁타입	-8046
애비뉴	-8047
▁sht	-8048
▁미씨엘라	-8049
▁해바라기	-8050
▁misoga	-8051
음료	-8052
토닉	-8053
344	-8054
▁cq	-8055
▁jy	-8056
▁바닥	-8057
▁반목	-8058
세척기	-8059
페리얼	-8060
1300	-8061
▁aav	-8062
▁afq	-8063
▁maw	-8064
▁설화수	-8065
▁아시안	-8066
▁프린지	-8067
▁2700	-8068
▁mark	-8069
ln	-8070
리니	-8071
리체	-8072
333	-8073
366	-8074
▁가슴	-8075
사은품	-8076
▁ess	-8077
▁lip	-8078
▁굽높이	-8079
▁알로에	-8080
브래지어	-8081
임팩렌치	-8082
크리스티	-8083
▁1117	-8084
▁로보스터	-8085
▁욕실용품	-8086
▁테이퍼드	-8087
▁화이트골드	-8088
▁모바일하우스	-8089
▁닭	-8090
쇄기	-8091
수풀	-8092
345	-8093
423	-8094
▁구름	-8095
▁균일	-8096
▁꾸띠	-8097
▁로제	-8098
▁양문	-8099
▁없음	-8100
▁코시	-8101
체중계	-8102
프라니	-8103
프레샤	-8104
4000	-8105
▁eva	-8106
▁오토반	-8107
▁oliv	-8108
▁step	-8109
▁니모키즈	-8110
▁소보제화	-8111
▁피그먼트	-8112
▁speaker	-8113
wq	-8114
관리	-8115
구리	-8116
414	-8117
ire	-8118
kit	-8119
▁sq	-8120
▁루시	-8121
▁명화	-8122
▁벤큐	-8123
▁아코	-8124
elle	-8125
▁box	-8126
▁byl	-8127
▁미아트	-8128
▁hood	-8129
▁sata	-8130
▁그라인더	-8131
▁노브랜드	-8132
▁에스까다	-8133
▁트리콜로	-8134
▁폴햄키즈	-8135
▁노트북가방	-8136
▁드레스날다	-8137
▁에이스침대	-8138
▁아디다스오리지널	-8139
▁뽄	-8140
저스	-8141
326	-8142
joy	-8143
▁문의	-8144
▁소스	-8145
▁스칼	-8146
라이더	-8147
자동차	-8148
▁hdd	-8149
▁리페어	-8150
바디수트	-8151
▁8000	-8152
▁bean	-8153
▁엘르이너	-8154
▁팜스프링	-8155
▁코코애비뉴	-8156
▁코리아보드게임	-8157
bd	-8158
디비	-8159
물쇠	-8160
펌킨	-8161
093	-8162
094	-8163
337	-8164
abg	-8165
ier	-8166
▁악기	-8167
▁커터	-8168
라이징	-8169
마사지	-8170
부소매	-8171
▁145	-8172
▁라셀르	-8173
▁미스터	-8174
▁베스티	-8175
▁샤워기	-8176
▁아이브	-8177
▁토드백	-8178
▁하네스	-8179
▁클릭앤미	-8180
▁small	-8181
▁제이에이치	-8182
▁브리프케이스	-8183
bn	-8184
▁격	-8185
고래	-8186
금통	-8187
직포	-8188
필통	-8189
하임	-8190
258	-8191
753	-8192
▁fz	-8193
▁ru	-8194
▁대리	-8195
▁모나	-8196
▁호텔	-8197
▁휴지	-8198
프레소	-8199
▁kle	-8200
▁vga	-8201
▁나무뜰	-8202
▁캡모자	-8203
▁리포비아	-8204
▁창신리빙	-8205
▁트로이카	-8206
▁네비게이션	-8207
▁포켓몬스터	-8208
▁남성크로스백	-8209
▁엠포리오아르마니	-8210
wm	-8211
스런	-8212
에코	-8213
오공	-8214
추가	-8215
244	-8216
590	-8217
622	-8218
762	-8219
▁로레	-8220
▁리오	-8221
▁이하	-8222
슬링백	-8223
임팩트	-8224
▁dec	-8225
▁바이크	-8226
▁전화기	-8227
▁스네이크	-8228
▁아름다운	-8229
▁위프와프	-8230
▁전기히터	-8231
▁트레킹화	-8232
▁배드민턴라켓	-8233
▁제이에이치스타일	-8234
▁셔	-8235
꿈치	-8236
▁라자	-8237
▁타탄	-8238
나이프	-8239
브리프	-8240
온도계	-8241
이비드	-8242
utti	-8243
▁엔프라니	-8244
▁디자인수풀	-8245
▁클라우드로랑	-8246
▁brentwood	-8247
▁선물용하드케이스포함	-8248
▁샹	-8249
고무	-8250
앤유	-8251
양산	-8252
캐시	-8253
콤마	-8254
218	-8255
460	-8256
911	-8257
com	-8258
pro	-8259
▁고화	-8260
▁투키	-8261
▁판촉	-8262
1400	-8263
made	-8264
▁211	-8265
▁ego	-8266
▁인텐스	-8267
▁6000	-8268
▁7000	-8269
▁벨라이프	-8270
▁타키비즈	-8271
ll	-8272
드라	-8273
라잇	-8274
렐라	-8275
시즌	-8276
싸보	-8277
포토	-8278
096	-8279
▁도장	-8280
▁러쉬	-8281
▁리뉴	-8282
에뮤즈	-8283
ress	-8284
▁tri	-8285
▁wht	-8286
▁김수열	-8287
▁아스토	-8288
▁웅가로	-8289
▁홈세트	-8290
▁flat	-8291
▁붙박이장	-8292
▁까미에뮤즈	-8293
▁헌트이너웨어	-8294
드슨	-8295
러플	-8296
소녀	-8297
wpt	-8298
▁vb	-8299
▁승용	-8300
▁촉촉	-8301
디스크	-8302
오가닉	-8303
후레쉬	-8304
▁165	-8305
▁195	-8306
▁아리움	-8307
▁프랑스	-8308
생활건강	-8309
▁size	-8310
▁예스뷰티	-8311
▁jewel	-8312
▁스테판조셉	-8313
▁실버목걸이	-8314
hg	-8315
다노	-8316
비나	-8317
헬멧	-8318
196	-8319
656	-8320
▁nu	-8321
▁디바	-8322
▁맞춤	-8323
▁실험	-8324
▁유희	-8325
틸버리	-8326
▁jbl	-8327
▁val	-8328
▁엘리트	-8329
▁오로프	-8330
▁3200	-8331
▁shock	-8332
▁junior	-8333
dh	-8334
▁쌈	-8335
공주	-8336
릴라	-8337
스쿨	-8338
지마	-8339
코더	-8340
726	-8341
csl	-8342
▁바로	-8343
▁팀버	-8344
헤로스	-8345
▁bar	-8346
▁bir	-8347
▁cot	-8348
▁uni	-8349
▁르피타	-8350
▁손오공	-8351
▁kami	-8352
▁play	-8353
▁가스렌지	-8354
▁파리앤유	-8355
▁scoan	-8356
▁분홍코끼리	-8357
디즈	-8358
무버	-8359
부대	-8360
표시	-8361
778	-8362
anc	-8363
▁ae	-8364
▁밀키	-8365
▁배변	-8366
▁아스	-8367
스티아	-8368
에이터	-8369
1803	-8370
▁uds	-8371
▁wmp	-8372
▁잔체크	-8373
▁2200	-8374
▁엘르옴므	-8375
kv	-8376
적인	-8377
촬영	-8378
테카	-8379
815	-8380
822	-8381
▁부루	-8382
스트링	-8383
화장대	-8384
▁340	-8385
▁dia	-8386
▁압착기	-8387
▁프린터	-8388
▁1988	-8389
▁각도조절	-8390
▁인텐시브	-8391
▁클라이드앤	-8392
▁ccutti	-8393
▁커스텀멜로우	-8394
pb	-8395
러블	-8396
와펜	-8397
▁근호	-8398
▁기어	-8399
▁비바	-8400
▁엑소	-8401
▁컴스	-8402
▁쿠첸	-8403
크리너	-8404
onne	-8405
▁040	-8406
▁480	-8407
▁오메가	-8408
▁유희왕	-8409
▁타이어	-8410
▁jaho	-8411
▁앵글부츠	-8412
▁웨스트프롬	-8413
▁토토헤로스	-8414
가전	-8415
내복	-8416
모드	-8417
716	-8418
▁ri	-8419
▁wn	-8420
▁밤색	-8421
▁섬유	-8422
▁코르	-8423
▁퍼펙	-8424
토리아	-8425
▁라이브	-8426
▁레니본	-8427
▁에너지	-8428
▁맨투맨티	-8429
▁자작나무	-8430
▁지오다노	-8431
액정보호필름	-8432
산더	-8433
샌더	-8434
실크	-8435
티니	-8436
316	-8437
339	-8438
718	-8439
▁라면	-8440
▁먼지	-8441
▁시즈	-8442
▁진밤	-8443
▁클레	-8444
목양말	-8445
1301	-8446
▁gen	-8447
▁란제리	-8448
▁젠틀맨	-8449
abyte	-8450
▁paul	-8451
▁sadi	-8452
▁바나바나	-8453
▁아스토레	-8454
▁정품잉크	-8455
▁지그재그	-8456
▁폭스레이싱	-8457
▁가죽크로스백	-8458
▁의	-8459
▁가벼	-8460
▁공주	-8461
▁둥근	-8462
▁볼펜	-8463
▁팩트	-8464
▁풋살	-8465
▁소나타	-8466
▁알파벳	-8467
▁지갑형	-8468
▁쓰리픽스	-8469
▁놀이방매트	-8470
▁마일드워머	-8471
▁올리비아데코	-8472
닝구	-8473
리쉬	-8474
왈렛	-8475
티카	-8476
푸스	-8477
730	-8478
jin	-8479
▁if	-8480
▁곤색	-8481
▁농구	-8482
▁백색	-8483
▁하나	-8484
▁332	-8485
▁게리오	-8486
▁구김스	-8487
▁도시락	-8488
▁반다이	-8489
▁샐러드	-8490
▁스크린	-8491
▁줄무늬	-8492
▁클랜씨	-8493
옥스포드	-8494
▁본차이나	-8495
▁카렌화이트	-8496
▁마일드워머핸들커버	-8497
fj	-8498
버너	-8499
전등	-8500
wop	-8501
▁jl	-8502
▁찬기	-8503
부츠컷	-8504
▁레이밴	-8505
▁넥타이핀	-8506
▁뭉키데코	-8507
▁아이리버	-8508
▁인기상품	-8509
▁bosch	-8510
▁olive	-8511
▁sound	-8512
레트	-8513
스웰	-8514
▁강원	-8515
▁맨즈	-8516
▁바둑	-8517
▁스퍼	-8518
▁실키	-8519
▁인더	-8520
메카드	-8521
미포함	-8522
쫄바지	-8523
▁dcs	-8524
▁eps	-8525
▁강아지옷	-8526
▁랜덤발송	-8527
▁슬라이더	-8528
▁오프숄더	-8529
▁gigabyte	-8530
엔씨	-8531
378	-8532
744	-8533
dph	-8534
oop	-8535
▁신콘	-8536
▁필통	-8537
크렌치	-8538
탈부착	-8539
ital	-8540
▁마그네	-8541
▁타거스	-8542
▁아이라이너	-8543
pw	-8544
꿰기	-8545
쥬쥬	-8546
향수	-8547
328	-8548
▁농심	-8549
▁센서	-8550
▁스캣	-8551
▁조명	-8552
▁캐디	-8553
▁한성	-8554
▁lsw	-8555
▁mtb	-8556
▁기내용	-8557
▁스탠리	-8558
▁최저가	-8559
▁펫모닝	-8560
▁플루크	-8561
리스노트	-8562
▁냉난방기	-8563
▁알렉산더	-8564
▁웨지우드	-8565
▁임페리얼	-8566
▁나이키골프	-8567
▁남성슬립온	-8568
▁솔로이스트	-8569
▁jacket	-8570
▁코데즈컴바인이너웨어	-8571
mk	-8572
sg	-8573
급형	-8574
손목	-8575
아름	-8576
291	-8577
▁거북	-8578
▁나스	-8579
▁루피	-8580
▁숫자	-8581
▁우수	-8582
▁kip	-8583
▁고데기	-8584
▁쉐이크	-8585
▁하이만	-8586
▁foce	-8587
▁miss	-8588
▁라자가구	-8589
▁코리아나	-8590
▁한국도자기	-8591
xd	-8592
날개	-8593
르츠	-8594
샤인	-8595
쥬르	-8596
▁kg	-8597
▁대백	-8598
▁뮤즈	-8599
▁소프	-8600
▁외장	-8601
▁원석	-8602
▁med	-8603
▁벨라홈	-8604
▁셔츠형	-8605
▁전기온	-8606
▁클래스	-8607
▁탁상용	-8608
수면조끼	-8609
▁꾸미기닷컴	-8610
디드	-8611
캐럿	-8612
패킹	-8613
피언	-8614
ips	-8615
▁메인	-8616
▁점프	-8617
▁캐슬	-8618
▁피카	-8619
계산기	-8620
▁scs	-8621
▁골드팡	-8622
▁스캣쥐	-8623
▁아몬드	-8624
노프레임	-8625
▁sand	-8626
▁square	-8627
▁여성앵클부츠	-8628
▁헝	-8629
락스	-8630
빨래	-8631
249	-8632
515	-8633
ble	-8634
▁tz	-8635
▁버드	-8636
▁비데	-8637
▁이상	-8638
▁인텔	-8639
▁제로	-8640
▁헌팅	-8641
ider	-8642
▁199	-8643
▁sea	-8644
▁만년필	-8645
▁미네랄	-8646
▁밀라노	-8647
▁솔루션	-8648
▁지브라	-8649
▁모이스춰	-8650
▁잔스포츠	-8651
▁충전드릴	-8652
▁headph	-8653
▁낱	-8654
▁잘	-8655
티컬	-8656
276	-8657
805	-8658
951	-8659
960	-8660
▁거리	-8661
▁도그	-8662
▁원단	-8663
▁젠더	-8664
▁화사	-8665
1802	-8666
▁mam	-8667
▁물방울	-8668
▁배구공	-8669
▁알파카	-8670
▁엠케이	-8671
▁퀸침대	-8672
리수거함	-8673
플랫슈즈	-8674
▁2400	-8675
▁hjho	-8676
▁turn	-8677
▁캠브리지	-8678
▁셋	-8679
193	-8680
425	-8681
470	-8682
754	-8683
ave	-8684
▁누드	-8685
▁벨로	-8686
▁엠피	-8687
▁코니	-8688
▁판타	-8689
▁형광	-8690
▁850	-8691
▁롱기장	-8692
▁type	-8693
▁zooc	-8694
▁디너	-8695
▁오크	-8696
▁전사	-8697
▁큐롯	-8698
▁701	-8699
▁shv	-8700
▁실바니	-8701
▁슬림셔츠	-8702
▁에스티코	-8703
▁티아리스	-8704
▁lkmade	-8705
▁미니크로스백	-8706
▁diamond	-8707
hh	-8708
수유	-8709
쿠마	-8710
237	-8711
268	-8712
516	-8713
▁서클	-8714
▁안감	-8715
▁이프	-8716
▁쭈쭈	-8717
▁페인	-8718
스웨터	-8719
▁난닝구	-8720
▁부루앤	-8721
▁페이유	-8722
▁폰조이	-8723
▁플렉스	-8724
▁피규어	-8725
▁레귤러핏	-8726
▁실바니안	-8727
▁트위스트	-8728
▁명품브랜드	-8729
▁lounge	-8730
▁balance	-8731
kb	-8732
니발	-8733
092	-8734
343	-8735
ham	-8736
mop	-8737
mtj	-8738
▁결혼	-8739
▁경서	-8740
▁대웅	-8741
▁볼드	-8742
▁엑시	-8743
끌레르	-8744
제거기	-8745
▁382	-8746
▁neo	-8747
▁섀도우	-8748
▁정장수트	-8749
▁커스커즈	-8750
▁캐리스노트	-8751
▁한국본사정품	-8752
▁earring	-8753
jh	-8754
▁급	-8755
재료	-8756
튼튼	-8757
095	-8758
614	-8759
▁hf	-8760
▁꼼빠	-8761
▁뱀부	-8762
▁셀카	-8763
▁액션	-8764
▁잔꽃	-8765
▁조은	-8766
▁펭귄	-8767
리스터	-8768
▁430	-8769
▁610	-8770
▁asb	-8771
▁dig	-8772
▁골드앤	-8773
▁엘레쎄	-8774
체크셔츠	-8775
▁탠디여성	-8776
▁sport	-8777
▁대백아울렛	-8778
▁여자크로스백	-8779
남아긴소아동내의	-8780
▁코리아보드게임즈	-8781
▁깨	-8782
▁훼	-8783
롤러	-8784
변환	-8785
샌드	-8786
199	-8787
631	-8788
▁wg	-8789
▁正品	-8790
▁규수	-8791
디베어	-8792
웨이브	-8793
▁020	-8794
▁den	-8795
▁가벼운	-8796
▁엘로드	-8797
▁여자벨트	-8798
▁정식수입	-8799
▁총알배송	-8800
▁에이비플러스	-8801
ae	-8802
미디	-8803
크래	-8804
하게	-8805
285	-8806
549	-8807
844	-8808
▁모모	-8809
▁asa	-8810
▁gia	-8811
▁hos	-8812
▁sal	-8813
▁등산화	-8814
▁캐스키	-8815
▁ring	-8816
▁아이파크	-8817
▁캐논정품	-8818
▁헤스티아	-8819
▁넥센타이어	-8820
▁캐스키드슨	-8821
▁reebok	-8822
▁womens	-8823
▁sneaker	-8824
마개	-8825
▁xd	-8826
▁코드	-8827
▁702	-8828
▁shi	-8829
▁아모레	-8830
▁놈스타일	-8831
▁더데이걸	-8832
▁라이트컴	-8833
▁핑크골드	-8834
za	-8835
냉식	-8836
녹음	-8837
니카	-8838
모도	-8839
수량	-8840
앤뎀	-8841
383	-8842
862	-8843
cho	-8844
▁수평	-8845
▁슬리	-8846
▁아노	-8847
▁참존	-8848
▁치킨	-8849
▁커널	-8850
▁햇츠	-8851
중지갑	-8852
▁lpm	-8853
▁하모니	-8854
스프레이	-8855
플레이트	-8856
▁리본포장	-8857
▁멋스러운	-8858
▁버튼다운	-8859
▁액정보호	-8860
▁어스앤뎀	-8861
▁premi	-8862
트레이닝팬츠	-8863
▁아이파크백화점	-8864
▁크리스크리스티	-8865
cy	-8866
ld	-8867
▁ua	-8868
▁바른	-8869
▁신지	-8870
▁판매	-8871
▁패셔	-8872
선수용	-8873
▁520	-8874
▁주머니	-8875
▁트윙클	-8876
▁햇츠온	-8877
▁머메이드	-8878
▁아이크림	-8879
▁못	-8880
▁빗	-8881
▁숨	-8882
가득	-8883
도장	-8884
돼지	-8885
앤투	-8886
706	-8887
707	-8888
736	-8889
oud	-8890
▁fn	-8891
▁모든	-8892
▁에그	-8893
▁워킹	-8894
▁할로	-8895
롱코트	-8896
부바지	-8897
패밀리	-8898
1711	-8899
9000	-8900
▁711	-8901
▁day	-8902
▁idk	-8903
▁nvy	-8904
▁메이커	-8905
▁시니프	-8906
▁탄탄이	-8907
▁팔꿈치	-8908
▁geox	-8909
▁꼼빠니아	-8910
▁닥스셔츠	-8911
▁듀퐁셔츠	-8912
▁미러리스	-8913
▁베디베로	-8914
▁오에스티	-8915
▁요하넥스	-8916
▁페이유에	-8917
▁마리끌레르	-8918
▁라이트그레이	-8919
▁빵	-8920
356	-8921
385	-8922
oto	-8923
▁다나	-8924
▁동전	-8925
▁타카	-8926
▁피오	-8927
▁훌라	-8928
락쿠마	-8929
부대우	-8930
브레이	-8931
세탁기	-8932
▁054	-8933
▁950	-8934
▁lar	-8935
▁반투명	-8936
인하우스	-8937
카드지갑	-8938
▁엑스트라	-8939
▁폴리스판	-8940
니트가디건	-8941
▁디자인스킨	-8942
▁실내수영복	-8943
러시	-8944
볼캡	-8945
침낭	-8946
521	-8947
616	-8948
748	-8949
999	-8950
any	-8951
igh	-8952
▁드레	-8953
▁병원	-8954
▁유한	-8955
▁쭈리	-8956
▁캐리	-8957
날라리	-8958
사운드	-8959
제본기	-8960
지고트	-8961
▁음식물	-8962
▁타이거	-8963
▁moda	-8964
▁더틸버리	-8965
▁아이리스	-8966
▁탁상시계	-8967
▁휘트니스복	-8968
yl	-8969
▁곡	-8970
▁빛	-8971
론트	-8972
624	-8973
▁jg	-8974
▁엽서	-8975
▁타고	-8976
네이처	-8977
디지털	-8978
리데이	-8979
▁405	-8980
▁버팔로	-8981
▁전기요	-8982
▁카라넥	-8983
렉스트라	-8984
▁pack	-8985
▁더블버튼	-8986
▁아르디움	-8987
▁에어로쿨	-8988
▁원포인트	-8989
▁디스커버리	-8990
zy	-8991
▁쉽	-8992
오미	-8993
욕조	-8994
펀칭	-8995
하우	-8996
arl	-8997
▁도시	-8998
▁막스	-8999
▁지포	-9000
▁bfm	-9001
▁urb	-9002
▁규수방	-9003
▁초특가	-9004
▁피크닉	-9005
▁cour	-9006
▁hiho	-9007
▁동부대우	-9008
▁듀플렉스	-9009
▁프라모델	-9010
▁플라이어	-9011
▁발렉스트라	-9012
▁쿨러마스터	-9013
si	-9014
wz	-9015
가격	-9016
띠에	-9017
▁ox	-9018
▁건담	-9019
▁넘버	-9020
▁링케	-9021
▁맑은	-9022
▁메시	-9023
▁피셔	-9024
옷걸이	-9025
케이크	-9026
▁대리석	-9027
▁세탁기	-9028
▁아가방	-9029
▁오픈토	-9030
▁청정원	-9031
▁트레킹	-9032
남아런닝	-9033
▁1400	-9034
▁rain	-9035
▁필모리스	-9036
▁smart	-9037
▁디자인날라리	-9038
vo	-9039
▁겉	-9040
스팅	-9041
앤수	-9042
편한	-9043
fdt	-9044
gry	-9045
ksk	-9046
own	-9047
▁fp	-9048
▁엘라	-9049
▁264	-9050
▁302	-9051
▁amm	-9052
가지색상	-9053
▁쓰레기통	-9054
▁똑	-9055
높은	-9056
바닥	-9057
벚꽃	-9058
626	-9059
768	-9060
▁고압	-9061
▁돌체	-9062
▁묶음	-9063
▁차예	-9064
러웨이	-9065
미스트	-9066
▁엠블럼	-9067
▁올스텐	-9068
▁콘디보	-9069
▁데코토닉	-9070
▁프롬앤투	-9071
▁브로이어블루	-9072
gm	-9073
▁칵	-9074
옵션	-9075
dbr	-9076
msh	-9077
▁ku	-9078
▁로마	-9079
▁브렌	-9080
▁에펠	-9081
플리츠	-9082
ence	-9083
▁041	-9084
▁285	-9085
▁dtp	-9086
▁솜포함	-9087
▁클리오	-9088
▁페도라	-9089
데이비드	-9090
▁ofem	-9091
▁쇼파패드	-9092
▁슬림라인	-9093
▁하프코트	-9094
▁햄머드릴	-9095
▁mixxo	-9096
▁studio	-9097
▁켄	-9098
몬트	-9099
행사	-9100
293	-9101
384	-9102
618	-9103
734	-9104
▁om	-9105
▁rw	-9106
▁ww	-9107
▁라비	-9108
▁린스	-9109
▁행남	-9110
대리점	-9111
▁run	-9112
▁vpa	-9113
▁레이먼	-9114
▁볼륨업	-9115
▁비스비	-9116
▁일자형	-9117
▁클램프	-9118
▁필그림	-9119
쓰레기통	-9120
▁note	-9121
▁로사케이	-9122
▁스타일리	-9123
미터	-9124
버트	-9125
베라	-9126
앤씨	-9127
엔젤	-9128
키오	-9129
필드	-9130
284	-9131
347	-9132
660	-9133
boy	-9134
▁도라	-9135
▁라보	-9136
▁번호	-9137
▁아베	-9138
▁포근	-9139
니트티	-9140
메리온	-9141
outl	-9142
▁505	-9143
▁bts	-9144
▁try	-9145
▁드로잉	-9146
▁블랭킷	-9147
▁시그마	-9148
▁코코몽	-9149
▁ggio	-9150
▁knit	-9151
▁long	-9152
▁국내배송	-9153
▁스타일맨	-9154
▁차예마을	-9155
▁멘	-9156
과자	-9157
도매	-9158
로봇	-9159
물용	-9160
424	-9161
blt	-9162
tor	-9163
▁ni	-9164
▁pq	-9165
▁각도	-9166
▁면기	-9167
▁무민	-9168
▁샤넬	-9169
▁여우	-9170
▁파카	-9171
다리미	-9172
▁416	-9173
▁570	-9174
▁cmk	-9175
▁nan	-9176
▁yea	-9177
▁대나무	-9178
▁라이크	-9179
▁보급형	-9180
▁빌트인	-9181
▁코스모스	-9182
▁허리밴딩	-9183
▁10000	-9184
▁라운드티셔츠	-9185
xb	-9186
져스	-9187
098	-9188
349	-9189
452	-9190
717	-9191
cos	-9192
▁vu	-9193
▁감사	-9194
▁디비	-9195
▁숲속	-9196
▁용접	-9197
▁푸조	-9198
공구함	-9199
1104	-9200
▁scl	-9201
▁공업용	-9202
▁원형톱	-9203
▁찰스톤	-9204
▁캐디백	-9205
▁코코아	-9206
▁정장바지	-9207
▁맥데이비드	-9208
▁포트메리온	-9209
독립	-9210
블링	-9211
비용	-9212
765	-9213
782	-9214
msd	-9215
▁겟유	-9216
▁보그	-9217
▁소켓	-9218
▁아보	-9219
▁태창	-9220
▁파슬	-9221
▁필링	-9222
▁spe	-9223
▁벽장식	-9224
▁nwop	-9225
▁겨울왕국	-9226
▁메모리폼	-9227
▁몰드브라	-9228
▁스타워즈	-9229
outlet	-9230
▁moniz	-9231
▁남자크로스백	-9232
▁애스크주니어	-9233
▁couronne	-9234
li	-9235
pg	-9236
뚜껑	-9237
세요	-9238
수모	-9239
인견	-9240
257	-9241
613	-9242
bex	-9243
end	-9244
ica	-9245
uno	-9246
▁원잇	-9247
▁컬럼	-9248
까사온	-9249
바이저	-9250
컴퓨터	-9251
▁283	-9252
▁pap	-9253
▁레이첼	-9254
▁케쥬얼	-9255
▁프리마	-9256
▁아이코닉	-9257
▁플레이어	-9258
▁fluke	-9259
▁크리스탈샵	-9260
▁헤어드라이기	-9261
▁까사미아까사온	-9262
dv	-9263
mj	-9264
앤더	-9265
진공	-9266
229	-9267
299	-9268
514	-9269
763	-9270
oul	-9271
▁레브	-9272
▁초커	-9273
▁캐미	-9274
▁캡텐	-9275
▁퀄팅	-9276
소나타	-9277
오버핏	-9278
포니아	-9279
▁ost	-9280
▁더아이	-9281
▁선인장	-9282
▁스위브	-9283
▁초보운전	-9284
▁이노센트플러스	-9285
wg	-9286
▁즐	-9287
고속	-9288
온톤	-9289
플리	-9290
blu	-9291
mtr	-9292
waw	-9293
▁nr	-9294
▁네트	-9295
▁캠프	-9296
코코아	-9297
ston	-9298
▁작업용	-9299
▁카라티	-9300
드라이어	-9301
▁더아이잗	-9302
▁렌즈후드	-9303
▁야상점퍼	-9304
▁온더리버	-9305
▁방수식탁보	-9306
▁오버사이즈	-9307
▁design	-9308
df	-9309
꼬기	-9310
데일	-9311
턴진	-9312
anu	-9313
▁대쉬	-9314
▁럭키	-9315
▁쌈지	-9316
▁장인	-9317
▁캉캉	-9318
▁터닝	-9319
▁혼합	-9320
하이트	-9321
▁404	-9322
▁dsc	-9323
▁네츄럴	-9324
▁로하스	-9325
▁dbba	-9326
▁이탈리아	-9327
배내저고리	-9328
▁customellow	-9329
언발	-9330
피플	-9331
417	-9332
▁ot	-9333
▁노아	-9334
▁소방	-9335
▁폴더	-9336
otcs	-9337
▁건조대	-9338
▁엠보싱	-9339
쇼케이스	-9340
캐시미어	-9341
▁3500	-9342
▁나무상자	-9343
▁닥스레이디스	-9344
앤홈	-9345
재이	-9346
펜서	-9347
348	-9348
358	-9349
408	-9350
▁경동	-9351
▁그리	-9352
▁네모	-9353
▁민자	-9354
▁삼선	-9355
▁음향	-9356
▁일렉	-9357
▁캉골	-9358
▁캐프	-9359
▁튤립	-9360
딸랑이	-9361
풀오버	-9362
bllc	-9363
▁sif	-9364
▁vpt	-9365
▁다기능	-9366
▁스트로	-9367
▁아이린	-9368
▁타이니	-9369
부레깅스	-9370
▁화이트닝	-9371
▁klein	-9372
▁yeajin	-9373
▁아카데미과학	-9374
▁digital	-9375
노스	-9376
드로	-9377
런트	-9378
크린	-9379
368	-9380
544	-9381
781	-9382
bra	-9383
▁노래	-9384
▁발신	-9385
▁워크	-9386
▁유스	-9387
▁음료	-9388
▁페달	-9389
니스타	-9390
솔루션	-9391
▁vol	-9392
▁가오리	-9393
▁건전지	-9394
▁궁중팬	-9395
▁노마드	-9396
▁코코리	-9397
메탈시계	-9398
▁lego	-9399
▁여성잠옷	-9400
▁코카콜라	-9401
▁코오롱스포츠	-9402
▁루이까또즈넥타이	-9403
iw	-9404
▁템	-9405
마력	-9406
매틱	-9407
방스	-9408
켤레	-9409
퍼퓸	-9410
346	-9411
714	-9412
746	-9413
990	-9414
▁gj	-9415
▁교체	-9416
▁리리	-9417
▁바우	-9418
▁상판	-9419
▁요리	-9420
공유기	-9421
의배송	-9422
이야기	-9423
1050	-9424
▁008	-9425
▁111	-9426
▁말하는	-9427
▁파이프	-9428
▁행남자기	-9429
▁short	-9430
▁나무상자닷컴	-9431
▁더데이언더웨어	-9432
여아긴소아동내의	-9433
도금	-9434
미카	-9435
타고	-9436
441	-9437
531	-9438
580	-9439
644	-9440
▁가쯔	-9441
▁그래	-9442
▁두줄	-9443
▁리즈	-9444
▁바리	-9445
▁발효	-9446
타익스	-9447
▁ble	-9448
▁lot	-9449
▁tio	-9450
▁vis	-9451
▁보트넥	-9452
▁수앤수	-9453
▁슬라브	-9454
▁적외선	-9455
▁카디건	-9456
▁호보백	-9457
▁actu	-9458
▁세컨윈드	-9459
▁리틀타익스	-9460
▁하운드투스	-9461
▁그래픽포인트스티커	-9462
vs	-9463
▁찜	-9464
가슴	-9465
보트	-9466
517	-9467
mps	-9468
▁겐코	-9469
▁대접	-9470
▁타워	-9471
일체형	-9472
테스터	-9473
▁cou	-9474
▁ele	-9475
▁laz	-9476
▁rlg	-9477
▁ysw	-9478
▁장식장	-9479
▁직수입	-9480
▁콜라겐	-9481
▁페이셜	-9482
▁deep	-9483
▁lady	-9484
▁남자벨트	-9485
▁동양매직	-9486
▁블랙라벨	-9487
▁역할놀이	-9488
▁올림푸스	-9489
구매	-9490
글런	-9491
농협	-9492
이픈	-9493
캠핑	-9494
팬시	-9495
570	-9496
808	-9497
821	-9498
bag	-9499
▁순간	-9500
▁용기	-9501
▁착용	-9502
리더기	-9503
물꼬기	-9504
▁810	-9505
▁메이플	-9506
▁열풍기	-9507
▁미아방지	-9508
▁블룸엣홈	-9509
▁아시안핏	-9510
▁위드이픈	-9511
▁38170	-9512
▁jewelry	-9513
강화	-9514
대성	-9515
마노	-9516
수이	-9517
타리	-9518
421	-9519
756	-9520
806	-9521
▁dq	-9522
▁더비	-9523
▁마라	-9524
▁반달	-9525
▁에든	-9526
벽걸이	-9527
ason	-9528
ette	-9529
isex	-9530
▁816	-9531
▁mor	-9532
▁럭센스	-9533
▁무스탕	-9534
▁슬렉스	-9535
▁피턴진	-9536
▁글렌체크	-9537
▁시그니처	-9538
▁시크릿쥬쥬	-9539
▁파란물꼬기	-9540
렌토	-9541
543	-9542
amb	-9543
▁ky	-9544
▁가위	-9545
▁모토	-9546
▁이딸	-9547
▁피케	-9548
1812	-9549
▁511	-9550
▁msj	-9551
▁마리아	-9552
▁비행기	-9553
▁씨에스	-9554
▁옥스퍼	-9555
▁비지니스	-9556
▁오일필터	-9557
▁금호타이어	-9558
hw	-9559
금고	-9560
무스	-9561
미로	-9562
호스	-9563
630	-9564
790	-9565
fsl	-9566
wts	-9567
▁루키	-9568
▁사첼	-9569
▁식품	-9570
▁홍차	-9571
면바지	-9572
사다리	-9573
▁313	-9574
▁hal	-9575
▁sen	-9576
▁니트티	-9577
▁도레미	-9578
▁바비앤	-9579
▁부직포	-9580
▁온라인	-9581
렌하이트	-9582
롱티셔츠	-9583
책상세트	-9584
▁lnsh	-9585
▁옥스퍼드	-9586
▁장인가구	-9587
▁비앤비골드	-9588
▁터프케이스	-9589
pn	-9590
yo	-9591
사무	-9592
장기	-9593
743	-9594
abs	-9595
spa	-9596
ual	-9597
▁리스	-9598
▁벚꽃	-9599
▁절단	-9600
▁지벤	-9601
▁핸즈	-9602
▁412	-9603
▁cda	-9604
▁wsq	-9605
▁레이싱	-9606
▁소이다	-9607
▁스누피	-9608
▁시트지	-9609
▁캠핑용	-9610
▁토들러	-9611
▁핫핑크	-9612
▁dark	-9613
▁바디로션	-9614
▁cryst	-9615
▁epson	-9616
▁잡	-9617
베큐	-9618
워키	-9619
퓨어	-9620
525	-9621
958	-9622
che	-9623
wjk	-9624
▁xs	-9625
▁기아	-9626
▁로니	-9627
▁아멜	-9628
▁카미	-9629
냉동고	-9630
노트북	-9631
하슬러	-9632
▁del	-9633
▁고화질	-9634
▁메르베	-9635
▁문의에	-9636
▁밀워키	-9637
▁슬림형	-9638
여아반소	-9639
▁공장직영	-9640
▁스페이스	-9641
▁여성장지갑	-9642
▁와이드팬츠	-9643
▁유희왕카드	-9644
▁unisex	-9645
lk	-9646
nj	-9647
부터	-9648
747	-9649
son	-9650
▁아델	-9651
▁압력	-9652
클래스	-9653
ybee	-9654
▁383	-9655
▁910	-9656
▁fre	-9657
▁lee	-9658
▁mnc	-9659
▁데코뷰	-9660
▁쿨맥스	-9661
▁톤온톤	-9662
▁투피스	-9663
▁헌팅캡	-9664
▁보스트로	-9665
▁안나수이	-9666
▁콤비네이션	-9667
▁french	-9668
▁crystal	-9669
▁lazybee	-9670
드런	-9671
레더	-9672
메틱	-9673
점토	-9674
292	-9675
637	-9676
670	-9677
813	-9678
oni	-9679
▁wm	-9680
▁나나	-9681
▁블로	-9682
▁삐삐	-9683
▁체스	-9684
프라임	-9685
▁136	-9686
▁ice	-9687
▁mst	-9688
▁pad	-9689
▁원버튼	-9690
▁타이틀	-9691
▁ramr	-9692
▁스콜피오	-9693
▁여성부츠	-9694
▁캘리포니아	-9695
▁소프트젤리케이스	-9696
rw	-9697
과일	-9698
로니	-9699
르스	-9700
비카	-9701
슈퍼	-9702
와르	-9703
테르	-9704
프림	-9705
449	-9706
kap	-9707
▁구디	-9708
▁하루	-9709
골프화	-9710
버팔로	-9711
세이도	-9712
족세트	-9713
콧수염	-9714
2001	-9715
▁311	-9716
▁bab	-9717
▁her	-9718
▁돈풍기	-9719
▁록시땅	-9720
▁good	-9721
▁king	-9722
▁wind	-9723
▁세차용품	-9724
▁미끄럼방지	-9725
▁임부복닷컴	-9726
▁프레드페리	-9727
▁medium	-9728
랭크	-9729
음파	-9730
조기	-9731
카고	-9732
440	-9733
alk	-9734
▁vo	-9735
▁아마	-9736
▁윙팁	-9737
▁제네	-9738
스타드	-9739
iver	-9740
ssso	-9741
type	-9742
▁실내화	-9743
▁블레이드	-9744
▁시세이도	-9745
▁배드민턴마켓	-9746
▁에스크주니어	-9747
▁이동수스포츠	-9748
▁올리비아하슬러	-9749
ji	-9750
vp	-9751
▁졸	-9752
멸치	-9753
무지	-9754
벤처	-9755
벽지	-9756
웨지	-9757
함마	-9758
▁몽키	-9759
▁제시	-9760
▁천사	-9761
▁호각	-9762
▁호림	-9763
▁호박	-9764
후드티	-9765
▁ksp	-9766
▁리니어	-9767
▁보온병	-9768
▁트로피	-9769
▁리리코스	-9770
▁보조가방	-9771
▁인터파크	-9772
▁함마드릴	-9773
▁니트원피스	-9774
▁바비앤펌킨	-9775
▁브라이트닝	-9776
▁여성수영복	-9777
▁쭈쭈베이비	-9778
▁패셔니스타	-9779
▁호림쥬얼리	-9780
▁originals	-9781
cu	-9782
강력	-9783
땅콩	-9784
미키	-9785
뱅크	-9786
치컵	-9787
296	-9788
430	-9789
649	-9790
825	-9791
▁yg	-9792
▁더플	-9793
▁반신	-9794
▁백설	-9795
▁칼린	-9796
▁파라	-9797
▁헤비	-9798
니아온	-9799
▁131	-9800
▁204	-9801
▁680	-9802
▁abv	-9803
▁dvi	-9804
▁res	-9805
▁이딸라	-9806
킹테이프	-9807
▁드라이어	-9808
▁디자이너	-9809
▁모형완구	-9810
▁어바웃슈	-9811
▁쿡	-9812
린더	-9813
625	-9814
key	-9815
▁애끼	-9816
▁푸드	-9817
▁품목	-9818
▁한빛	-9819
꾸미기	-9820
스티지	-9821
에스타	-9822
▁723	-9823
▁usa	-9824
▁쿠비코	-9825
▁화사한	-9826
▁ffso	-9827
▁이불커버	-9828
▁사무용의자	-9829
▁자외선차단	-9830
▁업소용냉장고	-9831
가공	-9832
린스	-9833
이중	-9834
콥스	-9835
548	-9836
▁vg	-9837
▁꼬임	-9838
▁린다	-9839
▁밤부	-9840
▁브릭	-9841
손싸개	-9842
1202	-9843
▁236	-9844
▁bba	-9845
▁fus	-9846
▁lmp	-9847
▁lux	-9848
▁멜리사	-9849
▁스패너	-9850
▁카페테	-9851
▁칵테일	-9852
▁패리스	-9853
▁플래시	-9854
▁핏플랍	-9855
▁lite	-9856
▁어린이날	-9857
▁paris	-9858
▁plume	-9859
▁스마트그립	-9860
▁강화유리필름	-9861
lx	-9862
▁톡	-9863
반짝	-9864
여우	-9865
우븐	-9866
쪼리	-9867
탁스	-9868
642	-9869
940	-9870
▁고리	-9871
▁리키	-9872
▁입술	-9873
리어스	-9874
메이슨	-9875
미티드	-9876
0101	-9877
▁328	-9878
▁bzu	-9879
▁emp	-9880
▁inc	-9881
▁ses	-9882
▁로이드	-9883
▁소피아	-9884
▁스트릿	-9885
▁스폰지	-9886
▁와인잔	-9887
▁탱크탑	-9888
▁토트겸	-9889
▁골드모아	-9890
▁모직코트	-9891
▁squaz	-9892
▁라이트블루	-9893
▁셰	-9894
루엣	-9895
언스	-9896
장비	-9897
터틀	-9898
홍삼	-9899
247	-9900
791	-9901
804	-9902
915	-9903
ove	-9904
ury	-9905
▁드립	-9906
▁사틴	-9907
▁안심	-9908
▁liv	-9909
▁pop	-9910
▁농구화	-9911
▁백패킹	-9912
▁시트존	-9913
▁엑시옴	-9914
▁2100	-9915
▁7174	-9916
▁주방매트	-9917
▁urban	-9918
▁액자벽시계	-9919
▁pattern	-9920
케토	-9921
향기	-9922
ere	-9923
mon	-9924
▁hx	-9925
▁모아	-9926
▁벌룬	-9927
▁볶음	-9928
빈티지	-9929
환풍기	-9930
▁kap	-9931
▁넥워머	-9932
▁스탬프	-9933
▁아노락	-9934
▁아르떼	-9935
▁크레이	-9936
▁파란들	-9937
라쳇렌치	-9938
▁유아완구	-9939
▁후라이스	-9940
▁petit	-9941
▁라운드니트	-9942
▁세신버팔로	-9943
▁터닝메카드	-9944
▁갤럭시라이프	-9945
▁슈퍼스타아이	-9946
▁sneakers	-9947
dd	-9948
기간	-9949
메종	-9950
사료	-9951
시픽	-9952
올리	-9953
페이	-9954
318	-9955
386	-9956
▁공작	-9957
▁수건	-9958
▁연결	-9959
▁주띠	-9960
브이넥	-9961
크로커	-9962
8000	-9963
▁315	-9964
▁355	-9965
▁460	-9966
▁als	-9967
▁doc	-9968
▁hot	-9969
▁oak	-9970
▁공구집	-9971
▁반짝이	-9972
▁스탠딩	-9973
▁아르뉴	-9974
▁가죽벨트	-9975
▁마더케이	-9976
▁탁구러버	-9977
▁캐주얼자켓	-9978
▁prokit	-9979
▁shirts	-9980
▁갸	-9981
란도	-9982
악기	-9983
운스	-9984
취제	-9985
펀트	-9986
평형	-9987
239	-9988
619	-9989
▁뱅글	-9990
▁클래	-9991
▁트렉	-9992
하이브	-9993
1060	-9994
▁050	-9995
▁510	-9996
▁글로우	-9997
▁더블유	-9998
▁리무버	-9999
▁퀵실버	-10000
▁프리즘	-10001
후드집업	-10002
▁port	-10003
▁강원전자	-10004
▁대쉬보드	-10005
▁오스프리	-10006
긴팔티셔츠	-10007
▁train	-10008
플레어원피스	-10009
▁아디다스오리지널스	-10010
로젠	-10011
발트	-10012
실리	-10013
이바	-10014
종중	-10015
273	-10016
oot	-10017
▁코펠	-10018
▁풍경	-10019
▁플렉	-10020
1401	-10021
rock	-10022
▁720	-10023
▁efm	-10024
▁iii	-10025
▁van	-10026
▁wil	-10027
▁기계식	-10028
▁삐삐롱	-10029
▁신사야	-10030
▁통가죽	-10031
▁랜케이블	-10032
▁리락쿠마	-10033
▁컬러배색	-10034
▁pouch	-10035
▁유니크대성	-10036
보냉	-10037
양한	-10038
장롱	-10039
피엠	-10040
회용	-10041
535	-10042
795	-10043
▁kz	-10044
▁마모	-10045
▁핫바	-10046
젖꼭지	-10047
즈로즈	-10048
프루프	-10049
▁168	-10050
▁710	-10051
▁수납함	-10052
▁자이언	-10053
▁작업화	-10054
▁커널형	-10055
▁코체티	-10056
▁타이머	-10057
▁프레시	-10058
▁4217	-10059
▁롱가디건	-10060
▁police	-10061
감이	-10062
덮개	-10063
자르	-10064
자재	-10065
훈련	-10066
840	-10067
abb	-10068
abf	-10069
eth	-10070
ifi	-10071
iis	-10072
▁높이	-10073
▁느낌	-10074
▁데칼	-10075
▁얼굴	-10076
▁이글	-10077
▁이스	-10078
▁인테	-10079
▁퓨리	-10080
utch	-10081
▁bmw	-10082
▁pmc	-10083
▁바베큐	-10084
▁쉬즈홈	-10085
▁초음파	-10086
▁키모니	-10087
▁톰보이	-10088
롱스커트	-10089
xtyle	-10090
▁우드피아	-10091
▁audio	-10092
▁미니스커트	-10093
▁disney	-10094
▁갤럭시라이프스타일	-10095
jt	-10096
rn	-10097
센치	-10098
앤탑	-10099
주문	-10100
카키	-10101
풍경	-10102
457	-10103
att	-10104
lee	-10105
▁단독	-10106
▁미백	-10107
▁미우	-10108
▁수아	-10109
▁크라	-10110
▁호스	-10111
레이터	-10112
부엉이	-10113
하이넥	-10114
▁물고기	-10115
▁봄신상	-10116
놀이세트	-10117
▁sale	-10118
▁좋은가구	-10119
▁캘러웨이	-10120
▁파인애플	-10121
▁레노마모자	-10122
▁에스프레소	-10123
hz	-10124
ni	-10125
▁잎	-10126
관장	-10127
드립	-10128
248	-10129
295	-10130
416	-10131
758	-10132
▁가볍	-10133
▁가정	-10134
▁부토	-10135
▁솔트	-10136
▁참치	-10137
▁케즈	-10138
바이오	-10139
스텔바	-10140
▁009	-10141
▁238	-10142
▁blv	-10143
▁cos	-10144
▁jju	-10145
▁내셔널	-10146
▁랜더스	-10147
▁스펀지	-10148
▁인라인	-10149
▁젓가락	-10150
▁락스터드	-10151
▁리본장식	-10152
▁metal	-10153
▁다니엘에스	-10154
▁leshop	-10155
nh	-10156
▁융	-10157
대기	-10158
수스	-10159
애니	-10160
908	-10161
▁베니	-10162
▁조마	-10163
▁주스	-10164
▁한양	-10165
ning	-10166
▁411	-10167
▁414	-10168
▁blo	-10169
▁발신자	-10170
▁이어셋	-10171
▁파스코	-10172
▁페인팅	-10173
▁까스텔바	-10174
▁탁구유니폼	-10175
▁파스코로젠	-10176
▁다니엘에스떼	-10177
eq	-10178
릴릿	-10179
메모	-10180
산전	-10181
▁기초	-10182
▁모빌	-10183
▁빠띠	-10184
▁은은	-10185
▁인증	-10186
▁재미	-10187
▁튼튼	-10188
▁티티	-10189
아이언	-10190
에비뉴	-10191
▁vic	-10192
▁zne	-10193
▁디올라	-10194
▁매직기	-10195
▁세스띠	-10196
▁정관장	-10197
▁롱스커트	-10198
▁반팔셔츠	-10199
▁미키마우스	-10200
▁빅토리녹스	-10201
▁업소용청소기	-10202
▁루이까또즈셔츠	-10203
▁론	-10204
▁턱	-10205
리온	-10206
써클	-10207
칠부	-10208
퍼피	-10209
335	-10210
657	-10211
766	-10212
▁가이	-10213
▁보더	-10214
▁염색	-10215
▁포스	-10216
건전지	-10217
프레션	-10218
nder	-10219
▁123	-10220
▁jst	-10221
▁금반지	-10222
▁무형광	-10223
▁파스타	-10224
부타이즈	-10225
아이보리	-10226
▁사파이어	-10227
▁스키니진	-10228
▁카네이션	-10229
▁컬럼비아	-10230
▁프로포즈	-10231
▁zippo	-10232
▁getter	-10233
▁millet	-10234
▁하이파이패키지	-10235
fi	-10236
jn	-10237
문양	-10238
플린	-10239
▁베셀	-10240
▁비아	-10241
▁아망	-10242
▁에비	-10243
▁있는	-10244
▁플랜	-10245
로사떼	-10246
멤버스	-10247
손수건	-10248
2400	-10249
▁atb	-10250
▁nuv	-10251
▁델라스	-10252
▁브로우	-10253
▁스텐드	-10254
▁율미아	-10255
▁젠피엠	-10256
▁치발기	-10257
▁할릴릿	-10258
롤스크린	-10259
▁9000	-10260
▁lock	-10261
코리아정품	-10262
▁dhfdt	-10263
▁greenjoy	-10264
qa	-10265
블릿	-10266
자연	-10267
자형	-10268
제외	-10269
켄스	-10270
246	-10271
adr	-10272
ghz	-10273
▁vw	-10274
▁걸이	-10275
▁밀란	-10276
▁박수	-10277
▁연습	-10278
▁포멀	-10279
나이트	-10280
보증서	-10281
아쿠아	-10282
▁305	-10283
▁898	-10284
▁bcb	-10285
▁cre	-10286
▁ddr	-10287
▁mts	-10288
▁rbr	-10289
▁노바노	-10290
▁마나스	-10291
▁블러셔	-10292
▁프론트	-10293
▁플로랄	-10294
ecret	-10295
▁앨빈클로	-10296
▁무릎보호대	-10297
▁lafuma	-10298
▁들	-10299
르디	-10300
사이	-10301
소프	-10302
플랜	-10303
289	-10304
iki	-10305
▁wl	-10306
▁베드	-10307
▁영상	-10308
▁탑텐	-10309
▁플랙	-10310
다이스	-10311
▁abm	-10312
▁rub	-10313
▁머리끈	-10314
▁박수희	-10315
▁브리즈	-10316
▁엠피지	-10317
▁탑앤탑	-10318
▁snrd	-10319
▁그린조이	-10320
▁렌즈변환	-10321
▁리나제이	-10322
▁블루베리	-10323
▁프리메라	-10324
▁니트가디건	-10325
▁블루라이트	-10326
▁일반크레용	-10327
▁하이라이트	-10328
라운드티셔츠	-10329
▁cotton	-10330
▁블랙다이아몬드	-10331
▁돔	-10332
▁술	-10333
강도	-10334
럽고	-10335
사선	-10336
상블	-10337
스비	-10338
앤디	-10339
열쇠	-10340
활용	-10341
▁내벗	-10342
▁도브	-10343
▁래핑	-10344
▁리클	-10345
▁부품	-10346
▁세척	-10347
▁신디	-10348
▁아야	-10349
▁타일	-10350
▁편백	-10351
▁풀집	-10352
▁피자	-10353
▁121	-10354
▁212	-10355
▁602	-10356
▁nex	-10357
▁pen	-10358
▁데이터	-10359
▁위닉스	-10360
▁젖꼭지	-10361
▁케틀벨	-10362
▁타지마	-10363
▁쏘로사떼	-10364
▁카드홀더	-10365
▁델라스텔라	-10366
▁harace	-10367
냄새	-10368
서스	-10369
탁상	-10370
테인	-10371
흔들	-10372
319	-10373
615	-10374
658	-10375
842	-10376
mjk	-10377
▁대박	-10378
▁몽벨	-10379
▁바퀴	-10380
▁정글	-10381
▁즐거	-10382
▁페퍼	-10383
요가복	-10384
0100	-10385
1005	-10386
3280	-10387
▁게이즈	-10388
▁마모트	-10389
▁아즈나	-10390
▁청자켓	-10391
▁클로버	-10392
▁투포켓	-10393
▁핸드블	-10394
▁확장형	-10395
마사지기	-10396
보루네오	-10397
코드인증	-10398
arden	-10399
▁브라런닝	-10400
▁스파이크	-10401
▁액자세트	-10402
▁제이케이	-10403
▁태광전자	-10404
▁행사기간	-10405
▁몸	-10406
롱티	-10407
부티	-10408
사인	-10409
처리	-10410
442	-10411
556	-10412
792	-10413
916	-10414
jet	-10415
▁노멀	-10416
▁배팅	-10417
▁오마	-10418
▁칠판	-10419
▁플레	-10420
쿠비카	-10421
트레이	-10422
0008	-10423
▁730	-10424
▁pal	-10425
▁라글란	-10426
▁무지개	-10427
▁시즈팝	-10428
▁안테나	-10429
▁연핑크	-10430
▁인티펠	-10431
▁펠틱스	-10432
▁네오쿠비카	-10433
▁명함케이스	-10434
▁부루앤쥬디	-10435
▁스타일베리	-10436
▁전기면도기	-10437
▁spasso	-10438
▁늘	-10439
압축	-10440
907	-10441
ari	-10442
eak	-10443
▁91	-10444
▁ek	-10445
▁가족	-10446
▁데일	-10447
▁뮤직	-10448
▁비올	-10449
▁아니	-10450
▁오븐	-10451
▁온수	-10452
런닝화	-10453
클리어	-10454
▁dog	-10455
▁루미씨	-10456
▁목도리	-10457
▁썬버드	-10458
▁온도계	-10459
▁제이디	-10460
▁코모도	-10461
▁큐빅펀	-10462
▁2013	-10463
▁목걸이형	-10464
▁에어맥스	-10465
▁여성가죽	-10466
▁티지스톤	-10467
▁스트랩샌들	-10468
▁트레이닝바지	-10469
nq	-10470
wr	-10471
거들	-10472
bal	-10473
▁tj	-10474
▁남양	-10475
▁마하	-10476
▁습식	-10477
▁양모	-10478
▁엘다	-10479
▁중목	-10480
느와르	-10481
이어스	-10482
팅필름	-10483
1801	-10484
▁sim	-10485
▁노르딕	-10486
▁식탁보	-10487
▁쌍안경	-10488
▁아이비	-10489
▁헤르본	-10490
▁후르츠	-10491
손목시계	-10492
homme	-10493
▁bbar	-10494
▁한정수량	-10495
▁round	-10496
▁nuviis	-10497
▁여성펌프스힐	-10498
▁고스트리퍼블릭	-10499
▁띠	-10500
드레	-10501
뮤직	-10502
엔지	-10503
흑색	-10504
371	-10505
ger	-10506
▁bx	-10507
▁yu	-10508
▁고래	-10509
▁꽃을	-10510
▁담요	-10511
▁얼룩	-10512
▁큐어	-10513
▁토즈	-10514
내셔널	-10515
란디아	-10516
르지오	-10517
브루노	-10518
▁012	-10519
▁qwa	-10520
▁마카롱	-10521
▁손전등	-10522
▁순정품	-10523
▁아기가	-10524
▁오닉스	-10525
▁이동형	-10526
▁컨버터	-10527
▁희망몰	-10528
▁0116	-10529
▁디어제인	-10530
▁패리스독	-10531
▁아즈나브르	-10532
▁클럽코코아	-10533
▁명품브랜드선글라스	-10534
깨비	-10535
밥독	-10536
서커	-10537
침구	-10538
허리	-10539
267	-10540
269	-10541
294	-10542
391	-10543
652	-10544
852	-10545
acx	-10546
▁경찰	-10547
▁롤러	-10548
▁에바	-10549
▁오비	-10550
▁터키	-10551
▁한지	-10552
▁행운	-10553
라이터	-10554
비타민	-10555
ango	-10556
▁703	-10557
▁chr	-10558
▁jss	-10559
▁lit	-10560
▁lun	-10561
▁친구들	-10562
▁코발트	-10563
▁크리샤	-10564
남아민소	-10565
▁swib	-10566
▁마그네틱	-10567
▁컴포트화	-10568
▁multi	-10569
▁stand	-10570
▁엘르수영복	-10571
▁타이틀리스트	-10572
▁슐	-10573
그레	-10574
동봉	-10575
엘리	-10576
연제	-10577
주는	-10578
536	-10579
▁러너	-10580
▁로아	-10581
▁만수	-10582
▁아쿠	-10583
▁전원	-10584
▁챠콜	-10585
▁철제	-10586
▁치약	-10587
▁헝겊	-10588
긴소매	-10589
로그램	-10590
밸런스	-10591
아이스	-10592
직수입	-10593
1712	-10594
▁bbd	-10595
▁hap	-10596
▁knf	-10597
▁가볍고	-10598
▁십자가	-10599
▁욕실화	-10600
▁6200	-10601
▁buck	-10602
▁wifi	-10603
▁리틀밥독	-10604
▁여성브라	-10605
▁이사베이	-10606
▁이자녹스	-10607
▁캐쥬얼화	-10608
▁핀란디아	-10609
▁clear	-10610
▁마우스패드	-10611
zo	-10612
▁극	-10613
▁섀	-10614
▁콕	-10615
고정	-10616
리타	-10617
사탕	-10618
성능	-10619
슬레	-10620
자석	-10621
크록	-10622
418	-10623
453	-10624
793	-10625
kbt	-10626
▁근력	-10627
▁베지	-10628
▁수전	-10629
▁스팟	-10630
▁싱크	-10631
▁카나	-10632
▁컷소	-10633
▁파격	-10634
▁포도	-10635
▁표준	-10636
▁한복	-10637
클렌징	-10638
▁bhs	-10639
▁dmp	-10640
▁mkm	-10641
▁sie	-10642
▁겨울용	-10643
▁네추럴	-10644
▁노리개	-10645
▁다양한	-10646
▁리뉴얼	-10647
▁알로하	-10648
▁이프네	-10649
▁헴팬티	-10650
상하세트	-10651
esize	-10652
▁anti	-10653
▁열쇠고리	-10654
▁남성반지갑	-10655
▁차이나카라	-10656
▁코지쥬얼리	-10657
▁purple	-10658
au	-10659
▁척	-10660
건만	-10661
누스	-10662
당일	-10663
땡이	-10664
타페	-10665
함께	-10666
▁ob	-10667
▁샤크	-10668
▁소울	-10669
▁스톰	-10670
▁짱구	-10671
▁퓨전	-10672
▁922	-10673
▁smt	-10674
▁내친구	-10675
▁사다리	-10676
▁시몬스	-10677
▁아망떼	-10678
▁1217	-10679
▁빅토리아	-10680
▁수영모자	-10681
▁원두커피	-10682
▁김치냉장고	-10683
▁스타일리쉬	-10684
▁카페테리아	-10685
▁asrock	-10686
▁clutch	-10687
▁secret	-10688
▁마이크로닉스	-10689
▁여성크로스백	-10690
jc	-10691
갈피	-10692
회색	-10693
941	-10694
▁au	-10695
▁nz	-10696
▁레벨	-10697
▁멜란	-10698
▁삼천	-10699
▁스노	-10700
▁식당	-10701
▁풋볼	-10702
지스타	-10703
테라피	-10704
햄팬티	-10705
1302	-10706
ford	-10707
▁vst	-10708
▁맨프로	-10709
▁새상품	-10710
▁수납형	-10711
▁재클린	-10712
▁태양광	-10713
▁0000	-10714
▁3300	-10715
▁이월상품	-10716
▁프라이머	-10717
▁elord	-10718
▁scott	-10719
▁까스텔바작	-10720
▁차콜그레이	-10721
▁active	-10722
yd	-10723
셔스	-10724
소드	-10725
엔진	-10726
전신	-10727
토치	-10728
한잔	-10729
334	-10730
▁루체	-10731
▁머슬	-10732
▁싸이	-10733
▁썬캡	-10734
▁콩지	-10735
▁한율	-10736
1006	-10737
▁901	-10738
▁킬리안	-10739
▁폴란드	-10740
▁리미티드	-10741
▁비주얼엔	-10742
▁자이언트	-10743
▁하이드로	-10744
하이브리드	-10745
▁브론즈하우스	-10746
▁jjhomme	-10747
qw	-10748
▁첫	-10749
오스	-10750
용접	-10751
타치	-10752
298	-10753
ame	-10754
▁과자	-10755
▁네크	-10756
▁몽삭	-10757
▁벌크	-10758
▁변환	-10759
▁연장	-10760
▁올진	-10761
▁캡슐	-10762
▁크래	-10763
파이프	-10764
▁jhw	-10765
▁lim	-10766
▁리키안	-10767
▁미센스	-10768
▁벨라디	-10769
▁웬디즈	-10770
▁플래그	-10771
▁핸디형	-10772
▁qaop	-10773
▁tour	-10774
▁닥터마틴	-10775
▁스피렐라	-10776
▁테니스라켓	-10777
▁팜스프링스	-10778
▁onesize	-10779
bz	-10780
렝스	-10781
쇼파	-10782
양념	-10783
카멜	-10784
275	-10785
394	-10786
462	-10787
769	-10788
807	-10789
▁레져	-10790
▁조낙	-10791
▁직영	-10792
▁캐비	-10793
모리에	-10794
▁087	-10795
▁406	-10796
▁글로시	-10797
▁만수르	-10798
▁무봉제	-10799
▁비디오	-10800
▁삼천리	-10801
▁포케토	-10802
▁1116	-10803
▁본사직영	-10804
▁빠띠라인	-10805
▁siero	-10806
▁신발정리대	-10807
▁headphones	-10808
리시	-10809
클링	-10810
646	-10811
959	-10812
ask	-10813
▁ia	-10814
▁uc	-10815
▁모유	-10816
▁보타	-10817
▁친절	-10818
▁캡틴	-10819
▁타투	-10820
▁황토	-10821
▁bra	-10822
▁dcb	-10823
▁tww	-10824
▁끌레르	-10825
▁나시티	-10826
▁면팬츠	-10827
▁미스테	-10828
▁신사화	-10829
▁크리미	-10830
▁회의용	-10831
▁네일아트	-10832
▁돌하우스	-10833
▁맨프로토	-10834
▁베스티스	-10835
▁전동드릴	-10836
▁책상세트	-10837
▁story	-10838
▁벨라디터치	-10839
▁아야모리에	-10840
▁렌즈변환어댑터	-10841
▁일러스트롤스크린	-10842
tj	-10843
그니	-10844
붕붕	-10845
포니	-10846
488	-10847
547	-10848
757	-10849
970	-10850
▁반려	-10851
▁샤기	-10852
▁어퓨	-10853
▁임신	-10854
▁직쏘	-10855
▁창문	-10856
▁케라	-10857
▁합성	-10858
▁해지	-10859
장식장	-10860
패브릭	-10861
▁bea	-10862
▁lhf	-10863
▁도어형	-10864
▁보행기	-10865
▁토니치	-10866
식탁세트	-10867
▁디스트로	-10868
▁미끄럼틀	-10869
▁오토매틱	-10870
▁large	-10871
▁플라워트리	-10872
▁대형노프레임	-10873
▁웬디즈갤러리	-10874
마린	-10875
모다	-10876
보석	-10877
서트	-10878
젖병	-10879
착용	-10880
학용	-10881
332	-10882
480	-10883
818	-10884
870	-10885
912	-10886
col	-10887
▁기라	-10888
▁보국	-10889
▁빨대	-10890
안미로	-10891
7000	-10892
▁밀리밤	-10893
▁블라썸	-10894
▁아이엠	-10895
▁비쥬띠에	-10896
▁플립커버	-10897
라인스커트	-10898
▁골든벨시계	-10899
oa	-10900
라미	-10901
우기	-10902
접착	-10903
제약	-10904
치아	-10905
297	-10906
395	-10907
546	-10908
▁반사	-10909
▁방향	-10910
▁상큼	-10911
▁외출	-10912
▁투미	-10913
▁포커	-10914
색연필	-10915
아이콘	-10916
pole	-10917
▁817	-10918
▁gap	-10919
▁디오스	-10920
▁매장판	-10921
▁부스터	-10922
라운드티	-10923
제이콥스	-10924
▁슈퍼디비	-10925
▁엔비에이	-10926
▁여성팬티	-10927
▁출산선물	-10928
▁토모톰스	-10929
▁페리페라	-10930
트레이닝복	-10931
▁카드범퍼케이스	-10932
▁캠브리지멤버스	-10933
▁아메리칸투어리스터	-10934
lm	-10935
ri	-10936
가토	-10937
라면	-10938
앤벅	-10939
제과	-10940
277	-10941
545	-10942
767	-10943
▁ry	-10944
▁가루	-10945
▁모양	-10946
▁밸리	-10947
▁싸커	-10948
▁위한	-10949
▁즉시	-10950
▁지펠	-10951
머그컵	-10952
블랭킷	-10953
9900	-10954
ling	-10955
▁030	-10956
▁122	-10957
▁304	-10958
▁bot	-10959
▁cad	-10960
▁jdr	-10961
▁뽄재이	-10962
▁샴페인	-10963
▁신가드	-10964
여아런닝	-10965
▁sieg	-10966
▁스타일링	-10967
▁컬러블럭	-10968
▁제이디엑스	-10969
그래픽스티커	-10970
로쉬	-10971
번호	-10972
스탭	-10973
스페	-10974
엔느	-10975
청정	-10976
799	-10977
bts	-10978
ins	-10979
ude	-10980
▁xb	-10981
▁그랜	-10982
▁그루	-10983
▁드넬	-10984
▁몽슈	-10985
▁물통	-10986
▁초록	-10987
▁코비	-10988
복합기	-10989
비나더	-10990
속싸보	-10991
▁312	-10992
▁bwt	-10993
▁skt	-10994
▁머리핀	-10995
▁브라렛	-10996
▁엘라스	-10997
▁파이어	-10998
▁기가비트	-10999
▁보브패션	-11000
▁조아골드	-11001
▁쥬얼리아	-11002
▁커터앤벅	-11003
▁포레스트	-11004
▁아이잗바바	-11005
▁모니카비나더	-11006
ku	-11007
nf	-11008
xc	-11009
yw	-11010
▁납	-11011
공예	-11012
롤업	-11013
소다	-11014
찻잔	-11015
토시	-11016
피쉬	-11017
힙색	-11018
519	-11019
▁보노	-11020
▁치아	-11021
▁파일	-11022
구소켓	-11023
차일드	-11024
▁han	-11025
▁rog	-11026
▁shw	-11027
▁비버리	-11028
▁콜라보	-11029
▁햄라인	-11030
▁nbne	-11031
▁발레리나	-11032
▁오리엔탈	-11033
▁플라밍고	-11034
▁heart	-11035
▁oakley	-11036
▁beanpole	-11037
jd	-11038
tz	-11039
wu	-11040
382	-11041
415	-11042
816	-11043
996	-11044
▁깨끗	-11045
▁삼색	-11046
▁지폐	-11047
▁키트	-11048
▁티악	-11049
강아지	-11050
클레어	-11051
1011	-11052
egee	-11053
ular	-11054
▁228	-11055
▁bsz	-11056
▁map	-11057
▁ref	-11058
▁꽃자수	-11059
▁란체티	-11060
▁밸런스	-11061
▁성인용	-11062
마이크로	-11063
▁윙하우스	-11064
▁청소용품	-11065
▁cover	-11066
▁슬림넥타이	-11067
▁양구스패너	-11068
▁우먼시크릿	-11069
▁유선전화기	-11070
▁neegee	-11071
막스	-11072
미들	-11073
올린	-11074
입고	-11075
880	-11076
sto	-11077
▁그레	-11078
▁마벨	-11079
▁망치	-11080
▁방문	-11081
▁변신	-11082
▁쉴드	-11083
▁울시	-11084
▁절삭	-11085
▁천정	-11086
▁타운	-11087
퍼시픽	-11088
피오레	-11089
▁afs	-11090
▁cha	-11091
▁dvd	-11092
▁hen	-11093
▁rcd	-11094
▁고릴라	-11095
▁더리스	-11096
▁이랜드	-11097
▁프레스	-11098
플레이어	-11099
▁네파키즈	-11100
▁넷메이트	-11101
▁마틴싯봉	-11102
▁전기포트	-11103
▁제이씨현	-11104
▁네이쳐리빙	-11105
▁리클라이너	-11106
▁플레이모빌	-11107
▁lauren	-11108
▁닌	-11109
▁샵	-11110
보습	-11111
보정	-11112
수수	-11113
시어	-11114
코니	-11115
파잉	-11116
횡성	-11117
374	-11118
396	-11119
560	-11120
653	-11121
777	-11122
jpu	-11123
ren	-11124
▁견과	-11125
▁낮잠	-11126
▁배냇	-11127
▁셀프	-11128
▁오늘	-11129
▁춘추	-11130
▁팬텀	-11131
세라믹	-11132
1502	-11133
enta	-11134
fwbt	-11135
▁844	-11136
▁cpu	-11137
▁ita	-11138
▁jbr	-11139
▁vpl	-11140
▁더크루	-11141
▁버킷햇	-11142
▁쉐우드	-11143
▁아이피	-11144
▁올리버	-11145
▁유니버	-11146
▁은은한	-11147
▁인더룸	-11148
▁즐거운	-11149
▁케이지	-11150
▁크레송	-11151
여아민소	-11152
▁라인배색	-11153
▁비버리힐	-11154
▁원예가위	-11155
▁이라이프	-11156
▁speed	-11157
▁슬림케이스	-11158
pj	-11159
로운	-11160
수리	-11161
아령	-11162
이상	-11163
지나	-11164
체리	-11165
259	-11166
367	-11167
518	-11168
cle	-11169
▁난방	-11170
▁담배	-11171
▁배트	-11172
▁보흥	-11173
▁볼트	-11174
▁이쁜	-11175
▁킨트	-11176
7342	-11177
oney	-11178
▁207	-11179
▁갸스비	-11180
▁안마기	-11181
▁양문형	-11182
▁접착제	-11183
▁집게핀	-11184
▁편지지	-11185
▁vint	-11186
▁여권지갑	-11187
▁옷장세트	-11188
▁팀버라인	-11189
▁남자청바지	-11190
▁하이웨스트	-11191
▁스마트폰케이스	-11192
cq	-11193
gj	-11194
wx	-11195
▁챙	-11196
나리	-11197
네사	-11198
치원	-11199
카바	-11200
카스	-11201
흡착	-11202
532	-11203
ssd	-11204
umi	-11205
▁가마	-11206
▁래빗	-11207
▁원홀	-11208
▁지엠	-11209
▁함께	-11210
그라스	-11211
네이트	-11212
토이스	-11213
1815	-11214
▁503	-11215
▁any	-11216
▁ara	-11217
▁bou	-11218
▁ghd	-11219
▁tow	-11220
▁wor	-11221
▁마이티	-11222
▁버킷백	-11223
▁챔피온	-11224
▁기라로쉬	-11225
▁르느와르	-11226
▁스트리트	-11227
▁래핑차일드	-11228
▁쉐우드가구	-11229
▁한국타이어	-11230
▁garden	-11231
▁topboy	-11232
rp	-11233
▁징	-11234
▁헥	-11235
국수	-11236
금속	-11237
모래	-11238
야구	-11239
엘레	-11240
월렛	-11241
399	-11242
848	-11243
ncl	-11244
▁가데	-11245
▁경기	-11246
▁보틀	-11247
▁수채	-11248
▁애묘	-11249
▁온쿄	-11250
▁원퍼	-11251
▁특허	-11252
사무용	-11253
스티나	-11254
rint	-11255
▁013	-11256
▁pnk	-11257
▁ssa	-11258
▁비누대	-11259
▁샤바스	-11260
▁일본산	-11261
▁제니아	-11262
▁wxga	-11263
▁막스카라	-11264
▁초극세사	-11265
▁check	-11266
▁동부대우전자	-11267
nl	-11268
▁앱	-11269
나노	-11270
네일	-11271
농축	-11272
보니	-11273
영양	-11274
조리	-11275
퍼플	-11276
하늘	-11277
항공	-11278
796	-11279
▁거즈	-11280
▁깜찍	-11281
▁대일	-11282
▁베라	-11283
▁벤츠	-11284
▁축하	-11285
▁키카	-11286
라이히	-11287
▁290	-11288
▁fro	-11289
▁sww	-11290
▁니베아	-11291
▁롱자켓	-11292
▁바이탈	-11293
▁카매트	-11294
▁타이포	-11295
▁도어가드	-11296
▁미스테리	-11297
▁슐라이히	-11298
▁코코리따	-11299
▁khaki	-11300
▁스테인리스	-11301
▁하늘바라기	-11302
▁헹	-11303
드럼	-11304
바우	-11305
캇타	-11306
942	-11307
bro	-11308
irr	-11309
sho	-11310
▁간이	-11311
▁서류	-11312
▁수성	-11313
▁스쿼	-11314
▁컴포	-11315
▁포맨	-11316
수진주	-11317
제거제	-11318
▁815	-11319
▁enn	-11320
▁계산기	-11321
▁더스트	-11322
▁등받이	-11323
▁롱패딩	-11324
▁무전기	-11325
▁별자리	-11326
▁제이블	-11327
▁프리티	-11328
배드민턴	-11329
▁과학용품	-11330
▁라이트닝	-11331
▁리튬이온	-11332
▁하이마트	-11333
▁corsa	-11334
▁under	-11335
▁반투명시트지	-11336
▁블루라이트차단	-11337
▁쌤소나이트레드	-11338
▁제이반스클래식	-11339
pq	-11340
uj	-11341
▁쮸	-11342
가이	-11343
레온	-11344
리필	-11345
퍼트	-11346
456	-11347
635	-11348
urs	-11349
▁jc	-11350
▁zb	-11351
▁광폭	-11352
▁리엔	-11353
▁쓰임	-11354
▁웨이	-11355
▁이브	-11356
▁전면	-11357
▁탄력	-11358
랜카드	-11359
반티아	-11360
▁116	-11361
▁507	-11362
▁lss	-11363
▁msw	-11364
▁노비타	-11365
▁부스트	-11366
▁스테이	-11367
▁킨텍스	-11368
디에이터	-11369
클러치백	-11370
ports	-11371
▁매니큐어	-11372
▁머스타드	-11373
▁심플라인	-11374
▁canon	-11375
▁아이브로우	-11376
▁자전거바지	-11377
▁corsair	-11378
로지	-11379
물통	-11380
375	-11381
458	-11382
728	-11383
aff	-11384
cas	-11385
ilc	-11386
▁ei	-11387
▁lq	-11388
▁격자	-11389
▁나팔	-11390
▁덧신	-11391
▁링크	-11392
▁사슴	-11393
샤리프	-11394
1702	-11395
▁063	-11396
▁dou	-11397
▁hmc	-11398
▁속바지	-11399
▁아이존	-11400
▁태블릿	-11401
▁city	-11402
▁snap	-11403
▁바이모노	-11404
▁서플렉스	-11405
▁웰라이프	-11406
▁커플잠옷	-11407
▁크레이지	-11408
익스체인지	-11409
▁sanwa	-11410
▁멜로디가든	-11411
▁분리수거함	-11412
▁에어컨필터	-11413
▁한립토이스	-11414
▁해리메이슨	-11415
▁원퍼센트플러스	-11416
oq	-11417
▁낙	-11418
▁얇	-11419
▁형	-11420
둥이	-11421
시크	-11422
쟁이	-11423
출력	-11424
충제	-11425
클립	-11426
풍선	-11427
플럼	-11428
헬스	-11429
428	-11430
913	-11431
aph	-11432
ico	-11433
▁ze	-11434
▁라라	-11435
▁립스	-11436
▁보스	-11437
▁아령	-11438
▁온열	-11439
액티브	-11440
인소파	-11441
ocks	-11442
ural	-11443
▁232	-11444
▁aco	-11445
▁라이딩	-11446
▁세면대	-11447
▁속싸개	-11448
▁시마노	-11449
배내가운	-11450
▁dual	-11451
▁ilmo	-11452
▁노트스킨	-11453
▁브렌우드	-11454
▁전기그릴	-11455
▁파프리카	-11456
▁48170	-11457
▁ultra	-11458
▁배색포인트	-11459
▁브라반티아	-11460
▁앤드스타일	-11461
▁소나타케이스	-11462
hq	-11463
▁뾰	-11464
고글	-11465
기계	-11466
기업	-11467
란다	-11468
액션	-11469
트레	-11470
392	-11471
943	-11472
kat	-11473
vaa	-11474
wix	-11475
▁내열	-11476
▁돼지	-11477
▁랑콤	-11478
▁제거	-11479
▁하찌	-11480
▁802	-11481
▁csm	-11482
▁hel	-11483
▁mot	-11484
▁tpu	-11485
▁레노버	-11486
▁타이트	-11487
▁플로라	-11488
▁flor	-11489
▁phil	-11490
▁모이스트	-11491
▁카모플라	-11492
▁크리니크	-11493
프릴원피스	-11494
▁가스레인지	-11495
▁갤러리아몰	-11496
▁도자기그릇	-11497
▁슈퍼디비젼	-11498
▁엘리자베스	-11499
▁여행용가방	-11500
▁오마샤리프	-11501
estwood	-11502
▁플라워프린트	-11503
kf	-11504
렐리	-11505
멜트	-11506
명함	-11507
물감	-11508
별도	-11509
세럼	-11510
파라	-11511
ary	-11512
bsl	-11513
cgr	-11514
mjp	-11515
▁jf	-11516
▁발열	-11517
▁빨간	-11518
▁생선	-11519
▁써멀	-11520
▁커팅	-11521
도어락	-11522
책꽂이	-11523
fxkr	-11524
swag	-11525
▁325	-11526
▁bbc	-11527
▁dcf	-11528
▁eph	-11529
▁snp	-11530
▁고성능	-11531
▁색연필	-11532
▁스네일	-11533
▁오스틴	-11534
▁유치원	-11535
▁음이온	-11536
▁초고속	-11537
▁초소형	-11538
▁트랜드	-11539
▁필로우	-11540
가스렌지	-11541
▁high	-11542
▁ipad	-11543
▁비비크림	-11544
▁슈퍼크록	-11545
▁아웃포켓	-11546
▁전체세트	-11547
▁조이멀티	-11548
▁클라이밍	-11549
▁프로방스	-11550
▁ivory	-11551
▁harris	-11552
▁premium	-11553
듀퐁	-11554
로나	-11555
맥퀸	-11556
베일	-11557
본딩	-11558
쇼크	-11559
388	-11560
719	-11561
922	-11562
arf	-11563
eet	-11564
ult	-11565
▁관절	-11566
▁동화	-11567
▁두리	-11568
▁레터	-11569
▁오즈	-11570
▁윈펀	-11571
▁이츠	-11572
▁존슨	-11573
▁주니	-11574
▁타프	-11575
▁투영	-11576
나이스	-11577
레이팅	-11578
스피드	-11579
시보리	-11580
클라쎄	-11581
페이지	-11582
2200	-11583
▁031	-11584
▁525	-11585
▁frj	-11586
▁jdp	-11587
▁nad	-11588
▁spt	-11589
▁복합기	-11590
▁브라더	-11591
▁아가일	-11592
▁아우터	-11593
▁전기톱	-11594
칠부내의	-11595
▁polo	-11596
▁미니어처	-11597
▁아동한복	-11598
▁어린이집	-11599
▁조르지오	-11600
지오그래픽	-11601
▁스포츠용품	-11602
▁플레이텍스	-11603
▁costar	-11604
▁forest	-11605
▁silent	-11606
▁마틴싯봉리빙	-11607
▁costarswag	-11608
gu	-11609
rv	-11610
뚝딱	-11611
렐레	-11612
숭이	-11613
일기	-11614
페토	-11615
페페	-11616
436	-11617
dsl	-11618
▁감자	-11619
▁삼진	-11620
▁샐리	-11621
▁이후	-11622
▁주석	-11623
▁쿠킹	-11624
블라썸	-11625
앤더그	-11626
앨리스	-11627
이발기	-11628
장세트	-11629
▁pdn	-11630
▁게이트	-11631
▁뉴욕양	-11632
▁맨스백	-11633
▁밴브루	-11634
▁생로랑	-11635
▁스타터	-11636
▁스피도	-11637
▁실루엣	-11638
▁옷타쿠	-11639
▁플리퍼	-11640
크래프트	-11641
ookie	-11642
▁summ	-11643
▁모자이크	-11644
▁베가리니	-11645
▁수저세트	-11646
▁진주장식	-11647
▁체크무늬	-11648
▁테니스화	-11649
oulder	-11650
▁마리오아울렛	-11651
tf	-11652
같은	-11653
덱스	-11654
들의	-11655
상방	-11656
817	-11657
891	-11658
980	-11659
bax	-11660
▁ty	-11661
▁디씨	-11662
▁로렌	-11663
▁매틴	-11664
▁명절	-11665
▁산타	-11666
▁쥬스	-11667
▁펠트	-11668
iane	-11669
iger	-11670
▁206	-11671
▁390	-11672
▁655	-11673
▁bat	-11674
▁ijs	-11675
▁key	-11676
▁lwt	-11677
▁zax	-11678
▁교체형	-11679
▁다리미	-11680
▁리프트	-11681
▁위니아	-11682
▁이건만	-11683
▁일회용	-11684
▁통기타	-11685
▁풋살화	-11686
▁홑이불	-11687
▁atdr	-11688
▁ebwp	-11689
▁logo	-11690
▁사각접시	-11691
▁시스맥스	-11692
▁신지가토	-11693
▁아멜리에	-11694
▁엔케이스	-11695
▁플루이드	-11696
▁kappa	-11697
▁금연스티커	-11698
▁vliane	-11699
▁멜리사앤더그	-11700
▁토마토팩토리	-11701
▁bearpaw	-11702
▁내셔널지오그래픽	-11703
yg	-11704
▁힘	-11705
래곤	-11706
보라	-11707
셀러	-11708
오브	-11709
피어	-11710
aha	-11711
dpf	-11712
ghe	-11713
tam	-11714
▁데오	-11715
▁드리	-11716
▁레자	-11717
▁박씨	-11718
▁부클	-11719
▁에너	-11720
▁예화	-11721
▁자개	-11722
디지탈	-11723
실리콘	-11724
프레드	-11725
▁803	-11726
▁scr	-11727
▁균일가	-11728
▁셀카봉	-11729
▁스크럽	-11730
▁엠비오	-11731
▁roem	-11732
▁박씨상방	-11733
▁세라구두	-11734
▁어반코드	-11735
▁주문제작	-11736
▁핸즈프리	-11737
ncloud	-11738
▁아이피타임	-11739
▁에브리데이	-11740
▁여자숄더백	-11741
▁딤	-11742
▁뜨	-11743
농장	-11744
랑스	-11745
쉐프	-11746
아베	-11747
533	-11748
666	-11749
843	-11750
853	-11751
abr	-11752
wht	-11753
▁ug	-11754
▁땡큐	-11755
▁마니	-11756
▁바찌	-11757
▁밥풀	-11758
▁살구	-11759
▁아빠	-11760
▁입큰	-11761
싼타페	-11762
유연제	-11763
1203	-11764
2002	-11765
▁331	-11766
▁514	-11767
▁wbw	-11768
▁리버스	-11769
▁리치오	-11770
▁천장형	-11771
▁코쿼드	-11772
바람막이	-11773
폴라니트	-11774
플라스틱	-11775
▁문구사무	-11776
▁비누방울	-11777
▁엘다원목	-11778
▁젠틀맨즈	-11779
▁최대할인	-11780
▁쿠션커버	-11781
▁함마렌치	-11782
▁블루피오레	-11783
▁아덴바이크	-11784
▁정품보증서	-11785
▁마스킹테이프	-11786
▁콤비네이션렌치	-11787
aq	-11788
나잇	-11789
시피	-11790
킴스	-11791
트럭	-11792
387	-11793
633	-11794
648	-11795
788	-11796
▁깊은	-11797
▁렌지	-11798
▁무빙	-11799
▁씨티	-11800
▁이얀	-11801
▁잔디	-11802
▁헬리	-11803
치랭스	-11804
프로이	-11805
back	-11806
▁620	-11807
▁ata	-11808
▁ath	-11809
▁did	-11810
▁ehd	-11811
▁hit	-11812
▁로레알	-11813
▁마켓비	-11814
▁스키복	-11815
▁티엔느	-11816
▁5200	-11817
▁brav	-11818
▁slee	-11819
▁라프로이	-11820
▁스윗하트	-11821
▁스타투스	-11822
▁안전용품	-11823
▁헤드랜턴	-11824
진공청소기	-11825
▁docup	-11826
▁남성캐주얼	-11827
▁milano	-11828
▁renoma	-11829
▁디스트로이드	-11830
▁vintage	-11831
▁training	-11832
ek	-11833
jw	-11834
lh	-11835
▁퀼	-11836
▁흙	-11837
근당	-11838
누빔	-11839
란트	-11840
름모	-11841
세지	-11842
슈가	-11843
쵸바	-11844
타인	-11845
페르	-11846
하나	-11847
431	-11848
659	-11849
ape	-11850
gau	-11851
▁그램	-11852
▁도너	-11853
▁맨유	-11854
▁보증	-11855
▁스낵	-11856
▁완전	-11857
▁우신	-11858
▁필립	-11859
▁하마	-11860
실내화	-11861
양가죽	-11862
유모차	-11863
1020	-11864
▁222	-11865
▁234	-11866
▁ccd	-11867
▁exo	-11868
▁exp	-11869
▁yam	-11870
▁기프트	-11871
▁마이랩	-11872
▁바로크	-11873
▁스칼렛	-11874
▁익소몰	-11875
마틴싯봉	-11876
▁bblt	-11877
▁냄비받침	-11878
▁shure	-11879
▁갤럭시알파	-11880
▁비비하우스	-11881
▁스노우체인	-11882
▁블랙마틴싯봉	-11883
▁코모도스퀘어	-11884
▁anncloud	-11885
▁harrison	-11886
낙스	-11887
잔디	-11888
전드	-11889
454	-11890
830	-11891
eek	-11892
max	-11893
mpl	-11894
sbr	-11895
▁yt	-11896
▁높은	-11897
▁라떼	-11898
▁슈에	-11899
▁알바	-11900
▁오휘	-11901
▁용돈	-11902
▁정상	-11903
분세차	-11904
1501	-11905
1975	-11906
▁208	-11907
▁mip	-11908
▁pin	-11909
▁ppt	-11910
▁reg	-11911
▁ste	-11912
▁교육용	-11913
▁루이스	-11914
▁맥주잔	-11915
▁메르시	-11916
▁빠른답	-11917
▁샤오미	-11918
▁스타샵	-11919
▁애스크	-11920
▁잔조직	-11921
▁저금통	-11922
▁list	-11923
▁머큐리얼	-11924
▁송월타월	-11925
▁여성의류	-11926
▁포니테일	-11927
▁tiara	-11928
▁각도절단기	-11929
▁전기레인지	-11930
▁커피메이커	-11931
▁portable	-11932
▁shoulder	-11933
▁넛	-11934
▁쿼	-11935
글링	-11936
명차	-11937
목줄	-11938
변경	-11939
타운	-11940
831	-11941
▁ub	-11942
▁겔랑	-11943
▁나눔	-11944
▁도톰	-11945
▁실켓	-11946
▁오트	-11947
▁웨어	-11948
▁플란	-11949
카스터	-11950
퍼스트	-11951
2500	-11952
▁alf	-11953
▁nom	-11954
▁stm	-11955
▁메이드	-11956
▁뮤지컬	-11957
▁아르스	-11958
▁이란지	-11959
▁저스트	-11960
▁퍼스웰	-11961
▁eleg	-11962
▁vans	-11963
▁공구세트	-11964
▁부토니에	-11965
▁지이크파	-11966
캐주얼셔츠	-11967
▁남자넥타이	-11968
▁베가아이언	-11969
▁지이크파렌하이트	-11970
▁죽	-11971
공업	-11972
런치	-11973
르마	-11974
아티	-11975
찌아	-11976
크라	-11977
테라	-11978
534	-11979
617	-11980
991	-11981
iin	-11982
▁bv	-11983
▁ey	-11984
▁거들	-11985
▁냉감	-11986
▁모션	-11987
▁삼미	-11988
▁석류	-11989
▁주자	-11990
▁중고	-11991
▁펜치	-11992
장우산	-11993
파우더	-11994
▁016	-11995
▁213	-11996
▁giv	-11997
▁jap	-11998
▁ltd	-11999
▁mod	-12000
▁nsw	-12001
▁tou	-12002
▁꽃을든	-12003
▁더리체	-12004
▁리퍼스	-12005
▁맛있는	-12006
▁보네르	-12007
▁우양산	-12008
▁핸들봉	-12009
▁홀마크	-12010
▁화려한	-12011
삼성정품	-12012
angle	-12013
▁gent	-12014
▁lnjk	-12015
▁tate	-12016
▁매장정품	-12017
▁모래놀이	-12018
▁배팅장갑	-12019
▁인베스트	-12020
▁제인코트	-12021
▁킨텍스점	-12022
▁허리벨트	-12023
▁홀로그램	-12024
▁손목보호대	-12025
▁워터프루프	-12026
▁팁	-12027
에리	-12028
젠벅	-12029
킨스	-12030
팽이	-12031
373	-12032
426	-12033
826	-12034
966	-12035
pix	-12036
shp	-12037
ssh	-12038
▁vf	-12039
▁리사	-12040
▁미셸	-12041
▁번개	-12042
▁요꼬	-12043
▁정원	-12044
▁칠부	-12045
콤마비	-12046
티포트	-12047
▁029	-12048
▁ass	-12049
▁bol	-12050
▁꽃나염	-12051
▁리스판	-12052
▁심플리	-12053
▁웨스턴	-12054
▁제습기	-12055
▁다이렉트	-12056
▁블루페페	-12057
▁케미에르	-12058
▁고압세척기	-12059
▁소파테이블	-12060
▁애플스토리	-12061
▁웨이스트백	-12062
▁시력보호필름	-12063
▁에어임팩렌치	-12064
▁프리마클라쎄	-12065
▁에어워크주니어	-12066
▁docuprint	-12067
▁아르마니익스체인지	-12068
td	-12069
무라	-12070
밀크	-12071
보유	-12072
빠른	-12073
지노	-12074
591	-12075
645	-12076
794	-12077
▁비엔	-12078
▁여주	-12079
▁왕관	-12080
▁접톱	-12081
▁주물	-12082
라인드	-12083
포인터	-12084
oset	-12085
▁goo	-12086
▁mdr	-12087
▁sch	-12088
▁ult	-12089
▁wbr	-12090
▁고아라	-12091
▁글로스	-12092
▁쁘띠뮤	-12093
▁어드밴	-12094
▁여름용	-12095
▁종근당	-12096
▁지니킴	-12097
▁트레일	-12098
ondon	-12099
sport	-12100
▁spec	-12101
▁기모안감	-12102
▁디오라마	-12103
▁라쳇렌치	-12104
▁랑카스터	-12105
▁리스판스	-12106
▁마스크팩	-12107
▁샌디스크	-12108
▁조거팬츠	-12109
▁주방놀이	-12110
라운드니트	-12111
▁남성트렁크	-12112
▁자전거용품	-12113
▁레노마레이디	-12114
▁색상랜덤발송	-12115
비시	-12116
사과	-12117
썸머	-12118
우주	-12119
좌식	-12120
초기	-12121
피그	-12122
359	-12123
727	-12124
ani	-12125
ban	-12126
ono	-12127
opf	-12128
▁qs	-12129
▁um	-12130
▁업소	-12131
▁이온	-12132
▁터보	-12133
▁텐션	-12134
▁홈바	-12135
▁흔들	-12136
라이저	-12137
의품격	-12138
1303	-12139
▁509	-12140
▁boy	-12141
▁clr	-12142
▁vev	-12143
▁미스링	-12144
▁색상임	-12145
▁자물쇠	-12146
▁펜탁스	-12147
▁포토닉	-12148
▁엘라스틴	-12149
▁울스포츠	-12150
▁유니버셜	-12151
▁토마톰스	-12152
▁풋프린트	-12153
▁erghe	-12154
▁point	-12155
▁golden	-12156
▁little	-12157
qr	-12158
▁숯	-12159
기스	-12160
몰딩	-12161
양수	-12162
잔한	-12163
즈드	-12164
쿠커	-12165
해지	-12166
398	-12167
636	-12168
928	-12169
953	-12170
▁가온	-12171
▁땅콩	-12172
▁로또	-12173
▁로브	-12174
▁쌍계	-12175
▁아비	-12176
▁알슨	-12177
▁영창	-12178
▁온도	-12179
▁입식	-12180
▁춘하	-12181
▁특수	-12182
▁픽스	-12183
아이템	-12184
판매점	-12185
2004	-12186
▁470	-12187
▁aqu	-12188
▁boo	-12189
▁but	-12190
▁coc	-12191
▁low	-12192
▁sak	-12193
▁two	-12194
▁데미안	-12195
▁리드줄	-12196
▁미니카	-12197
▁베티나	-12198
▁빅포켓	-12199
▁아르간	-12200
▁코코넛	-12201
▁콧수염	-12202
▁티팬티	-12203
▁allo	-12204
▁down	-12205
▁sauv	-12206
▁인디고샵	-12207
▁토크렌치	-12208
▁플렉시블	-12209
▁헬스웨이	-12210
스트레이트	-12211
▁japan	-12212
▁kenzo	-12213
▁레드페이스	-12214
▁filams	-12215
▁아모레퍼시픽	-12216
▁알렉산더맥퀸	-12217
▁주유구스티커	-12218
▁natural	-12219
bx	-12220
구름	-12221
멜빵	-12222
버린	-12223
식초	-12224
폴드	-12225
856	-12226
888	-12227
brx	-12228
pin	-12229
▁가운	-12230
▁누구	-12231
▁라피	-12232
▁방지	-12233
▁비죠	-12234
▁새틴	-12235
▁왕자	-12236
▁인트	-12237
▁컨셉	-12238
▁파스	-12239
스위치	-12240
켄스탁	-12241
▁035	-12242
▁hor	-12243
▁kcx	-12244
▁mdm	-12245
▁mit	-12246
▁npg	-12247
▁twb	-12248
▁동글이	-12249
▁마틸라	-12250
▁목쿠션	-12251
anuel	-12252
house	-12253
▁2010	-12254
▁ecco	-12255
▁lamp	-12256
▁nici	-12257
▁sams	-12258
▁shop	-12259
▁밥풀과학	-12260
▁버켄스탁	-12261
▁산업용품	-12262
▁오일릴리	-12263
▁smato	-12264
▁북유럽가구	-12265
▁sauvanuel	-12266
zd	-12267
▁증	-12268
견적	-12269
냥이	-12270
리싱	-12271
맥시	-12272
메달	-12273
발달	-12274
735	-12275
921	-12276
bar	-12277
gge	-12278
jei	-12279
▁매긴	-12280
▁소피	-12281
▁장착	-12282
셀렉션	-12283
컴포트	-12284
헤드셋	-12285
wear	-12286
▁530	-12287
▁cmw	-12288
▁pix	-12289
▁가드업	-12290
▁골프백	-12291
▁오리진	-12292
▁코웨이	-12293
스웨이드	-12294
▁mono	-12295
▁nbmd	-12296
▁도트패턴	-12297
▁매니아온	-12298
▁실버팔찌	-12299
▁컴프레션	-12300
와이드팬츠	-12301
인터내셔널	-12302
▁rojei	-12303
▁소나무원목	-12304
▁아르스노바	-12305
▁축구유니폼	-12306
▁치마레깅스	-12307
▁카드케이스	-12308
▁캐쥬얼가방	-12309
▁닐	-12310
레벨	-12311
씨드	-12312
일산	-12313
체육	-12314
397	-12315
538	-12316
759	-12317
ima	-12318
▁사가	-12319
▁스닉	-12320
▁총판	-12321
▁콤보	-12322
넥니트	-12323
바이스	-12324
쵸바치	-12325
ovid	-12326
whch	-12327
▁483	-12328
▁fly	-12329
▁sat	-12330
▁메모지	-12331
▁몽슈와	-12332
▁바스칼	-12333
▁베이퍼	-12334
▁보관함	-12335
▁치랭스	-12336
▁플래너	-12337
긴팔셔츠	-12338
klace	-12339
▁body	-12340
▁데스크탑	-12341
▁몽클레어	-12342
▁바쵸바치	-12343
▁보온보냉	-12344
▁콤프레샤	-12345
배색원피스	-12346
▁28175	-12347
▁에인하우스	-12348
▁프레스티지	-12349
▁한성컴퓨터	-12350
▁젠틀맨즈컨셉	-12351
▁핀스트라이프	-12352
▁nanovid	-12353
▁법	-12354
베기	-12355
스케	-12356
중심	-12357
퀴즈	-12358
후프	-12359
372	-12360
455	-12361
688	-12362
833	-12363
▁qc	-12364
▁대진	-12365
▁두닷	-12366
▁셋트	-12367
▁윤씨	-12368
▁통통	-12369
▁튀김	-12370
미끄럼	-12371
아이폰	-12372
ical	-12373
▁025	-12374
▁bev	-12375
▁boa	-12376
▁dup	-12377
▁esc	-12378
▁gbh	-12379
▁isl	-12380
▁nbs	-12381
▁wpt	-12382
▁다이얼	-12383
▁샤르망	-12384
▁트랜스	-12385
▁플라잉	-12386
▁made	-12387
▁perf	-12388
▁대림바스	-12389
▁스프리스	-12390
▁싸이클복	-12391
▁ennee	-12392
▁victor	-12393
▁elegance	-12394
ql	-12395
vi	-12396
▁굴	-12397
▁탭	-12398
깃털	-12399
넬리	-12400
보르	-12401
앨범	-12402
이핑	-12403
인기	-12404
초코	-12405
틴트	-12406
페달	-12407
폴더	-12408
287	-12409
uto	-12410
▁og	-12411
▁yd	-12412
▁달퐁	-12413
▁도넛	-12414
▁멜라	-12415
▁모공	-12416
▁목줄	-12417
▁보냉	-12418
▁생지	-12419
▁쉽게	-12420
▁오른	-12421
▁잠금	-12422
▁참숯	-12423
▁탄산	-12424
▁탈착	-12425
▁팬더	-12426
단서랍	-12427
등산화	-12428
1105	-12429
1602	-12430
▁060	-12431
▁198	-12432
▁707	-12433
▁bbh	-12434
▁hom	-12435
▁가로형	-12436
▁데코원	-12437
▁레이벤	-12438
▁레이서	-12439
▁바이저	-12440
▁반장갑	-12441
▁볼헤드	-12442
▁비앤비	-12443
▁사첼백	-12444
▁아사히	-12445
▁조립킷	-12446
▁카라멜	-12447
berry	-12448
black	-12449
▁2800	-12450
▁arth	-12451
▁comp	-12452
▁edge	-12453
▁etro	-12454
▁snow	-12455
▁스키니핏	-12456
▁애견용품	-12457
▁이유식기	-12458
▁sweet	-12459
▁아사셀렉션	-12460
▁율미아스탭	-12461
▁갤럭시와이드	-12462
▁멜란지그레이	-12463
▁slimcase	-12464
▁뛰	-12465
곡면	-12466
비치	-12467
앤원	-12468
288	-12469
419	-12470
459	-12471
526	-12472
797	-12473
cat	-12474
ril	-12475
shb	-12476
une	-12477
▁길이	-12478
▁끌래	-12479
▁냅킨	-12480
▁아침	-12481
▁워셔	-12482
▁진동	-12483
단책장	-12484
멜란지	-12485
책가방	-12486
클레온	-12487
1070	-12488
inch	-12489
▁132	-12490
▁깨끗한	-12491
▁보스톤	-12492
▁블랙앤	-12493
▁세바스	-12494
▁스카치	-12495
▁스케치	-12496
▁양치컵	-12497
▁올리빙	-12498
▁조립식	-12499
정장벨트	-12500
테디베어	-12501
▁끌래망스	-12502
▁생일선물	-12503
▁아이우먼	-12504
▁영에이지	-12505
▁클라란스	-12506
▁톰브라운	-12507
▁shirt	-12508
▁style	-12509
▁미스테리월	-12510
▁오션글라스	-12511
▁오스틴리드	-12512
▁전기주전자	-12513
▁캐주얼팬츠	-12514
qf	-12515
tx	-12516
▁습	-12517
▁틸	-12518
력기	-12519
자이	-12520
프터	-12521
860	-12522
cts	-12523
ece	-12524
oxo	-12525
▁yp	-12526
▁걸스	-12527
▁난로	-12528
▁맘스	-12529
▁뾰족	-12530
▁소풍	-12531
▁아라	-12532
▁알마	-12533
▁에탐	-12534
▁에피	-12535
▁찻잔	-12536
▁케익	-12537
▁킨토	-12538
▁텍스	-12539
비비안	-12540
▁217	-12541
▁540	-12542
▁aus	-12543
▁che	-12544
▁cir	-12545
▁dry	-12546
▁smx	-12547
▁tim	-12548
▁레전드	-12549
▁로보카	-12550
▁멀티탭	-12551
▁방향제	-12552
▁아니베	-12553
▁아코록	-12554
▁트레인	-12555
▁퍼블릭	-12556
배기팬츠	-12557
▁2012	-12558
▁게이트맨	-12559
▁딥그레이	-12560
▁베지터블	-12561
▁씨에스타	-12562
▁아로니아	-12563
▁엠포르스	-12564
▁자유공간	-12565
▁한양수전	-12566
▁house	-12567
▁pumps	-12568
▁웨스트우드	-12569
▁남자서류가방	-12570
▁배드민턴의류	-12571
lu	-12572
▁닛	-12573
단품	-12574
뜨리	-12575
봉봉	-12576
쇼퍼	-12577
수거	-12578
크롬	-12579
837	-12580
846	-12581
sse	-12582
▁xp	-12583
▁꿀벌	-12584
▁마음	-12585
▁모발	-12586
▁부띠	-12587
▁북극	-12588
▁세비	-12589
▁아대	-12590
▁얼티	-12591
▁월튼	-12592
▁이즈	-12593
▁키티	-12594
▁티오	-12595
▁펠리	-12596
▁하비	-12597
라디오	-12598
콜렉션	-12599
퀄리티	-12600
히어로	-12601
0016	-12602
1008	-12603
imal	-12604
onak	-12605
▁805	-12606
▁gip	-12607
▁mab	-12608
▁vlg	-12609
▁wsk	-12610
▁루스코	-12611
▁빅로고	-12612
▁손가락	-12613
▁아이엘	-12614
▁앞트임	-12615
▁애끼링	-12616
▁오케이	-12617
▁이엔씨	-12618
▁하프넥	-12619
라이더스	-12620
▁aldo	-12621
▁core	-12622
▁tool	-12623
▁공구가방	-12624
▁블랙박스	-12625
▁사각팬티	-12626
▁폴라니트	-12627
▁프리미에	-12628
▁atbpr	-12629
▁방진마스크	-12630
▁클래스에스	-12631
▁calvin	-12632
▁대쉬보드커버	-12633
bj	-12634
━━	-12635
▁쉘	-12636
게이	-12637
메랄	-12638
아기	-12639
코타	-12640
플립	-12641
433	-12642
783	-12643
819	-12644
zen	-12645
▁덴비	-12646
▁베레	-12647
▁스완	-12648
▁장목	-12649
▁트롬	-12650
0300	-12651
1030	-12652
eaks	-12653
▁015	-12654
▁299	-12655
▁dmc	-12656
▁mak	-12657
▁sus	-12658
▁제니퍼	-12659
▁쥬니어	-12660
▁하와이	-12661
스트레치	-12662
ngent	-12663
▁3100	-12664
▁lnmt	-12665
▁wool	-12666
▁리버시블	-12667
▁밀란시아	-12668
▁엑스퍼트	-12669
▁요가바지	-12670
▁크로스겸	-12671
iincos	-12672
▁swiss	-12673
▁기본설치비	-12674
▁보흥클레온	-12675
▁아이스박스	-12676
▁기본설치포함	-12677
▁레노마수영복	-12678
▁마크제이콥스	-12679
▁towngent	-12680
▁람	-12681
▁쇠	-12682
▁처	-12683
감의	-12684
냉장	-12685
달이	-12686
레뜨	-12687
르끼	-12688
우니	-12689
젠더	-12690
천연	-12691
탕기	-12692
티크	-12693
프랑	-12694
446	-12695
bay	-12696
gcu	-12697
let	-12698
▁고객	-12699
▁베스	-12700
▁폰폼	-12701
리아이	-12702
스타트	-12703
안마기	-12704
프랭크	-12705
플리스	-12706
하이힐	-12707
1009	-12708
▁ame	-12709
▁bsm	-12710
▁nik	-12711
▁rcn	-12712
▁vie	-12713
▁골든듀	-12714
▁바자르	-12715
▁세정제	-12716
▁수려한	-12717
▁씨저스	-12718
▁토트앤	-12719
▁포인포	-12720
▁풀집업	-12721
프라이스	-12722
▁1700	-12723
▁메탈밴드	-12724
▁씨에스텍	-12725
▁월튼키즈	-12726
▁크리스찬	-12727
▁트랙수트	-12728
▁팬티세트	-12729
▁후지필름	-12730
크리스마스	-12731
▁andew	-12732
▁거실장세트	-12733
▁그레이스벨	-12734
▁꽃을든남자	-12735
▁베티나르디	-12736
▁세컨플로어	-12737
▁오프화이트	-12738
▁글라스시트지	-12739
▁coiincos	-12740
▁떡	-12741
거트	-12742
로폰	-12743
마키	-12744
박시	-12745
벌룬	-12746
부케	-12747
비지	-12748
안나	-12749
정보	-12750
커브	-12751
탄력	-12752
274	-12753
557	-12754
789	-12755
alo	-12756
jpf	-12757
kdt	-12758
nax	-12759
pnk	-12760
▁단면	-12761
▁복싱	-12762
▁옴니	-12763
▁우유	-12764
▁캣츠	-12765
▁헤파	-12766
▁후라	-12767
리프트	-12768
바이트	-12769
우루스	-12770
축구화	-12771
클로즈	-12772
페르가	-12773
ffee	-12774
▁090	-12775
▁218	-12776
▁375	-12777
▁615	-12778
▁김아름	-12779
▁댕글링	-12780
▁데니스	-12781
▁라쿤퍼	-12782
▁스위칭	-12783
▁원앤원	-12784
▁real	-12785
▁time	-12786
▁과학교구	-12787
▁깅엄체크	-12788
▁롱티셔츠	-12789
▁마크막스	-12790
▁양수냄비	-12791
▁이후년도	-12792
▁cubig	-12793
▁night	-12794
▁twink	-12795
▁빈치스벤치	-12796
▁전자레인지	-12797
▁큐어쿠스틱	-12798
▁클라이드엔	-12799
▁프리미에쥬르	-12800
cv	-12801
▁쥐	-12802
레몬	-12803
메르	-12804
쁘띠	-12805
어드	-12806
진액	-12807
하겐	-12808
효과	-12809
559	-12810
dkt	-12811
▁더마	-12812
▁미시	-12813
▁악녀	-12814
▁애착	-12815
▁어썸	-12816
매니아	-12817
합니다	-12818
7841	-12819
▁654	-12820
▁804	-12821
▁evo	-12822
▁srs	-12823
▁고찌아	-12824
▁디스크	-12825
▁라인몰	-12826
▁마름모	-12827
▁슬리핑	-12828
▁절단기	-12829
▁젠시아	-12830
▁트렌드	-12831
▁핫멜트	-12832
▁히타치	-12833
롱가디건	-12834
style	-12835
▁baba	-12836
▁film	-12837
▁악녀일기	-12838
▁애견의류	-12839
▁온더바디	-12840
▁패션창고	-12841
▁다이아코트	-12842
▁폭스라이더스	-12843
cf	-12844
cx	-12845
▁룩	-12846
도그	-12847
버그	-12848
언더	-12849
크롭	-12850
632	-12851
786	-12852
854	-12853
▁pz	-12854
▁다비	-12855
▁도도	-12856
▁딤채	-12857
▁라움	-12858
▁모터	-12859
▁엘린	-12860
▁예쎄	-12861
▁인어	-12862
▁재고	-12863
▁후크	-12864
게이트	-12865
꾸르끼	-12866
스토퍼	-12867
0117	-12868
isse	-12869
▁672	-12870
▁arm	-12871
▁gws	-12872
▁mtp	-12873
▁pbr	-12874
▁rcs	-12875
▁rtr	-12876
▁달콤한	-12877
▁르네브	-12878
▁모노뜨	-12879
▁물티슈	-12880
▁세면기	-12881
▁스닉솔	-12882
▁실꿰기	-12883
▁유니온	-12884
▁이모션	-12885
▁잔잔한	-12886
▁킥보드	-12887
▁트랜디	-12888
부티셔츠	-12889
아티스트	-12890
ender	-12891
▁part	-12892
▁xoxo	-12893
▁게스슈즈	-12894
▁낮잠이불	-12895
▁시어서커	-12896
▁아디제로	-12897
▁여자백팩	-12898
▁와인아트	-12899
▁일렉트로	-12900
▁컬러블록	-12901
▁프라이팬	-12902
▁데일리스트	-12903
▁레브라이프	-12904
▁슈가포인트	-12905
▁천연라텍스	-12906
▁polham	-12907
▁마리아꾸르끼	-12908
▁아레나수영복	-12909
▁트레이닝자켓	-12910
kx	-12911
구제	-12912
말라	-12913
무즈	-12914
작은	-12915
647	-12916
nav	-12917
oof	-12918
▁보령	-12919
▁붕붕	-12920
▁뽀송	-12921
▁와우	-12922
▁피지	-12923
니스트	-12924
메랄드	-12925
이어링	-12926
키홀더	-12927
탄생석	-12928
0009	-12929
1107	-12930
onex	-12931
▁818	-12932
▁ace	-12933
▁dyt	-12934
▁fan	-12935
▁fox	-12936
▁jbp	-12937
▁slr	-12938
▁기념일	-12939
▁야테카	-12940
▁접착식	-12941
▁젠하이	-12942
▁체스터	-12943
▁컵홀더	-12944
▁트레블	-12945
맨투맨티	-12946
ocket	-12947
▁5500	-12948
▁네오플램	-12949
▁니트조끼	-12950
▁로하스맘	-12951
▁민소매티	-12952
▁야테카오리	-12953
▁퍼즐갤러리	-12954
▁babara	-12955
▁아디다스키즈	-12956
▁arthurs	-12957
도비	-12958
레아	-12959
망고	-12960
미미	-12961
미우	-12962
숭아	-12963
식도	-12964
유압	-12965
커리	-12966
허니	-12967
771	-12968
clo	-12969
▁복스	-12970
▁비닐	-12971
▁사자	-12972
▁지큐	-12973
기세트	-12974
레이즈	-12975
큅먼트	-12976
9800	-12977
▁051	-12978
▁506	-12979
▁604	-12980
▁705	-12981
▁dor	-12982
▁gry	-12983
▁글래스	-12984
▁니나스	-12985
▁다나한	-12986
▁리모콘	-12987
▁모리스	-12988
▁블렌더	-12989
▁앙상블	-12990
▁애드혹	-12991
▁오토스	-12992
▁제깅스	-12993
▁카니발	-12994
▁휴몬트	-12995
운동기구	-12996
▁hard	-12997
▁shin	-12998
▁내부배색	-12999
▁리플렉스	-13000
▁자동우산	-13001
▁호안미로	-13002
▁denim	-13003
▁kenko	-13004
▁밀스튜디오	-13005
▁칫솔살균기	-13006
▁패션선글라스	-13007
▁philips	-13008
▁엉	-13009
▁측	-13010
감성	-13011
패널	-13012
654	-13013
▁립밤	-13014
▁몰딩	-13015
▁발포	-13016
▁샘표	-13017
▁에빠	-13018
▁영업	-13019
▁조깅	-13020
▁촬영	-13021
▁ber	-13022
▁blt	-13023
▁ous	-13024
▁sds	-13025
▁usm	-13026
▁이어캡	-13027
▁프라하	-13028
▁wake	-13029
▁끌레르뮤	-13030
▁린넨혼방	-13031
▁변기커버	-13032
▁strap	-13033
▁여성슬리퍼	-13034
▁지퍼장지갑	-13035
▁christ	-13036
▁그레이스켈리	-13037
▁크로스바디백	-13038
스트라이프티셔츠	-13039
▁려	-13040
나다	-13041
부품	-13042
시떼	-13043
패스	-13044
하루	-13045
393	-13046
574	-13047
914	-13048
mct	-13049
mds	-13050
top	-13051
▁니코	-13052
▁라일	-13053
▁몰텐	-13054
▁쇼유	-13055
▁오성	-13056
▁코털	-13057
▁통화	-13058
블랑쉬	-13059
접이식	-13060
0010	-13061
0200	-13062
▁327	-13063
▁504	-13064
▁lif	-13065
▁maf	-13066
▁tes	-13067
▁아스널	-13068
▁아이즈	-13069
▁주방용	-13070
enchy	-13071
▁slip	-13072
▁겟유즈드	-13073
▁골프바지	-13074
▁나노블럭	-13075
▁빅플라워	-13076
▁아이엘드	-13077
▁아트사인	-13078
▁집업자켓	-13079
▁패딩조끼	-13080
▁플리츠미	-13081
▁헤레이스	-13082
▁bally	-13083
▁prime	-13084
▁vango	-13085
▁남성수영복	-13086
▁발신자표시	-13087
▁여성운동화	-13088
▁화장대세트	-13089
▁necklace	-13090
vm	-13091
맥주	-13092
요미	-13093
저장	-13094
커터	-13095
텔레	-13096
286	-13097
437	-13098
443	-13099
465	-13100
481	-13101
▁ee	-13102
▁드라	-13103
▁레알	-13104
▁마키	-13105
▁음각	-13106
▁진청	-13107
그래프	-13108
보행기	-13109
용삼성	-13110
파이트	-13111
1212	-13112
4651	-13113
8342	-13114
ison	-13115
▁127	-13116
▁649	-13117
▁hoo	-13118
▁ips	-13119
▁pic	-13120
▁roy	-13121
▁sel	-13122
▁곰인형	-13123
▁그리드	-13124
▁불고기	-13125
▁수채화	-13126
▁엄마옷	-13127
▁에스쁘	-13128
▁콤팩트	-13129
▁트레노	-13130
▁페인트	-13131
▁dcho	-13132
▁ebbr	-13133
▁flex	-13134
▁lugh	-13135
▁spin	-13136
▁spul	-13137
▁test	-13138
▁thom	-13139
▁남자신발	-13140
▁메종블랑쉬	-13141
aserjet	-13142
▁floral	-13143
▁무소음벽시계	-13144
용삼성정품토너	-13145
▁givenchy	-13146
hk	-13147
남여	-13148
다크	-13149
슈얼	-13150
실험	-13151
앤비	-13152
음식	-13153
포일	-13154
포캣	-13155
859	-13156
fit	-13157
▁xx	-13158
▁나라	-13159
▁달빛	-13160
▁셀린	-13161
▁써니	-13162
▁위시	-13163
▁자야	-13164
▁졸리	-13165
▁쪼리	-13166
▁팀벅	-13167
▁후그	-13168
글로리	-13169
펜하겐	-13170
5100	-13171
▁ctv	-13172
▁dwf	-13173
▁hsm	-13174
▁ppf	-13175
▁tan	-13176
▁wsm	-13177
▁글루건	-13178
▁다이노	-13179
▁러닝화	-13180
▁변기솔	-13181
▁스미스	-13182
▁스트레	-13183
▁엄브로	-13184
▁오리온	-13185
▁조각상	-13186
▁dbho	-13187
▁tiff	-13188
▁롱귀걸이	-13189
▁베이스볼	-13190
▁에어타카	-13191
▁오르시떼	-13192
▁콩지래빗	-13193
▁투키토이	-13194
▁편백나무	-13195
▁한일전기	-13196
엣지플러스	-13197
▁paper	-13198
▁레이먼옴므	-13199
▁사이드오픈	-13200
▁엘르스포츠	-13201
▁여권케이스	-13202
▁clride	-13203
▁cookie	-13204
lf	-13205
ui	-13206
리노	-13207
베카	-13208
분리	-13209
상승	-13210
속건	-13211
엠디	-13212
장판	-13213
치킨	-13214
테잎	-13215
389	-13216
434	-13217
486	-13218
798	-13219
952	-13220
962	-13221
ito	-13222
rex	-13223
swh	-13224
▁노송	-13225
▁더독	-13226
▁래쉬	-13227
▁레일	-13228
▁미세	-13229
▁비밀	-13230
▁윌로	-13231
▁제화	-13232
▁침실	-13233
▁한우	-13234
▁휘센	-13235
끼우기	-13236
브리알	-13237
쟈가드	-13238
1741	-13239
1821	-13240
▁133	-13241
▁603	-13242
▁820	-13243
▁거북이	-13244
▁라이언	-13245
▁멀티툴	-13246
▁스쿼시	-13247
▁윤씨네	-13248
▁클락스	-13249
▁trip	-13250
▁바디아트	-13251
▁애완용품	-13252
▁제이커스	-13253
▁캔버스화	-13254
▁트리코트	-13255
핸드메이드	-13256
▁block	-13257
▁bloom	-13258
▁matte	-13259
▁골드귀걸이	-13260
▁슈퍼콤마비	-13261
▁크록스키즈	-13262
▁학생사무용	-13263
▁dupont	-13264
▁산업용청소기	-13265
ei	-13266
▁짚	-13267
대행	-13268
러피	-13269
언트	-13270
팬더	-13271
핑거	-13272
shd	-13273
▁고려	-13274
▁구슬	-13275
▁그랑	-13276
▁센티	-13277
▁인켓	-13278
▁쟁반	-13279
▁타요	-13280
▁피토	-13281
▁할리	-13282
▁헹켈	-13283
무늬목	-13284
브로치	-13285
크리트	-13286
1106	-13287
1825	-13288
2102	-13289
▁csr	-13290
▁mus	-13291
▁skg	-13292
▁sur	-13293
▁라운딩	-13294
▁리버티	-13295
▁빅체크	-13296
▁소낙스	-13297
▁엘레컴	-13298
▁카프리	-13299
▁커브드	-13300
▁티스푼	-13301
베개세트	-13302
아동잠옷	-13303
▁curl	-13304
▁lens	-13305
▁trav	-13306
▁wide	-13307
▁노송가구	-13308
▁데님셔츠	-13309
▁리빙박스	-13310
▁블링블링	-13311
▁인켓세상	-13312
▁제이블리	-13313
▁제일타카	-13314
▁필드용품	-13315
▁wakey	-13316
▁레이스배색	-13317
▁쇼유쥬얼리	-13318
▁스칸디앤홈	-13319
▁호환충전기	-13320
▁yamaha	-13321
깍기	-13322
발판	-13323
벡터	-13324
솔린	-13325
장인	-13326
티즈	-13327
her	-13328
luv	-13329
msa	-13330
msw	-13331
ona	-13332
▁룩스	-13333
▁안마	-13334
▁왕골	-13335
▁장난	-13336
▁쥬디	-13337
▁호두	-13338
미올리	-13339
에너지	-13340
프레스	-13341
1007	-13342
1110	-13343
1209	-13344
2020	-13345
▁cdb	-13346
▁dam	-13347
▁hol	-13348
▁가리개	-13349
▁등산용	-13350
▁블루컷	-13351
▁웨이트	-13352
▁익스텐	-13353
▁헴라인	-13354
해머드릴	-13355
▁2300	-13356
▁광마우스	-13357
▁마하링크	-13358
▁사운드바	-13359
▁수도꼭지	-13360
▁실버반지	-13361
▁폴브리알	-13362
후드티셔츠	-13363
▁cream	-13364
▁여성스러운	-13365
▁오션스카이	-13366
▁pofwso	-13367
▁오디오패키지	-13368
▁watercolor	-13369
구마	-13370
담도	-13371
보아	-13372
산균	-13373
소호	-13374
수동	-13375
엔드	-13376
윈치	-13377
티모	-13378
956	-13379
asy	-13380
▁vh	-13381
▁다미	-13382
▁독서	-13383
▁디코	-13384
▁빌레	-13385
▁사만	-13386
▁삼단	-13387
▁슈팅	-13388
▁연필	-13389
▁콘덴	-13390
▁포밍	-13391
방향제	-13392
키높이	-13393
1601	-13394
1703	-13395
coda	-13396
ysue	-13397
▁138	-13398
▁dwp	-13399
▁not	-13400
▁ved	-13401
▁브라질	-13402
▁아베다	-13403
▁에디터	-13404
▁직소기	-13405
▁후리스	-13406
빠른배송	-13407
▁3400	-13408
▁shes	-13409
▁수페르가	-13410
▁쌍계명차	-13411
▁베이비캠프	-13412
▁보르미올리	-13413
▁본넬스프링	-13414
▁김수열줄넘기	-13415
▁curlysue	-13416
▁snapback	-13417
▁collection	-13418
▁팡	-13419
갈색	-13420
꾸는	-13421
메타	-13422
무릎	-13423
바사	-13424
보틀	-13425
세면	-13426
현관	-13427
554	-13428
949	-13429
967	-13430
ead	-13431
mmx	-13432
wbt	-13433
▁내피	-13434
▁당신	-13435
▁덤벨	-13436
▁사조	-13437
▁알토	-13438
▁에쉬	-13439
▁초경	-13440
가바나	-13441
마운틴	-13442
▁019	-13443
▁268	-13444
▁bpo	-13445
▁itb	-13446
▁ixp	-13447
▁mmj	-13448
▁svl	-13449
▁wlg	-13450
▁wrz	-13451
▁도기야	-13452
▁렌즈캡	-13453
▁보타이	-13454
▁수아팜	-13455
▁에펠탑	-13456
▁이젠벅	-13457
▁케이프	-13458
블루투스	-13459
▁over	-13460
▁담수진주	-13461
▁대성하이	-13462
▁리커버리	-13463
▁에너자이	-13464
▁이마트가	-13465
▁제네시스	-13466
▁cleon	-13467
▁scent	-13468
▁로보카폴리	-13469
▁무선주전자	-13470
▁카메라가방	-13471
▁스카이디지탈	-13472
▁유무선공유기	-13473
금제	-13474
루시	-13475
발찌	-13476
스팀	-13477
어난	-13478
욕기	-13479
처럼	-13480
쿨링	-13481
파스	-13482
혼합	-13483
592	-13484
634	-13485
aga	-13486
ett	-13487
vas	-13488
▁금홍	-13489
▁기차	-13490
▁롤링	-13491
▁식판	-13492
▁썸몰	-13493
▁알집	-13494
▁젠느	-13495
▁풍기	-13496
▁한미	-13497
레이져	-13498
용접기	-13499
일상품	-13500
파운드	-13501
0007	-13502
0102	-13503
1080	-13504
mani	-13505
▁039	-13506
▁fsp	-13507
▁mgb	-13508
▁poe	-13509
▁rec	-13510
▁양념통	-13511
▁옥수수	-13512
▁카시야	-13513
▁캘린더	-13514
월탄생석	-13515
▁금홍팬시	-13516
▁바로크홈	-13517
▁빠른답변	-13518
▁수면조끼	-13519
▁슬림일자	-13520
▁온도조절	-13521
▁요가매트	-13522
▁준선수용	-13523
▁basso	-13524
▁kiaba	-13525
▁대성하이원	-13526
ky	-13527
oj	-13528
▁떼	-13529
▁밧	-13530
▁쵸	-13531
가는	-13532
개비	-13533
개선	-13534
데스	-13535
별매	-13536
부가	-13537
요리	-13538
448	-13539
946	-13540
961	-13541
993	-13542
kct	-13543
skf	-13544
tso	-13545
▁나사	-13546
▁라빠	-13547
▁립합	-13548
▁마마	-13549
▁볼빅	-13550
▁시럽	-13551
▁식물	-13552
▁엠버	-13553
▁오야	-13554
▁원통	-13555
▁이모	-13556
▁해태	-13557
녹음기	-13558
바이탈	-13559
보이는	-13560
시스터	-13561
시야각	-13562
피데일	-13563
헤드폰	-13564
0004	-13565
esel	-13566
▁lcs	-13567
▁otw	-13568
▁디비디	-13569
▁쁘띠랭	-13570
▁쉐도우	-13571
▁시티즌	-13572
▁코팅기	-13573
▁클라라	-13574
몰드브라	-13575
브레이커	-13576
폴로클럽	-13577
▁1801	-13578
▁ewop	-13579
▁mink	-13580
▁zero	-13581
▁구스페리	-13582
▁데일라잇	-13583
▁동전지갑	-13584
▁로코식스	-13585
▁수면잠옷	-13586
▁식탁매트	-13587
▁전지가위	-13588
▁즉시할인	-13589
▁카드리더기	-13590
▁커프스버튼	-13591
▁스포츠글라스	-13592
▁팜스프링스골프	-13593
uf	-13594
슬로	-13595
전사	-13596
절단	-13597
젠트	-13598
차드	-13599
쿡탑	-13600
호크	-13601
fhb	-13602
roc	-13603
ron	-13604
▁jt	-13605
▁vp	-13606
▁강의	-13607
▁개업	-13608
▁게디	-13609
▁벤로	-13610
▁보우	-13611
▁알뜰	-13612
▁양손	-13613
▁인켈	-13614
▁진영	-13615
▁플럼	-13616
▁핑거	-13617
자가드	-13618
타이츠	-13619
1732	-13620
2101	-13621
▁714	-13622
▁808	-13623
▁819	-13624
▁ant	-13625
▁atx	-13626
▁dhs	-13627
▁fps	-13628
▁gnm	-13629
▁lcm	-13630
▁mem	-13631
▁otc	-13632
▁가이드	-13633
▁강력한	-13634
▁데이트	-13635
▁도라지	-13636
▁라이터	-13637
▁벽거울	-13638
▁소프라	-13639
▁송풍기	-13640
▁양곡면	-13641
▁원숭이	-13642
▁초대형	-13643
▁클레어	-13644
▁판촉물	-13645
▁헤이즐	-13646
항공점퍼	-13647
acoal	-13648
▁dior	-13649
▁hzss	-13650
▁plan	-13651
▁데님자켓	-13652
▁미우미우	-13653
▁바이소호	-13654
▁사무용품	-13655
▁송월타올	-13656
전문쇼핑몰	-13657
▁icoda	-13658
▁골키퍼장갑	-13659
▁스웨트셔츠	-13660
▁스트라이크	-13661
▁스팀다리미	-13662
▁여성숄더백	-13663
▁와이드앵글	-13664
▁충전임팩트	-13665
트레이닝세트	-13666
프릴블라우스	-13667
▁diesel	-13668
▁데일라잇뉴욕	-13669
▁레볼루션쉴드	-13670
iu	-13671
▁똘	-13672
▁옹	-13673
도형	-13674
인두	-13675
치약	-13676
치프	-13677
펜스	-13678
445	-13679
558	-13680
643	-13681
661	-13682
770	-13683
ats	-13684
▁레미	-13685
▁방송	-13686
▁빅터	-13687
▁알록	-13688
▁일리	-13689
▁자체	-13690
▁카르	-13691
▁코쿤	-13692
▁톤업	-13693
▁현미	-13694
▁힙합	-13695
수납형	-13696
카트니	-13697
0201	-13698
1205	-13699
1735	-13700
▁319	-13701
▁msc	-13702
▁vdl	-13703
▁돌체앤	-13704
▁드래곤	-13705
▁루테인	-13706
▁밸리걸	-13707
▁손싸개	-13708
▁엠씨엔	-13709
▁오리발	-13710
▁오트밀	-13711
▁존슨즈	-13712
▁휠러스	-13713
▁힙핑크	-13714
젤리스푼	-13715
peaks	-13716
▁band	-13717
▁mint	-13718
▁nbsp	-13719
▁드라이핏	-13720
▁라빠레뜨	-13721
▁마사지기	-13722
▁바디수트	-13723
▁온수매트	-13724
▁전자저울	-13725
자연의품격	-13726
▁smith	-13727
▁stere	-13728
▁드로즈팬티	-13729
▁valent	-13730
▁색상임의배송	-13731
▁트레이닝세트	-13732
▁엣	-13733
▁쥴	-13734
라바	-13735
방한	-13736
센드	-13737
쇼날	-13738
순면	-13739
텐셀	-13740
펜더	-13741
435	-13742
isy	-13743
▁qd	-13744
▁고추	-13745
▁끌로	-13746
▁도나	-13747
▁또봇	-13748
▁물류	-13749
▁복합	-13750
▁삼익	-13751
▁소독	-13752
▁자몽	-13753
멜로디	-13754
세면기	-13755
퍼니쳐	-13756
0011	-13757
2003	-13758
▁091	-13759
▁mbr	-13760
▁mhl	-13761
▁sln	-13762
▁대학생	-13763
▁로젤라	-13764
▁브이텍	-13765
▁소방차	-13766
▁우수한	-13767
▁임신복	-13768
▁퍼퓸드	-13769
그라운드	-13770
노와이어	-13771
드라이브	-13772
stone	-13773
▁tree	-13774
▁wood	-13775
▁로퍼슈즈	-13776
▁보테니컬	-13777
▁빌레로이	-13778
▁생활방수	-13779
▁손목밴드	-13780
▁스킨케어	-13781
▁와피데일	-13782
▁친절상담	-13783
▁korea	-13784
▁베가시크릿	-13785
▁벽걸이시계	-13786
▁스키니팬츠	-13787
▁135881	-13788
▁optoma	-13789
▁sleeve	-13790
▁돌체앤가바나	-13791
▁special	-13792
qx	-13793
답례	-13794
러커	-13795
문의	-13796
믹싱	-13797
밀러	-13798
버섯	-13799
주걱	-13800
487	-13801
689	-13802
785	-13803
994	-13804
lim	-13805
ply	-13806
ura	-13807
▁vk	-13808
▁관공	-13809
▁매듭	-13810
▁실외	-13811
▁씨엘	-13812
▁자코	-13813
▁팝콘	-13814
▁풍선	-13815
가보시	-13816
단쭈리	-13817
서비스	-13818
아이지	-13819
1013	-13820
elet	-13821
▁157	-13822
▁186	-13823
▁560	-13824
▁830	-13825
▁ast	-13826
▁epx	-13827
▁hrb	-13828
▁jen	-13829
▁nas	-13830
▁기본핏	-13831
▁냉동고	-13832
▁복숭아	-13833
▁빈폴멘	-13834
▁솔로젠	-13835
▁스탬핑	-13836
▁승용차	-13837
▁쏘아베	-13838
▁양키스	-13839
▁키스킨	-13840
▁털부츠	-13841
앤클로즈	-13842
▁가죽밴드	-13843
▁등산용품	-13844
▁부드럽고	-13845
▁시트러스	-13846
▁학생의자	-13847
▁후라밍고	-13848
▁dress	-13849
▁배냇저고리	-13850
▁프로폴리스	-13851
▁한일카페트	-13852
▁sports	-13853
▁magenta	-13854
rk	-13855
uz	-13856
▁럼	-13857
구어	-13858
돌프	-13859
들레	-13860
러너	-13861
블라	-13862
여주	-13863
좋아	-13864
직송	-13865
포유	-13866
필수	-13867
형제	-13868
581	-13869
887	-13870
aon	-13871
eny	-13872
ghc	-13873
jay	-13874
▁고방	-13875
▁구이	-13876
▁동계	-13877
▁듀라	-13878
▁러프	-13879
▁샌트	-13880
▁슈슈	-13881
▁음성	-13882
▁인퓨	-13883
▁일모	-13884
▁체육	-13885
▁초등	-13886
▁코일	-13887
▁타공	-13888
그라피	-13889
긴팔티	-13890
올오버	-13891
7442	-13892
▁335	-13893
▁hpl	-13894
▁les	-13895
▁obr	-13896
▁scm	-13897
▁tdb	-13898
▁vep	-13899
▁갭키즈	-13900
▁고정형	-13901
▁매니퀸	-13902
▁보니스	-13903
▁세로형	-13904
▁아시아	-13905
▁옴니아	-13906
▁종합몰	-13907
▁카나레	-13908
변기커버	-13909
▁chik	-13910
▁eloq	-13911
▁spao	-13912
▁vest	-13913
▁다크블루	-13914
▁모노포드	-13915
▁바디슈트	-13916
▁스크래쳐	-13917
▁에메랄드	-13918
▁페니로퍼	-13919
라인원피스	-13920
▁atspm	-13921
▁세이백화점	-13922
▁스포츠가방	-13923
▁실리콘수모	-13924
▁카모플라쥬	-13925
▁rayban	-13926
▁shield	-13927
▁캐논정품토너	-13928
..	-13929
▁젬	-13930
라떼	-13931
미리	-13932
에고	-13933
총판	-13934
카운	-13935
537	-13936
787	-13937
849	-13938
ede	-13939
ggn	-13940
mbl	-13941
opm	-13942
orn	-13943
▁lj	-13944
▁꽃잎	-13945
▁로스	-13946
▁마트	-13947
▁반다	-13948
▁뿌르	-13949
▁안장	-13950
▁진열	-13951
▁품질	-13952
▁하츠	-13953
▁환타	-13954
라이어	-13955
카라티	-13956
펜던트	-13957
▁712	-13958
▁ger	-13959
▁관공서	-13960
▁마혼방	-13961
▁미용실	-13962
▁오야니	-13963
▁올스타	-13964
▁울코트	-13965
▁작업복	-13966
▁초강력	-13967
▁캠코더	-13968
▁컨투어	-13969
▁코스트	-13970
▁크리너	-13971
▁피아노	-13972
큘레이터	-13973
atore	-13974
▁bell	-13975
▁htbr	-13976
▁라면포트	-13977
▁인디핑크	-13978
▁치마바지	-13979
▁카드포캣	-13980
▁arena	-13981
▁yonex	-13982
▁골드목걸이	-13983
▁섬유유연제	-13984
▁stereo	-13985
미니액자벽시계	-13986
▁tiffany	-13987
▁헬로우아티스트	-13988
▁밝	-13989
공룡	-13990
국내	-13991
넓은	-13992
워드	-13993
자극	-13994
트랙	-13995
파즈	-13996
폭시	-13997
피혁	-13998
772	-13999
alg	-14000
jkg	-14001
odo	-14002
was	-14003
▁za	-14004
▁구명	-14005
▁모로	-14006
▁버켓	-14007
▁시간	-14008
▁워머	-14009
▁인피	-14010
▁카밍	-14011
▁포뮬	-14012
기저귀	-14013
니어스	-14014
단우산	-14015
인버터	-14016
줄무늬	-14017
판매용	-14018
0013	-14019
0216	-14020
flop	-14021
main	-14022
▁026	-14023
▁064	-14024
▁dbr	-14025
▁nii	-14026
▁zen	-14027
▁디지탈	-14028
▁애벌레	-14029
▁큐빅스	-14030
▁탑브라	-14031
횡성한우	-14032
▁fred	-14033
▁식탁의자	-14034
▁원형접시	-14035
▁토탈마켓	-14036
▁트랜센드	-14037
▁포커시스	-14038
▁플레이팝	-14039
▁뉴욕양키스	-14040
▁니나스파리	-14041
▁클라이마칠	-14042
▁데이즈스포츠	-14043
jg	-14044
년근	-14045
노운	-14046
대접	-14047
라비	-14048
무원	-14049
문구	-14050
물류	-14051
미노	-14052
시럽	-14053
심원	-14054
영상	-14055
음질	-14056
천국	-14057
콜렛	-14058
562	-14059
628	-14060
814	-14061
gem	-14062
▁xe	-14063
▁낱장	-14064
▁등심	-14065
▁롱티	-14066
▁르네	-14067
▁마드	-14068
▁매일	-14069
▁모듈	-14070
▁미즌	-14071
▁백일	-14072
▁보풀	-14073
▁봄버	-14074
▁삼중	-14075
▁수화	-14076
▁씨드	-14077
▁압착	-14078
▁영어	-14079
▁전골	-14080
▁제쉬	-14081
▁조셉	-14082
▁지우	-14083
▁쿨론	-14084
▁팔각	-14085
모티브	-14086
▁adv	-14087
▁aqa	-14088
▁fel	-14089
▁mfp	-14090
▁건조기	-14091
▁귀마개	-14092
▁라이카	-14093
▁시카고	-14094
▁아라리	-14095
▁아이디	-14096
▁오른손	-14097
▁코카코	-14098
밀폐용기	-14099
▁2600	-14100
▁6260	-14101
▁가죽소파	-14102
▁미즌하임	-14103
▁센서티브	-14104
▁수분크림	-14105
▁수유브라	-14106
▁슈에무라	-14107
▁야구점퍼	-14108
▁어쿠스틱	-14109
▁제쉬나인	-14110
▁트레포일	-14111
▁라이트핑크	-14112
▁엔터식스몰	-14113
▁island	-14114
▁아레나스포츠	-14115
▁인테리어화분	-14116
▁superior	-14117
▁퐁	-14118
드는	-14119
매장	-14120
무드	-14121
스냅	-14122
야드	-14123
예인	-14124
침반	-14125
하수	-14126
헤브	-14127
527	-14128
784	-14129
hop	-14130
vel	-14131
▁두눈	-14132
▁엠마	-14133
▁트롤	-14134
▁포드	-14135
내추럴	-14136
렝구어	-14137
테일러	-14138
0103	-14139
1709	-14140
3001	-14141
▁021	-14142
▁183	-14143
▁214	-14144
▁267	-14145
▁473	-14146
▁gcp	-14147
▁jet	-14148
▁리프레	-14149
▁보타닉	-14150
▁서포트	-14151
▁수세미	-14152
▁수작업	-14153
▁스퀴즈	-14154
▁워셔블	-14155
▁육심원	-14156
▁제트비	-14157
▁크루즈	-14158
▁티아라	-14159
▁팔레오	-14160
▁히어로	-14161
17101	-14162
▁4500	-14163
▁7200	-14164
▁amer	-14165
▁coco	-14166
▁fina	-14167
▁neck	-14168
▁salv	-14169
▁게스시계	-14170
▁닉스키즈	-14171
▁사계절용	-14172
▁윌로펌프	-14173
▁육각렌치	-14174
▁푸쉬업바	-14175
▁헬스용품	-14176
▁48119	-14177
▁ibora	-14178
▁rouge	-14179
▁드레스셔츠	-14180
ug	-14181
uh	-14182
▁빼	-14183
국자	-14184
반목	-14185
배추	-14186
제니	-14187
컷쏘	-14188
코르	-14189
쿠스	-14190
통굽	-14191
gia	-14192
▁국자	-14193
▁국제	-14194
▁국화	-14195
▁다빈	-14196
▁아띠	-14197
▁야모	-14198
▁얇은	-14199
▁키큰	-14200
▁페츨	-14201
▁피쉬	-14202
▁햇빛	-14203
▁휴고	-14204
가리개	-14205
림방지	-14206
욕실화	-14207
탬버린	-14208
테이너	-14209
페인팅	-14210
7821	-14211
ault	-14212
olos	-14213
▁018	-14214
▁032	-14215
▁307	-14216
▁413	-14217
▁670	-14218
▁ald	-14219
▁dyn	-14220
▁gel	-14221
▁phy	-14222
▁sma	-14223
▁tos	-14224
▁tul	-14225
▁wpu	-14226
▁가솔린	-14227
▁그라스	-14228
▁라이타	-14229
▁마레스	-14230
▁메신져	-14231
▁봄여름	-14232
▁샤워젤	-14233
▁선택형	-14234
▁성조기	-14235
▁세이지	-14236
▁에어건	-14237
▁케이크	-14238
▁포르테	-14239
▁프리스	-14240
▁플란넬	-14241
그레이드	-14242
베개커버	-14243
전동공구	-14244
▁dbbe	-14245
▁hspa	-14246
▁nano	-14247
▁레드옥스	-14248
▁베네피트	-14249
▁언밸런스	-14250
▁용돈봉투	-14251
▁재미있는	-14252
▁폴프랭크	-14253
▁프로라인	-14254
▁testo	-14255
▁명품안경테	-14256
▁패밀리침대	-14257
▁aiolos	-14258
▁armani	-14259
▁london	-14260
▁일렉트로룩스	-14261
▁lipault	-14262
ki	-14263
lv	-14264
▁▶	-14265
문화	-14266
뺀치	-14267
시카	-14268
아대	-14269
알레	-14270
앤보	-14271
일린	-14272
전판	-14273
챌린	-14274
충기	-14275
츄얼	-14276
헌터	-14277
abm	-14278
baw	-14279
▁다리	-14280
▁도쿄	-14281
▁똑딱	-14282
▁멸치	-14283
▁무당	-14284
▁미래	-14285
▁벤트	-14286
▁세니	-14287
▁씨투	-14288
▁재키	-14289
▁카푸	-14290
▁포멜	-14291
▁필로	-14292
비스톤	-14293
카운터	-14294
필로우	-14295
1017	-14296
1021	-14297
2011	-14298
amor	-14299
land	-14300
▁233	-14301
▁apc	-14302
▁jhq	-14303
▁내쇼날	-14304
▁눈사람	-14305
▁돌고래	-14306
▁레페토	-14307
▁알마니	-14308
▁야자수	-14309
▁이발기	-14310
▁카시트	-14311
▁파이톤	-14312
▁페브릭	-14313
▁한글판	-14314
모직코트	-14315
▁half	-14316
▁home	-14317
▁jean	-14318
▁lmts	-14319
▁mcuv	-14320
▁padd	-14321
▁qats	-14322
▁view	-14323
▁도너랜드	-14324
▁매트제외	-14325
▁베렝구어	-14326
▁수퍼노바	-14327
▁아티스트	-14328
▁에스트로	-14329
▁집업점퍼	-14330
▁측정공구	-14331
▁클렌징폼	-14332
▁하이모리	-14333
▁herit	-14334
▁print	-14335
▁보온도시락	-14336
▁travel	-14337
▁베이블레이드	-14338
▁이동식에어컨	-14339
▁코코아브라운	-14340
다이어리케이스	-14341
▁balmain	-14342
▁스니커즈코리아	-14343
▁특별구성품증정	-14344
▁scentence	-14345
▁솝	-14346
▁훠	-14347
렌트	-14348
부스	-14349
와비	-14350
워치	-14351
336	-14352
463	-14353
667	-14354
957	-14355
969	-14356
ste	-14357
▁od	-14358
▁나린	-14359
▁단목	-14360
▁델리	-14361
▁동아	-14362
▁라로	-14363
▁로디	-14364
▁밤비	-14365
▁부케	-14366
▁산전	-14367
▁지원	-14368
▁친구	-14369
▁토픽	-14370
▁헥사	-14371
소피아	-14372
엘레팡	-14373
접착제	-14374
1204	-14375
▁027	-14376
▁166	-14377
▁kma	-14378
▁lgf	-14379
▁msx	-14380
▁pwm	-14381
▁sub	-14382
▁tsb	-14383
▁너리싱	-14384
▁리프팅	-14385
▁물걸레	-14386
▁쁘띠바	-14387
▁사브르	-14388
▁수입한	-14389
▁에빠니	-14390
▁자코모	-14391
▁지엠펫	-14392
▁카우치	-14393
▁투라인	-14394
▁티티진	-14395
▁포장지	-14396
썬팅필름	-14397
02004	-14398
▁4117	-14399
▁must	-14400
▁wine	-14401
▁넥스트랩	-14402
▁더블유닷	-14403
▁점프수트	-14404
▁콘크리트	-14405
▁품목할인	-14406
▁solid	-14407
▁식기건조대	-14408
▁fitflop	-14409
▁과학용품전문쇼핑몰	-14410
▁잼	-14411
▁찍	-14412
고나	-14413
된장	-14414
맞이	-14415
자드	-14416
한정	-14417
847	-14418
blg	-14419
off	-14420
▁더뉴	-14421
▁등판	-14422
▁리갈	-14423
▁서빈	-14424
▁앞판	-14425
▁에티	-14426
▁위니	-14427
▁콜드	-14428
▁평면	-14429
▁행주	-14430
릴리즈	-14431
샤워기	-14432
스토치	-14433
시스루	-14434
1108	-14435
book	-14436
ican	-14437
▁epp	-14438
▁gir	-14439
▁knp	-14440
▁may	-14441
▁tre	-14442
▁공학용	-14443
▁누구나	-14444
▁디카팩	-14445
▁싼타페	-14446
▁씨투써	-14447
▁아리아	-14448
▁어댑터	-14449
▁제본기	-14450
▁크로노	-14451
▁타이탄	-14452
abbit	-14453
▁wing	-14454
▁광시야각	-14455
▁다운자켓	-14456
▁디스펜서	-14457
▁레지스타	-14458
▁모토로라	-14459
▁바닐라코	-14460
▁케쥬얼화	-14461
▁퀸사이즈	-14462
▁플레이도	-14463
▁하이드라	-14464
▁합성피혁	-14465
▁daily	-14466
▁윈드스토퍼	-14467
▁케이스포함	-14468
남아반소내의	-14469
▁wacoal	-14470
▁여성가죽시계	-14471
▁핸드폰악세사리	-14472
▁캘리포니아베이비	-14473
uw	-14474
▁ᄆ	-14475
거즈	-14476
단독	-14477
르미	-14478
마드	-14479
복궁	-14480
씨엘	-14481
포어	-14482
흡입	-14483
986	-14484
nal	-14485
▁건설	-14486
▁깃털	-14487
▁라즈	-14488
▁모스	-14489
▁비조	-14490
▁새한	-14491
▁색칠	-14492
▁세제	-14493
▁소닉	-14494
▁알티	-14495
▁우동	-14496
▁자넬	-14497
▁정비	-14498
▁줄리	-14499
러브즈	-14500
버스트	-14501
부세트	-14502
시어터	-14503
에코백	-14504
자스민	-14505
캣타워	-14506
1822	-14507
2017	-14508
2300	-14509
▁181	-14510
▁abu	-14511
▁asp	-14512
▁bbs	-14513
▁bzt	-14514
▁cmf	-14515
▁hat	-14516
▁jht	-14517
▁msy	-14518
▁ssm	-14519
▁경복궁	-14520
▁꿈꾸는	-14521
▁땡땡이	-14522
▁르헤브	-14523
▁마틸다	-14524
▁베레모	-14525
▁북극곰	-14526
▁쥬아나	-14527
▁직장인	-14528
▁토미카	-14529
▁폭스바	-14530
레치아토	-14531
야상점퍼	-14532
▁aqua	-14533
▁bleu	-14534
▁hzsh	-14535
▁luck	-14536
▁nain	-14537
▁데일리백	-14538
▁무당벌레	-14539
▁밴딩팬츠	-14540
▁스트레칭	-14541
▁엘라스틱	-14542
▁여성팔찌	-14543
▁전기밥솥	-14544
▁핸드워시	-14545
▁atbpq	-14546
▁decke	-14547
▁happy	-14548
ih	-14549
rh	-14550
▁겨	-14551
▁쁠	-14552
구조	-14553
그란	-14554
볼트	-14555
즈홈	-14556
축협	-14557
444	-14558
561	-14559
686	-14560
923	-14561
bot	-14562
roy	-14563
▁곡선	-14564
▁녹음	-14565
▁본젠	-14566
▁부엌	-14567
▁비어	-14568
▁사방	-14569
▁세기	-14570
▁셋업	-14571
▁알리	-14572
▁연두	-14573
▁전구	-14574
▁투싼	-14575
▁툴콘	-14576
무스탕	-14577
앤보흐	-14578
포장지	-14579
1210	-14580
1814	-14581
5500	-14582
ound	-14583
▁161	-14584
▁aaa	-14585
▁cdr	-14586
▁gsr	-14587
▁pes	-14588
▁단체복	-14589
▁도깨비	-14590
▁뛰어난	-14591
▁레스토	-14592
▁레이져	-14593
▁마니또	-14594
▁멀바우	-14595
▁바이더	-14596
▁선크림	-14597
▁센슈얼	-14598
▁에프알	-14599
▁있어요	-14600
▁토스카	-14601
▁포근한	-14602
▁폭스퍼	-14603
▁해피툴	-14604
▁헨어스	-14605
슬라이드	-14606
▁1001	-14607
▁atbl	-14608
▁hssh	-14609
▁mcho	-14610
▁pofw	-14611
▁기획세트	-14612
▁로즈마리	-14613
▁유니맥스	-14614
▁유아용품	-14615
▁타탄체크	-14616
▁15000	-14617
▁밍크엘레팡	-14618
▁워너비스톤	-14619
▁outlet	-14620
▁pocket	-14621
▁인트레치아토	-14622
스트라이프셔츠	-14623
▁mchomme	-14624
kd	-14625
lj	-14626
▁젝	-14627
브렌	-14628
우유	-14629
현미	-14630
691	-14631
873	-14632
btx	-14633
dbt	-14634
ssl	-14635
▁iq	-14636
▁wo	-14637
▁데니	-14638
▁돌핀	-14639
▁디노	-14640
▁머렐	-14641
▁본품	-14642
▁삼원	-14643
▁슈쁨	-14644
▁올라	-14645
▁완벽	-14646
▁용량	-14647
▁톡톡	-14648
▁티쏘	-14649
▁플렛	-14650
면혼방	-14651
칠드런	-14652
팬던트	-14653
3502	-14654
▁158	-14655
▁bma	-14656
▁반전신	-14657
▁세이프	-14658
▁수도권	-14659
▁초장기	-14660
▁카피어	-14661
▁펠리칸	-14662
▁플래티	-14663
▁헝겊책	-14664
▁힙스터	-14665
기본세트	-14666
문시트지	-14667
▁4200	-14668
▁cdaa	-14669
▁hzsw	-14670
▁교육완구	-14671
▁네트워크	-14672
▁다이마루	-14673
▁메이로즈	-14674
▁모스트맘	-14675
▁비스비바	-14676
▁쁘띠바또	-14677
▁스쿼드라	-14678
▁유아식기	-14679
▁제시뉴욕	-14680
▁트랙팬츠	-14681
▁후드자켓	-14682
인식탁세트	-14683
▁드럼세탁기	-14684
▁라미네이트	-14685
▁카피어랜드	-14686
▁escada	-14687
▁슬림핏케이스	-14688
▁피셔프라이스	-14689
▁projector	-14690
▁salvatore	-14691
xy	-14692
기차	-14693
부르	-14694
자유	-14695
주스	-14696
카본	-14697
파오	-14698
항균	-14699
후그	-14700
arg	-14701
igo	-14702
ved	-14703
▁계량	-14704
▁골덴	-14705
▁구성	-14706
▁동글	-14707
▁라쳇	-14708
▁배틀	-14709
▁본필	-14710
▁상담	-14711
▁소야	-14712
▁슈어	-14713
▁앰프	-14714
▁유자	-14715
▁주황	-14716
▁케빈	-14717
뚜왈렛	-14718
레인저	-14719
미디어	-14720
3002	-14721
▁451	-14722
▁535	-14723
▁bbm	-14724
▁cce	-14725
▁eng	-14726
▁lec	-14727
▁로우힐	-14728
▁무료배	-14729
▁수저통	-14730
▁시리얼	-14731
▁에몬스	-14732
▁울니트	-14733
▁캣아이	-14734
▁테라피	-14735
▁포켓몬	-14736
▁핑크풋	-14737
클라우드	-14738
▁iris	-14739
▁mont	-14740
▁outs	-14741
▁매트커버	-14742
▁스프레드	-14743
▁시크폭스	-14744
▁축구용품	-14745
▁패션벨트	-14746
▁페르지노	-14747
▁cable	-14748
▁매장판정품	-14749
▁펜슬케이스	-14750
▁camera	-14751
▁팔꿈치보호대	-14752
▁빌레로이앤보흐	-14753
vb	-14754
▁림	-14755
똘이	-14756
루비	-14757
모듈	-14758
사체	-14759
아덴	-14760
지도	-14761
태슬	-14762
피부	-14763
987	-14764
dnv	-14765
ktf	-14766
shl	-14767
▁wj	-14768
▁거버	-14769
▁건축	-14770
▁꾸즈	-14771
▁넛츠	-14772
▁네임	-14773
▁미쓰	-14774
▁버그	-14775
▁삼상	-14776
▁스텔	-14777
▁오이	-14778
▁정강	-14779
▁주호	-14780
▁피터	-14781
▁해골	-14782
▁황금	-14783
스미스	-14784
이언스	-14785
2010	-14786
anda	-14787
quem	-14788
▁618	-14789
▁abr	-14790
▁ink	-14791
▁mzs	-14792
▁rom	-14793
▁wed	-14794
▁가마끼	-14795
▁메이룸	-14796
▁모던한	-14797
▁브레이	-14798
▁슈프림	-14799
▁엘리스	-14800
▁올데이	-14801
▁정상가	-14802
▁콕닷컴	-14803
▁티에스	-14804
▁할로윈	-14805
나이티드	-14806
러브즈펫	-14807
사우루스	-14808
▁atsw	-14809
▁book	-14810
▁girl	-14811
▁hzpa	-14812
▁luna	-14813
▁mesh	-14814
▁nbml	-14815
▁맑은소리	-14816
▁반짝반짝	-14817
▁배기팬츠	-14818
▁아동내의	-14819
▁조셉조셉	-14820
▁주니걸즈	-14821
▁지니어스	-14822
amorie	-14823
▁suede	-14824
▁닥터브라운	-14825
▁러버메이드	-14826
▁모닝글로리	-14827
▁bequem	-14828
▁carven	-14829
▁어린이날선물	-14830
▁하이드레이팅	-14831
▁긴팔캐주얼셔츠	-14832
▁스튜디오화이트	-14833
▁에이미러브즈펫	-14834
▁ayamorie	-14835
▁샬	-14836
▁펑	-14837
대용	-14838
댄스	-14839
떨이	-14840
르자	-14841
바렛	-14842
위생	-14843
338	-14844
447	-14845
490	-14846
bon	-14847
sbs	-14848
▁qq	-14849
▁교회	-14850
▁금형	-14851
▁더에	-14852
▁데시	-14853
▁레어	-14854
▁상세	-14855
▁알콩	-14856
▁적색	-14857
▁청축	-14858
▁학원	-14859
▁한방	-14860
고데기	-14861
꽈베기	-14862
데스크	-14863
봄신상	-14864
2016	-14865
otec	-14866
size	-14867
▁153	-14868
▁704	-14869
▁709	-14870
▁908	-14871
▁ash	-14872
▁jan	-14873
▁jul	-14874
▁kov	-14875
▁lis	-14876
▁rud	-14877
▁sis	-14878
▁sms	-14879
▁ysm	-14880
▁명품관	-14881
▁베루스	-14882
▁세일러	-14883
▁오슬로	-14884
▁재단기	-14885
▁저중심	-14886
▁퍼펙션	-14887
▁헤어젤	-14888
▁brac	-14889
▁york	-14890
▁남성지갑	-14891
▁드라이브	-14892
▁블라인드	-14893
▁석유난로	-14894
▁자넬라토	-14895
▁전자시계	-14896
▁주호데코	-14897
▁공구쇼핑몰	-14898
▁실크넥타이	-14899
플라워원피스	-14900
▁double	-14901
▁visual	-14902
▁spinner	-14903
▁triangle	-14904
▁캘빈클라인액세서리	-14905
▁질바이질스튜어트셔츠	-14906
거북	-14907
만원	-14908
반도	-14909
애견	-14910
재질	-14911
쟈켓	-14912
지방	-14913
카토	-14914
펠트	-14915
563	-14916
593	-14917
ich	-14918
oro	-14919
sla	-14920
▁dz	-14921
▁ie	-14922
▁드팜	-14923
▁라끄	-14924
▁무브	-14925
▁바라	-14926
▁법랑	-14927
▁시저	-14928
▁중역	-14929
▁큰솔	-14930
▁투엠	-14931
▁파우	-14932
▁피씨	-14933
들리에	-14934
생로랑	-14935
자르트	-14936
1739	-14937
1819	-14938
7321	-14939
port	-14940
▁124	-14941
▁354	-14942
▁605	-14943
▁807	-14944
▁825	-14945
▁ext	-14946
▁mel	-14947
▁rsq	-14948
▁가이거	-14949
▁고품격	-14950
▁숄카라	-14951
▁스코나	-14952
▁오르화	-14953
명함지갑	-14954
▁anna	-14955
▁긴팔저지	-14956
▁도트무늬	-14957
▁발목양말	-14958
▁베이직한	-14959
▁오케이몰	-14960
▁조리기구	-14961
▁투엠베일	-14962
▁khdba	-14963
▁공식대리점	-14964
▁사이드밴딩	-14965
▁생활스티커	-14966
▁진주귀걸이	-14967
▁파슬코리아	-14968
남아삼각팬티	-14969
▁남성옥스포드	-14970
▁여성메탈시계	-14971
남아긴소우주복	-14972
▁보루네오하우스	-14973
▁슈퍼싱글사이즈	-14974
▁bravotec	-14975
wv	-14976
게인	-14977
마음	-14978
벽돌	-14979
사미	-14980
암막	-14981
진기	-14982
포도	-14983
472	-14984
567	-14985
dhf	-14986
gyd	-14987
kcp	-14988
psg	-14989
▁tq	-14990
▁yl	-14991
▁공업	-14992
▁광파	-14993
▁모조	-14994
▁벽등	-14995
▁분리	-14996
▁얼음	-14997
▁유틸	-14998
▁좌탁	-14999
▁쥬쥬	-15000
▁청키	-15001
▁특급	-15002
▁편리	-15003
벤처스	-15004
쇼퍼백	-15005
숏팬츠	-15006
0116	-15007
0410	-15008
3200	-15009
3300	-15010
8121	-15011
8221	-15012
9500	-15013
angs	-15014
line	-15015
▁038	-15016
▁173	-15017
▁399	-15018
▁409	-15019
▁458	-15020
▁edu	-15021
▁emb	-15022
▁esp	-15023
▁fun	-15024
▁moo	-15025
▁ple	-15026
▁rsb	-15027
▁shs	-15028
▁봄가을	-15029
▁북마크	-15030
▁스모크	-15031
▁스무디	-15032
▁욕실용	-15033
▁이벤트	-15034
▁인디언	-15035
▁일반용	-15036
▁트러커	-15037
abeth	-15038
dhfdt	-15039
▁artx	-15040
▁lgop	-15041
▁글라스락	-15042
▁데일리홈	-15043
▁마운티아	-15044
▁메신져백	-15045
▁무료장착	-15046
▁패딩자켓	-15047
▁퍼프소매	-15048
▁glass	-15049
▁khdbs	-15050
▁닥터자르트	-15051
▁메이커키즈	-15052
▁바디스토리	-15053
▁크로스가방	-15054
▁spring	-15055
▁퍼스트클래스	-15056
xg	-15057
▁협	-15058
교체	-15059
모나	-15060
연결	-15061
이니	-15062
종합	-15063
짐볼	-15064
차량	-15065
천사	-15066
축구	-15067
캉캉	-15068
캐너	-15069
파트	-15070
펜슬	-15071
427	-15072
476	-15073
fsg	-15074
fts	-15075
kpo	-15076
▁네메	-15077
▁데끼	-15078
▁루첸	-15079
▁마누	-15080
▁솔브	-15081
▁엘록	-15082
▁컨퓸	-15083
▁한쪽	-15084
▁햇살	-15085
미네랄	-15086
테니스	-15087
플래닛	-15088
홈세트	-15089
1022	-15090
1111	-15091
1403	-15092
1731	-15093
mbps	-15094
▁209	-15095
▁216	-15096
▁358	-15097
▁718	-15098
▁902	-15099
▁911	-15100
▁imp	-15101
▁jmp	-15102
▁miz	-15103
▁msp	-15104
▁pas	-15105
▁닐바렛	-15106
▁머그잔	-15107
▁엘케이	-15108
▁연예인	-15109
▁트리밍	-15110
▁폼롤러	-15111
▁피카소	-15112
▁하이킹	-15113
▁허니콤	-15114
가죽벨트	-15115
▁1004	-15116
▁benq	-15117
▁hwts	-15118
▁nbnv	-15119
▁ramq	-15120
▁갤럭시탭	-15121
▁마루모터	-15122
▁미니골드	-15123
▁미니지갑	-15124
▁비스프리	-15125
▁손발싸개	-15126
▁신디키즈	-15127
▁알파스킨	-15128
▁페퍼민트	-15129
▁플라이트	-15130
타고있어요	-15131
▁02800	-15132
▁18119	-15133
▁kmcro	-15134
▁유리티포트	-15135
▁임팩트렌치	-15136
▁stella	-15137
▁디자인벤처스	-15138
▁전동드라이버	-15139
▁캐시미어혼방	-15140
▁티파니주니어	-15141
먹는	-15142
먼지	-15143
미안	-15144
세기	-15145
스윙	-15146
츠비	-15147
통상	-15148
핸디	-15149
회사	-15150
432	-15151
kbp	-15152
mgr	-15153
rey	-15154
sbu	-15155
▁국민	-15156
▁대상	-15157
▁라투	-15158
▁손톱	-15159
▁순은	-15160
▁알도	-15161
▁알러	-15162
▁알퐁	-15163
▁엠비	-15164
▁오피	-15165
▁윈지	-15166
▁인파	-15167
▁전정	-15168
▁점토	-15169
▁카우	-15170
▁토네	-15171
▁한스	-15172
글래스	-15173
대리석	-15174
산기공	-15175
애니멀	-15176
온라인	-15177
자물쇠	-15178
카멜레	-15179
홈데코	-15180
ared	-15181
▁508	-15182
▁760	-15183
▁828	-15184
▁amd	-15185
▁chd	-15186
▁lgm	-15187
▁nac	-15188
▁가먼트	-15189
▁마운트	-15190
▁보르도	-15191
▁슈스파	-15192
▁영업장	-15193
▁요금제	-15194
▁초이스	-15195
▁코스모	-15196
▁코즈니	-15197
▁콜렉션	-15198
▁키즈돔	-15199
▁퍼피짱	-15200
▁풀무원	-15201
▁피닉스	-15202
▁bass	-15203
▁eliz	-15204
▁lynn	-15205
▁골프웨어	-15206
▁모노데코	-15207
▁소파패드	-15208
▁아이나비	-15209
▁아트피플	-15210
▁핸드드립	-15211
▁bakyh	-15212
▁에이치옴므	-15213
▁엠엘비키즈	-15214
▁canvas	-15215
▁egoist	-15216
▁livity	-15217
▁초보운전스티커	-15218
▁bracelet	-15219
▁everring	-15220
▁비즈니스보루네오	-15221
▁elizabeth	-15222
cj	-15223
zb	-15224
교육	-15225
도스	-15226
두뜨	-15227
레카	-15228
로대	-15229
면봉	-15230
몬티	-15231
무새	-15232
셔닝	-15233
수첩	-15234
앤맘	-15235
전골	-15236
카이	-15237
태그	-15238
퍼프	-15239
휘센	-15240
...	-15241
471	-15242
bep	-15243
shf	-15244
▁댕기	-15245
▁라흐	-15246
▁로열	-15247
▁마넷	-15248
▁배구	-15249
▁수직	-15250
▁앱솔	-15251
▁연어	-15252
▁웰론	-15253
▁폴카	-15254
▁한사	-15255
디오일	-15256
롱패딩	-15257
리모컨	-15258
오리털	-15259
옵티컬	-15260
이블린	-15261
트리밍	-15262
페이퍼	-15263
1603	-15264
blue	-15265
kids	-15266
▁053	-15267
▁142	-15268
▁376	-15269
▁960	-15270
▁ccc	-15271
▁miw	-15272
▁nix	-15273
▁pxw	-15274
▁고프로	-15275
▁더블엠	-15276
▁디키즈	-15277
▁발싸개	-15278
▁브러시	-15279
▁알퐁소	-15280
▁애완견	-15281
▁에드윈	-15282
▁유압식	-15283
▁유앤미	-15284
▁천정형	-15285
▁카라스	-15286
▁펜홀더	-15287
▁포나인	-15288
▁회전형	-15289
하프코트	-15290
▁bron	-15291
▁gund	-15292
▁hyun	-15293
▁ital	-15294
▁가죽장갑	-15295
▁공간박스	-15296
▁그라운드	-15297
▁라흐두뜨	-15298
▁씨투써밋	-15299
▁아트로마	-15300
▁여자단화	-15301
▁위생팬티	-15302
▁입생로랑	-15303
▁테이블보	-15304
▁폭스바겐	-15305
▁풍기인견	-15306
flower	-15307
▁beaut	-15308
▁brass	-15309
▁라인프렌즈	-15310
▁리치오안나	-15311
▁에프알제이	-15312
▁자수포인트	-15313
▁컴퓨터책상	-15314
▁파워레인저	-15315
▁charle	-15316
▁magjay	-15317
▁스파이크리스	-15318
▁업무용청소기	-15319
▁헤지스핸드백	-15320
▁실바니안패밀리	-15321
fy	-15322
결제	-15323
루이	-15324
멘트	-15325
삑삑	-15326
삼보	-15327
시마	-15328
아한	-15329
연습	-15330
프랜	-15331
491	-15332
493	-15333
917	-15334
ars	-15335
tex	-15336
ung	-15337
▁고고	-15338
▁낱개	-15339
▁너프	-15340
▁도금	-15341
▁맥북	-15342
▁부착	-15343
▁생필	-15344
▁스니	-15345
▁스핀	-15346
▁유액	-15347
계절용	-15348
고즈홈	-15349
단선반	-15350
답례품	-15351
보일러	-15352
커피잔	-15353
헤지스	-15354
0005	-15355
1015	-15356
▁bow	-15357
▁ctm	-15358
▁poa	-15359
▁wwp	-15360
▁검정색	-15361
▁귀요미	-15362
▁그랜져	-15363
▁래디언	-15364
▁민들레	-15365
▁브리더	-15366
▁써지컬	-15367
▁오버롤	-15368
▁인터엠	-15369
▁전동톱	-15370
▁지파오	-15371
▁쫄바지	-15372
패드세트	-15373
▁conn	-15374
▁huts	-15375
▁가죽배색	-15376
▁네오플랜	-15377
▁비비핑크	-15378
▁싸이클론	-15379
▁에몬스홈	-15380
▁원목완구	-15381
▁임팩렌치	-15382
▁쥬아나윤	-15383
▁짜임니트	-15384
▁한사토이	-15385
▁홈시어터	-15386
▁38113	-15387
▁henry	-15388
▁track	-15389
▁발목보호대	-15390
▁수영복세트	-15391
▁스트로베리	-15392
▁캐릭터인형	-15393
▁코스타노바	-15394
▁포멜카멜레	-15395
▁animal	-15396
▁실리콘케이스	-15397
▁앨리스고즈홈	-15398
▁엘리자베스아덴	-15399
▁charleston	-15400
ev	-15401
구이	-15402
두건	-15403
디퓨	-15404
런싱	-15405
렁큰	-15406
레와	-15407
맞추	-15408
미인	-15409
자상	-15410
차렵	-15411
치니	-15412
해머	-15413
539	-15414
857	-15415
931	-15416
▁갈비	-15417
▁고양	-15418
▁권조	-15419
▁두루	-15420
▁램스	-15421
▁로체	-15422
▁뮬러	-15423
▁미션	-15424
▁베트	-15425
▁보들	-15426
▁서브	-15427
▁소음	-15428
▁수학	-15429
▁집중	-15430
노우즈	-15431
리스타	-15432
미니스	-15433
알버트	-15434
영양제	-15435
지털이	-15436
0006	-15437
4120	-15438
9700	-15439
hiba	-15440
▁306	-15441
▁aau	-15442
▁bpd	-15443
▁pwh	-15444
▁smh	-15445
▁tmm	-15446
▁느낌의	-15447
▁리바트	-15448
▁얼룩말	-15449
▁제이드	-15450
▁초슬림	-15451
▁쿠션지	-15452
▁팔레트	-15453
정장구두	-15454
▁7500	-15455
▁djbs	-15456
▁hand	-15457
▁htso	-15458
▁tgpa	-15459
▁숏슬리브	-15460
▁스포츠화	-15461
▁양말증정	-15462
▁엘리펀트	-15463
▁여성백팩	-15464
▁여자반지	-15465
▁잉글랜드	-15466
▁카드범퍼	-15467
▁코너선반	-15468
▁파격특가	-15469
▁포스트잇	-15470
▁watch	-15471
▁스텐머그컵	-15472
▁엘케이메이드	-15473
▁kipling	-15474
yk	-15475
▁폐	-15476
구슬	-15477
다르	-15478
들리	-15479
알곡	-15480
양털	-15481
예쁜	-15482
오네	-15483
위털	-15484
자용	-15485
휴지	-15486
376	-15487
461	-15488
473	-15489
awl	-15490
bow	-15491
pam	-15492
rpm	-15493
wct	-15494
▁fo	-15495
▁jq	-15496
▁vq	-15497
▁군인	-15498
▁꼬꼬	-15499
▁루프	-15500
▁봉투	-15501
▁썬더	-15502
▁인체	-15503
▁카트	-15504
▁코아	-15505
맞추기	-15506
여성화	-15507
인세트	-15508
탈취제	-15509
▁065	-15510
▁126	-15511
▁408	-15512
▁457	-15513
▁alb	-15514
▁fen	-15515
▁lsm	-15516
▁luc	-15517
▁maj	-15518
▁plc	-15519
▁로모노	-15520
▁뱅가드	-15521
▁보이스	-15522
▁선반형	-15523
▁아보키	-15524
▁아토팜	-15525
▁은하수	-15526
▁크러쉬	-15527
▁특양면	-15528
▁페어리	-15529
▁플랙진	-15530
▁행담도	-15531
코펜하겐	-15532
할리데이	-15533
board	-15534
oopen	-15535
▁bcbg	-15536
▁irid	-15537
▁prim	-15538
▁더에비타	-15539
▁로우프로	-15540
▁인형선물	-15541
▁칫솔꽂이	-15542
▁크리넥스	-15543
▁타이맥스	-15544
▁하프팬츠	-15545
rocity	-15546
▁로모노소프	-15547
▁리본포인트	-15548
▁세인트마리	-15549
▁shoopen	-15550
▁metrocity	-15551
hn	-15552
tn	-15553
vr	-15554
거잭	-15555
루디	-15556
모르	-15557
환영	-15558
492	-15559
865	-15560
992	-15561
olo	-15562
ova	-15563
▁바넷	-15564
▁바인	-15565
▁연청	-15566
▁울프	-15567
▁통풍	-15568
▁트럭	-15569
롱자켓	-15570
저금통	-15571
크루즈	-15572
2006	-15573
7851	-15574
▁364	-15575
▁630	-15576
▁agm	-15577
▁bre	-15578
▁cst	-15579
▁eye	-15580
▁fir	-15581
▁inf	-15582
▁lhc	-15583
▁lum	-15584
▁por	-15585
▁rad	-15586
▁몰리스	-15587
▁붕붕카	-15588
▁살레와	-15589
▁세니떼	-15590
▁숲속의	-15591
▁스키누	-15592
▁인두기	-15593
▁재규어	-15594
▁콜로니	-15595
▁홍삼정	-15596
▁훼르자	-15597
점판매용	-15598
파워핸들	-15599
inger	-15600
▁6500	-15601
▁병원놀이	-15602
▁윈지마켓	-15603
▁토모나리	-15604
▁eider	-15605
▁label	-15606
▁pixma	-15607
▁skono	-15608
▁규수방가구	-15609
▁그라파이트	-15610
▁남성수제화	-15611
▁레이스팬티	-15612
▁식품건조기	-15613
▁천연무늬목	-15614
레이스원피스	-15615
브라팬티세트	-15616
▁레노마캐주얼	-15617
▁페르지노몬티	-15618
▁슬라이더케이스	-15619
▁valentino	-15620
ez	-15621
▁섬	-15622
▁혈	-15623
미등	-15624
벨벳	-15625
비책	-15626
조등	-15627
중량	-15628
충망	-15629
커벨	-15630
틀리	-15631
파치	-15632
해요	-15633
해피	-15634
헨리	-15635
475	-15636
529	-15637
638	-15638
834	-15639
ago	-15640
awe	-15641
aze	-15642
elc	-15643
ele	-15644
lte	-15645
▁nl	-15646
▁닌자	-15647
▁대한	-15648
▁로미	-15649
▁매드	-15650
▁버니	-15651
▁보헤	-15652
▁스킬	-15653
▁스탭	-15654
▁요추	-15655
▁웨빙	-15656
▁지미	-15657
▁킴스	-15658
게이지	-15659
그리드	-15660
바나나	-15661
식품관	-15662
업소용	-15663
에이드	-15664
pilc	-15665
reen	-15666
▁251	-15667
▁chp	-15668
▁dic	-15669
▁kim	-15670
▁mxl	-15671
▁tro	-15672
▁von	-15673
▁디퓨져	-15674
▁버츠비	-15675
▁뷰맥스	-15676
▁비키즈	-15677
▁빨대컵	-15678
▁아이들	-15679
▁안드로	-15680
▁어웨이	-15681
▁엑티브	-15682
▁인리치	-15683
▁클리너	-15684
▁파워샷	-15685
▁행운의	-15686
밀리터리	-15687
사각팬티	-15688
콤프레샤	-15689
etton	-15690
▁1906	-15691
▁5050	-15692
▁8174	-15693
▁dani	-15694
▁남성잠옷	-15695
▁남자반지	-15696
▁도브테일	-15697
▁랩스타일	-15698
▁무릎담요	-15699
▁잠옷세트	-15700
▁전신거울	-15701
▁첼시부츠	-15702
▁충전임팩	-15703
▁카푸치노	-15704
▁코스메틱	-15705
▁프릴장식	-15706
가죽케이스	-15707
▁단구스패너	-15708
▁위드앨리스	-15709
▁클라이마쿨	-15710
▁티파니시스터	-15711
인테리어벽시계	-15712
▁running	-15713
▁웍	-15714
알바	-15715
에나	-15716
원경	-15717
전구	-15718
푸른	-15719
438	-15720
998	-15721
grx	-15722
mph	-15723
▁eo	-15724
▁yo	-15725
▁zf	-15726
▁교구	-15727
▁동결	-15728
▁밥솥	-15729
▁백마	-15730
▁보울	-15731
▁어센	-15732
▁좌우	-15733
▁콜맨	-15734
▁풍년	-15735
공구집	-15736
코팅기	-15737
핸드폰	-15738
1016	-15739
2201	-15740
6200	-15741
▁407	-15742
▁513	-15743
▁616	-15744
▁hmw	-15745
▁pgr	-15746
▁tru	-15747
▁뉴트로	-15748
▁반찬통	-15749
▁분무기	-15750
▁비올레	-15751
▁스위티	-15752
▁스크레	-15753
▁폴리에	-15754
▁허브티	-15755
▁헬로카	-15756
가격인하	-15757
▁heal	-15758
▁hjbe	-15759
▁spur	-15760
▁바디오일	-15761
▁빠른설치	-15762
▁아메리카	-15763
▁아이언맨	-15764
▁오리엔트	-15765
▁유틸리티	-15766
▁지케이스	-15767
▁폴리폴리	-15768
공기청정기	-15769
네사브루노	-15770
▁남성티셔츠	-15771
▁무선청소기	-15772
▁스위칭허브	-15773
▁영업장전문	-15774
▁와이드카라	-15775
▁크로스오버	-15776
▁hyunkg	-15777
▁적외선온도계	-15778
▁집업래쉬가드	-15779
▁shoesluv	-15780
▁흘	-15781
노피	-15782
만족	-15783
서블	-15784
선염	-15785
시도	-15786
신기	-15787
종이	-15788
치기	-15789
카프	-15790
687	-15791
890	-15792
tsm	-15793
▁yf	-15794
▁가격	-15795
▁교통	-15796
▁기장	-15797
▁메밀	-15798
▁명인	-15799
▁베일	-15800
▁에리	-15801
▁올드	-15802
▁중량	-15803
▁청색	-15804
▁투모	-15805
▁파괴	-15806
▁홍대	-15807
가슴살	-15808
러블리	-15809
롱부츠	-15810
브리즈	-15811
스펀지	-15812
에스핀	-15813
코스터	-15814
7101	-15815
▁219	-15816
▁363	-15817
▁617	-15818
▁ady	-15819
▁bgt	-15820
▁csc	-15821
▁dub	-15822
▁kft	-15823
▁관부가	-15824
▁귀고리	-15825
▁끈나시	-15826
▁빌리프	-15827
▁세탁망	-15828
▁앵무새	-15829
▁양배추	-15830
▁에비수	-15831
▁책갈피	-15832
▁코사지	-15833
▁테이크	-15834
▁핫픽스	-15835
▁화장지	-15836
사이언스	-15837
▁1216	-15838
▁1802	-15839
▁3600	-15840
▁belt	-15841
▁sket	-15842
▁네메시스	-15843
▁스파클링	-15844
▁썬글라스	-15845
▁잠금장치	-15846
▁척테일러	-15847
▁투명젤리	-15848
폴라티셔츠	-15849
stripe	-15850
▁polar	-15851
▁남성운동화	-15852
▁롯데식품관	-15853
▁모조에스핀	-15854
▁스파이더락	-15855
▁아쿠아티카	-15856
▁엠할리데이	-15857
▁이상주얼리	-15858
▁전기온수기	-15859
▁포켓포인트	-15860
▁connect	-15861
gv	-15862
▁ᅳ	-15863
▁둘	-15864
▁룰	-15865
뜨레	-15866
랄라	-15867
리제	-15868
맨드	-15869
사자	-15870
시코	-15871
279	-15872
489	-15873
693	-15874
773	-15875
ftr	-15876
msj	-15877
mtm	-15878
▁zm	-15879
▁다용	-15880
▁미싱	-15881
▁아테	-15882
▁안개	-15883
▁에릭	-15884
▁웅진	-15885
▁위크	-15886
▁유지	-15887
▁인쇄	-15888
▁차밍	-15889
▁탐론	-15890
▁택배	-15891
▁해양	-15892
▁효도	-15893
라루즈	-15894
비누대	-15895
우레탄	-15896
종중택	-15897
직사각	-15898
프랜드	-15899
1402	-15900
1704	-15901
ally	-15902
etic	-15903
ssbt	-15904
▁516	-15905
▁fer	-15906
▁mns	-15907
▁twp	-15908
▁가니쉬	-15909
▁고탄력	-15910
▁로우탑	-15911
▁모닝듀	-15912
▁블룸스	-15913
▁에이서	-15914
▁정강이	-15915
▁탁구채	-15916
▁패디드	-15917
▁페이지	-15918
밴딩팬츠	-15919
스케이트	-15920
앵글부츠	-15921
▁7117	-15922
▁lime	-15923
▁oush	-15924
▁디아도라	-15925
▁메인보드	-15926
▁모던브릭	-15927
▁병행수입	-15928
▁보행기화	-15929
▁수옵티컬	-15930
▁엔비라인	-15931
▁전기드릴	-15932
▁탁구용품	-15933
▁홀리데이	-15934
쉬폰원피스	-15935
▁세이코알바	-15936
▁쇼핑백동봉	-15937
▁울캐시미어	-15938
▁플라이니트	-15939
▁비데필터호환	-15940
▁benetton	-15941
▁【	-15942
▁놀	-15943
▁느	-15944
▁뱃	-15945
담은	-15946
뛰르	-15947
루모	-15948
마카	-15949
바퀴	-15950
볼펜	-15951
성이	-15952
스탄	-15953
텐더	-15954
피크	-15955
858	-15956
963	-15957
ado	-15958
car	-15959
dkp	-15960
ktw	-15961
mgx	-15962
rgb	-15963
thu	-15964
▁qm	-15965
▁yh	-15966
▁zz	-15967
▁갈색	-15968
▁개별	-15969
▁델타	-15970
▁미카	-15971
▁상상	-15972
▁소망	-15973
▁애경	-15974
▁유베	-15975
▁퀼트	-15976
▁퍼밍	-15977
▁페파	-15978
긴바지	-15979
풀커버	-15980
0020	-15981
0024	-15982
1012	-15983
1511	-15984
loff	-15985
▁484	-15986
▁522	-15987
▁706	-15988
▁840	-15989
▁att	-15990
▁cmi	-15991
▁ets	-15992
▁ham	-15993
▁ltv	-15994
▁nbr	-15995
▁svc	-15996
▁간냉식	-15997
▁라투투	-15998
▁로망스	-15999
▁룸미러	-16000
▁리치웰	-16001
▁베란다	-16002
▁아이젠	-16003
▁아이티	-16004
▁애프터	-16005
▁에스파	-16006
▁젝시오	-16007
▁카데코	-16008
▁콘덴서	-16009
▁클리퍼	-16010
▁토이앤	-16011
▁토파즈	-16012
▁후지카	-16013
후라이팬	-16014
▁crew	-16015
▁가을신상	-16016
▁골프모자	-16017
▁그린핑거	-16018
▁높이조절	-16019
▁동결건조	-16020
▁리틀브렌	-16021
▁순수알곡	-16022
▁안티쇼크	-16023
▁원예공구	-16024
▁이탈리안	-16025
▁침구세트	-16026
▁타임리스	-16027
▁drive	-16028
▁쉬즈라루즈	-16029
▁정수기필터	-16030
▁파로마가구	-16031
▁플레이도우	-16032
▁lanvin	-16033
▁lifest	-16034
▁orloff	-16035
▁바람막이자켓	-16036
▁아메리칸투어리스트	-16037
깎기	-16038
달록	-16039
드랍	-16040
마늘	-16041
보들	-16042
빙기	-16043
톱날	-16044
564	-16045
892	-16046
948	-16047
997	-16048
mma	-16049
pet	-16050
ugh	-16051
▁경질	-16052
▁냄새	-16053
▁더치	-16054
▁러빈	-16055
▁분쇄	-16056
▁브릿	-16057
▁셀럽	-16058
▁일상	-16059
▁쟈뎅	-16060
▁풍차	-16061
뚝배기	-16062
물티슈	-16063
바운스	-16064
스포켓	-16065
저장팩	-16066
카니발	-16067
클렌저	-16068
페인트	-16069
1503	-16070
1710	-16071
cept	-16072
▁333	-16073
▁ang	-16074
▁bhf	-16075
▁cmm	-16076
▁don	-16077
▁edf	-16078
▁gbl	-16079
▁pkx	-16080
▁기오네	-16081
▁러브앤	-16082
▁롤리팝	-16083
▁사이클	-16084
▁이지오	-16085
▁체지방	-16086
▁펠릭스	-16087
탁상시계	-16088
테이퍼드	-16089
풀라이프	-16090
space	-16091
▁ocba	-16092
▁plat	-16093
▁루미너스	-16094
▁발렌타인	-16095
▁범퍼침대	-16096
▁티슈커버	-16097
▁헬로카봇	-16098
빨래건조대	-16099
아쿠아슈즈	-16100
치마레깅스	-16101
형책상세트	-16102
asonic	-16103
▁뉴코아일산	-16104
▁주방수납장	-16105
남아긴소상하	-16106
▁comodo	-16107
▁제이제이지고트	-16108
▁휴대용가스렌지	-16109
mz	-16110
yx	-16111
▁갓	-16112
▁샷	-16113
▁죠	-16114
로얄	-16115
마블	-16116
발효	-16117
벤스	-16118
상기	-16119
쇼츠	-16120
스톰	-16121
시다	-16122
어깨	-16123
카도	-16124
탁구	-16125
탐탐	-16126
429	-16127
aft	-16128
kin	-16129
mrd	-16130
msi	-16131
▁yk	-16132
▁롱샴	-16133
▁버스	-16134
▁부르	-16135
▁순한	-16136
▁쉐이	-16137
▁시타	-16138
▁윙크	-16139
▁전선	-16140
▁제품	-16141
▁차단	-16142
▁큐비	-16143
▁투스	-16144
▁포포	-16145
▁홍진	-16146
▁흡습	-16147
로니아	-16148
벙거지	-16149
앤매치	-16150
월제조	-16151
쿨렐레	-16152
1211	-16153
free	-16154
itar	-16155
reme	-16156
▁022	-16157
▁580	-16158
▁917	-16159
▁apk	-16160
▁aux	-16161
▁dmw	-16162
▁dos	-16163
▁eag	-16164
▁kar	-16165
▁kon	-16166
▁mdl	-16167
▁다빈치	-16168
▁똘똘이	-16169
▁라일락	-16170
▁바이커	-16171
▁배기핏	-16172
▁블리스	-16173
▁실로폰	-16174
▁아울렛	-16175
▁잉크젯	-16176
▁쟈스민	-16177
▁제우스	-16178
▁족구공	-16179
▁티트리	-16180
암막커튼	-16181
트로닉스	-16182
enger	-16183
▁5600	-16184
▁nemo	-16185
▁네오프랜	-16186
▁네오플렌	-16187
▁니트타이	-16188
▁디자인의	-16189
▁보트슈즈	-16190
▁어드밴스	-16191
▁원목책장	-16192
▁자체제작	-16193
▁접이식톱	-16194
▁해피랜드	-16195
▁rcacx	-16196
▁뉴트로지나	-16197
▁니트티셔츠	-16198
▁비버리힐즈	-16199
▁전기온풍기	-16200
▁캐주얼셔츠	-16201
▁토이앤퍼즐	-16202
▁폴리에스터	-16203
▁핸드블렌더	-16204
▁minkmu	-16205
▁바보사랑갤럭시	-16206
▁아기가타고있어요	-16207
▁빕	-16208
녹차	-16209
모크	-16210
블로	-16211
않는	-16212
포인	-16213
439	-16214
466	-16215
482	-16216
588	-16217
589	-16218
947	-16219
afr	-16220
ctv	-16221
dap	-16222
irt	-16223
ubo	-16224
wha	-16225
▁레스	-16226
▁속사	-16227
▁쌓기	-16228
▁오아	-16229
▁커넥	-16230
▁헤즈	-16231
에스큐	-16232
제깅스	-16233
킥보드	-16234
1206	-16235
2025	-16236
▁cns	-16237
▁gst	-16238
▁khc	-16239
▁ril	-16240
▁rnm	-16241
▁wpa	-16242
▁그린팬	-16243
▁라운지	-16244
▁미니돌	-16245
▁스파소	-16246
▁아이방	-16247
▁알렉스	-16248
▁에끌라	-16249
▁염색약	-16250
▁완제품	-16251
▁조각모	-16252
▁토토로	-16253
▁풀옵션	-16254
▁환풍기	-16255
탱크포토	-16256
함마드릴	-16257
▁burg	-16258
▁nbgc	-16259
▁ousw	-16260
▁vane	-16261
▁댕기머리	-16262
▁모델언니	-16263
▁스칸디나	-16264
▁스판소재	-16265
▁애견간식	-16266
▁여성양말	-16267
▁인리치드	-16268
▁전기장판	-16269
▁정장세트	-16270
▁카멜리아	-16271
▁튜브히터	-16272
▁필터테크	-16273
레이스팬티	-16274
▁acofw	-16275
▁기모맨투맨	-16276
▁로얄알버트	-16277
▁빨래바구니	-16278
▁야구글러브	-16279
▁언더레이어	-16280
▁플라워자수	-16281
▁nicole	-16282
▁헤어드라이어	-16283
▁minkmui	-16284
▁스트라이프셔츠	-16285
▁레볼루션하이브리드	-16286
jf	-16287
▁묵	-16288
견용	-16289
공짜	-16290
단잠	-16291
모어	-16292
몽키	-16293
오르	-16294
코펠	-16295
풍년	-16296
피엘	-16297
피이	-16298
278	-16299
855	-16300
864	-16301
win	-16302
▁가전	-16303
▁렉슨	-16304
▁매스	-16305
▁모드	-16306
▁모이	-16307
▁무한	-16308
▁발볼	-16309
▁배꼽	-16310
▁밸트	-16311
▁시드	-16312
▁장수	-16313
▁조지	-16314
▁줄지	-16315
▁챌린	-16316
▁택일	-16317
▁티백	-16318
▁피노	-16319
수세미	-16320
와인잔	-16321
클랜드	-16322
0012	-16323
1023	-16324
1304	-16325
7542	-16326
sfbg	-16327
undy	-16328
▁440	-16329
▁455	-16330
▁488	-16331
▁918	-16332
▁atj	-16333
▁cms	-16334
▁jjt	-16335
▁rps	-16336
▁ssy	-16337
▁tsp	-16338
▁개구리	-16339
▁노이즈	-16340
▁데로마	-16341
▁듀러블	-16342
▁로레타	-16343
▁세피아	-16344
▁수공예	-16345
▁스토브	-16346
▁앵글로	-16347
▁오피언	-16348
▁자동핀	-16349
▁타원형	-16350
광마우스	-16351
▁mult	-16352
▁관부가세	-16353
▁그라스킨	-16354
▁나린아토	-16355
▁대박할인	-16356
▁목공공구	-16357
▁비비안판	-16358
▁스컬티드	-16359
▁스텐냄비	-16360
▁알콩단잠	-16361
▁애착인형	-16362
▁오가닉붐	-16363
▁전기난로	-16364
▁크리에이	-16365
▁테슬로퍼	-16366
▁트로피칼	-16367
▁편수냄비	-16368
▁sketg	-16369
▁기가바이트	-16370
▁디자인에버	-16371
▁어반웨스트	-16372
balance	-16373
▁bronze	-16374
▁모니터받침대	-16375
▁비너스자스민	-16376
▁테일러메이드	-16377
▁젊	-16378
▁쾌	-16379
▁펌	-16380
미널	-16381
발레	-16382
발육	-16383
숙성	-16384
업체	-16385
제당	-16386
파머	-16387
파일	-16388
푸쉬	-16389
655	-16390
881	-16391
cth	-16392
ely	-16393
▁가베	-16394
▁구달	-16395
▁나의	-16396
▁니드	-16397
▁루쥬	-16398
▁맥과	-16399
▁반도	-16400
▁배럴	-16401
▁버너	-16402
▁브레	-16403
▁산요	-16404
▁어번	-16405
▁완도	-16406
▁우투	-16407
▁찍찍	-16408
▁카팩	-16409
▁태윤	-16410
▁토스	-16411
스타인	-16412
파스텔	-16413
1734	-16414
7938	-16415
imum	-16416
ince	-16417
ited	-16418
▁014	-16419
▁028	-16420
▁cit	-16421
▁gsa	-16422
▁gts	-16423
▁inn	-16424
▁lav	-16425
▁mcc	-16426
▁nar	-16427
▁phx	-16428
▁qam	-16429
▁tie	-16430
▁까르벵	-16431
▁데드라	-16432
▁둥근코	-16433
▁브릿지	-16434
▁생필품	-16435
▁세계의	-16436
▁스코코	-16437
▁엔진톱	-16438
▁오페라	-16439
▁턱시도	-16440
▁페라리	-16441
▁푸스테	-16442
와이셔츠	-16443
웨이스트	-16444
하우시스	-16445
▁1050	-16446
▁alba	-16447
▁alph	-16448
▁공구나라	-16449
▁구명조끼	-16450
▁라즈베리	-16451
▁리바이탈	-16452
▁사운드북	-16453
▁샐러드볼	-16454
▁웨지샌들	-16455
▁포인트핀	-16456
▁하우올린	-16457
▁학습완구	-16458
▁홑겹브라	-16459
파라다이스	-16460
▁chair	-16461
▁coach	-16462
▁goldn	-16463
▁깨끗한나라	-16464
▁종근당건강	-16465
▁태윤퍼니처	-16466
▁프리미엄팩	-16467
▁핸드폰보호	-16468
여아삼각팬티	-16469
▁mizuno	-16470
▁samson	-16471
▁듀러블에디션	-16472
▁앵글로매니아	-16473
▁유앤미쥬얼리	-16474
▁전기압력밥솥	-16475
▁프린세스탐탐	-16476
▁플러스에스큐	-16477
▁휴대폰케이스	-16478
여아긴소우주복	-16479
▁갤럭시노트엣지	-16480
▁burgundy	-16481
iy	-16482
vw	-16483
▁캑	-16484
곶감	-16485
대경	-16486
데리	-16487
디포	-16488
따움	-16489
래쉬	-16490
문서	-16491
밀도	-16492
박사	-16493
볶은	-16494
비쿰	-16495
수술	-16496
악어	-16497
젠터	-16498
트니	-16499
464	-16500
672	-16501
828	-16502
abp	-16503
fly	-16504
▁nj	-16505
▁oa	-16506
▁계란	-16507
▁넓은	-16508
▁배내	-16509
▁사라	-16510
▁속굽	-16511
▁에픽	-16512
▁쟈켓	-16513
▁적축	-16514
▁컨템	-16515
▁키미	-16516
▁페놈	-16517
▁풀업	-16518
▁해밀	-16519
▁향균	-16520
▁홀드	-16521
▁화신	-16522
▁활동	-16523
리모콘	-16524
밀라노	-16525
보충제	-16526
비행기	-16527
쇼핑백	-16528
오니아	-16529
의겨울	-16530
케이드	-16531
테카이	-16532
7121	-16533
enci	-16534
▁308	-16535
▁489	-16536
▁606	-16537
▁gsb	-16538
▁knr	-16539
▁miy	-16540
▁mzm	-16541
▁ntc	-16542
▁shu	-16543
▁tnr	-16544
▁tpi	-16545
▁tsh	-16546
▁umh	-16547
▁건강한	-16548
▁고음질	-16549
▁도시바	-16550
▁드리밍	-16551
▁머리띠	-16552
▁분쇄기	-16553
▁블랑슈	-16554
▁비스타	-16555
▁사만사	-16556
▁스켈리	-16557
▁스텐락	-16558
▁스파이	-16559
▁신나는	-16560
▁아우디	-16561
▁유베키	-16562
▁칼국수	-16563
▁호랑이	-16564
이지웨어	-16565
▁1415	-16566
▁2011	-16567
▁matt	-16568
▁닥스키즈	-16569
▁드라이빙	-16570
▁샹테카이	-16571
▁세라가방	-16572
▁수입원단	-16573
▁싱글코트	-16574
▁에스쁘아	-16575
▁에이와비	-16576
▁에이프릴	-16577
▁여성모자	-16578
▁여성지갑	-16579
▁워너디스	-16580
▁절개라인	-16581
살균소독기	-16582
▁kipon	-16583
▁sisley	-16584
▁씽크탱크포토	-16585
▁베가시크릿노트	-16586
▁twinkids	-16587
▁panasonic	-16588
▁공기청정기필터호환	-16589
▁비버리힐즈폴로클럽	-16590
▁ᄀ	-16591
꽃차	-16592
누아	-16593
발열	-16594
엠텍	-16595
오토	-16596
운영	-16597
지역	-16598
찹쌀	-16599
타프	-16600
터기	-16601
티커	-16602
행복	-16603
호피	-16604
680	-16605
cor	-16606
mas	-16607
▁공인	-16608
▁대야	-16609
▁마론	-16610
▁메타	-16611
▁모기	-16612
▁모네	-16613
▁슈트	-16614
▁일로	-16615
▁즉석	-16616
▁지압	-16617
▁칼슘	-16618
▁캐쉬	-16619
▁팡팡	-16620
수납함	-16621
자카드	-16622
종택일	-16623
쥬니어	-16624
추가금	-16625
크로바	-16626
3010	-16627
4500	-16628
8321	-16629
▁052	-16630
▁134	-16631
▁517	-16632
▁bee	-16633
▁dff	-16634
▁dfl	-16635
▁eun	-16636
▁jkc	-16637
▁jmw	-16638
▁kol	-16639
▁mdc	-16640
▁nbh	-16641
▁sts	-16642
▁tag	-16643
▁var	-16644
▁공유기	-16645
▁런닝형	-16646
▁롱니트	-16647
▁머스트	-16648
▁반다나	-16649
▁방수팩	-16650
▁뾰족코	-16651
▁사토리	-16652
▁샌들힐	-16653
▁수유복	-16654
▁악력기	-16655
▁액션캠	-16656
▁요커버	-16657
▁유리병	-16658
▁이라인	-16659
▁최신형	-16660
▁캐나다	-16661
▁탁구공	-16662
▁파이핑	-16663
▁패션화	-16664
▁펫마키	-16665
▁할로겐	-16666
▁홀세일	-16667
보온밥솥	-16668
▁1008	-16669
▁cute	-16670
▁micr	-16671
▁tbms	-16672
▁과일가게	-16673
▁나나키즈	-16674
▁바이네르	-16675
▁스켈리도	-16676
▁시력보호	-16677
▁아리따움	-16678
▁에스파듀	-16679
▁이홈데코	-16680
▁제이씨비	-16681
▁청다이아	-16682
▁graph	-16683
▁pearl	-16684
▁무선마우스	-16685
▁믹스앤매치	-16686
▁상하의세트	-16687
▁액티브웨어	-16688
▁요가복세트	-16689
▁이니셜공짜	-16690
▁지퍼포인트	-16691
enciaga	-16692
▁butter	-16693
▁filter	-16694
▁kamaki	-16695
▁simple	-16696
▁랙	-16697
넬로	-16698
노랑	-16699
더비	-16700
데커	-16701
만의	-16702
방탄	-16703
벌리	-16704
보넷	-16705
언잭	-16706
우브	-16707
웰빙	-16708
이월	-16709
이유	-16710
중형	-16711
차지	-16712
체스	-16713
치는	-16714
코롱	-16715
타나	-16716
트윌	-16717
하기	-16718
497	-16719
586	-16720
abx	-16721
kgx	-16722
mat	-16723
row	-16724
stm	-16725
▁남색	-16726
▁노란	-16727
▁로더	-16728
▁받침	-16729
▁셰프	-16730
▁쉬어	-16731
▁스펠	-16732
▁양복	-16733
▁캡형	-16734
▁코즈	-16735
▁하챙	-16736
▁허쉘	-16737
분리형	-16738
소나무	-16739
스톤즈	-16740
웨이트	-16741
체육관	-16742
카스텔	-16743
터틀넥	-16744
1900	-16745
3100	-16746
7141	-16747
7311	-16748
8141	-16749
ille	-16750
iman	-16751
wskg	-16752
▁071	-16753
▁074	-16754
▁acb	-16755
▁dpt	-16756
▁lmj	-16757
▁pac	-16758
▁sam	-16759
▁나침반	-16760
▁달팽이	-16761
▁램스울	-16762
▁룸나인	-16763
▁리바디	-16764
▁맥코트	-16765
▁바바리	-16766
▁발가락	-16767
▁브니엘	-16768
▁쇠고기	-16769
▁숄더겸	-16770
▁아모르	-16771
▁아트웍	-16772
▁엘리브	-16773
▁캐미솔	-16774
▁쿠셔닝	-16775
▁크린룸	-16776
▁클라스	-16777
▁토끼털	-16778
▁트라움	-16779
▁튼튼한	-16780
▁티엔알	-16781
icker	-16782
▁1005	-16783
▁pier	-16784
▁tory	-16785
▁더블코트	-16786
▁롱스카프	-16787
▁메이드웰	-16788
▁보헤미안	-16789
▁비누받침	-16790
▁스토피아	-16791
▁알람시계	-16792
▁알록달록	-16793
▁절개배색	-16794
▁젠하이저	-16795
▁체크남방	-16796
▁토탈모션	-16797
▁honey	-16798
▁nikon	-16799
▁수유원피스	-16800
▁아니베에프	-16801
▁thomas	-16802
▁도자기그릇휴	-16803
▁휴대폰액세서리	-16804
▁balenciaga	-16805
dz	-16806
tk	-16807
zl	-16808
▁벅	-16809
대로	-16810
딜로	-16811
람쥐	-16812
메디	-16813
멘탈	-16814
모토	-16815
밤색	-16816
분또	-16817
장난	-16818
정한	-16819
좌탁	-16820
주행	-16821
테리	-16822
468	-16823
587	-16824
697	-16825
893	-16826
bkp	-16827
dwe	-16828
gym	-16829
ken	-16830
mcn	-16831
out	-16832
▁그물	-16833
▁글래	-16834
▁마늘	-16835
▁비젼	-16836
▁신선	-16837
▁알카	-16838
▁에듀	-16839
▁웅장	-16840
▁족구	-16841
▁투습	-16842
▁팝업	-16843
레시피	-16844
블리스	-16845
알파카	-16846
워킹화	-16847
토리니	-16848
트위드	-16849
플래너	-16850
플리케	-16851
2018	-16852
6300	-16853
7221	-16854
8311	-16855
achi	-16856
itan	-16857
ping	-16858
▁129	-16859
▁bad	-16860
▁cho	-16861
▁gax	-16862
▁gra	-16863
▁jsn	-16864
▁ltp	-16865
▁mcb	-16866
▁moc	-16867
▁고구마	-16868
▁드라잉	-16869
▁랜카드	-16870
▁레글런	-16871
▁마마스	-16872
▁빅그린	-16873
▁샤무즈	-16874
▁소프너	-16875
▁스페인	-16876
▁어깨끈	-16877
▁위프키	-16878
▁조절형	-16879
▁코란도	-16880
▁흙침대	-16881
구스다운	-16882
메리제인	-16883
바디슈트	-16884
바디워시	-16885
버카스텔	-16886
페이즐리	-16887
▁2020	-16888
▁5154	-16889
▁dell	-16890
▁rmow	-16891
▁yawe	-16892
▁고무나무	-16893
▁꽃프린트	-16894
▁더스톤즈	-16895
▁미니카드	-16896
▁앱솔루트	-16897
▁여자신발	-16898
▁재고보유	-16899
▁차이나넥	-16900
▁카드포켓	-16901
▁프리마켓	-16902
▁홍대언니	-16903
quared	-16904
▁71174	-16905
▁lucky	-16906
▁스텐주전자	-16907
▁오드뚜왈렛	-16908
▁옥스포드화	-16909
▁자동차커버	-16910
▁자전거상의	-16911
▁로얄코펜하겐	-16912
▁전국무료배송	-16913
▁후면보호필름	-16914
▁minimum	-16915
▁쁘띠다이아몬드	-16916
▁타미힐피거키즈	-16917
▁학생사무용의자	-16918
년식	-16919
름망	-16920
보울	-16921
선수	-16922
어프	-16923
준비	-16924
카팩	-16925
큐티	-16926
탬프	-16927
627	-16928
fwl	-16929
jkm	-16930
lcd	-16931
▁ui	-16932
▁xj	-16933
▁zx	-16934
▁거치	-16935
▁그네	-16936
▁김밥	-16937
▁비달	-16938
▁빠루	-16939
▁소리	-16940
▁솔라	-16941
▁수박	-16942
▁안동	-16943
▁안토	-16944
▁어프	-16945
▁웜업	-16946
▁직부	-16947
▁테일	-16948
▁페블	-16949
▁풀백	-16950
▁헬렌	-16951
러피안	-16952
슈크레	-16953
압축팩	-16954
컨트롤	-16955
코티지	-16956
1040	-16957
1120	-16958
2009	-16959
7001	-16960
7741	-16961
▁279	-16962
▁ahc	-16963
▁ann	-16964
▁dal	-16965
▁kmp	-16966
▁lhb	-16967
▁pky	-16968
▁pls	-16969
▁rsp	-16970
▁sbr	-16971
▁who	-16972
▁wsp	-16973
▁겉싸개	-16974
▁데시데	-16975
▁메소드	-16976
▁메이크	-16977
▁메종드	-16978
▁보안경	-16979
▁블러쉬	-16980
▁스크류	-16981
▁아기띠	-16982
▁토키오	-16983
▁피구공	-16984
▁하리오	-16985
츄얼스킨	-16986
10000	-16987
▁cosm	-16988
▁골프장갑	-16989
▁닥스구두	-16990
▁닥스모자	-16991
▁대형완구	-16992
▁동물인형	-16993
▁로코리빙	-16994
▁매치나인	-16995
▁바디웨어	-16996
▁빅페이스	-16997
▁스타우브	-16998
▁씨티헌터	-16999
▁여성플랫	-17000
▁준쥬얼리	-17001
▁줄리어스	-17002
▁코스트코	-17003
▁01174	-17004
▁20000	-17005
▁inter	-17006
▁linda	-17007
▁가리개커튼	-17008
▁베스트리빙	-17009
▁스노우보드	-17010
▁아이페이스	-17011
▁업그레이드	-17012
▁에이치피이	-17013
▁유로와이퍼	-17014
▁season	-17015
▁toughc	-17016
▁아이잗컬렉션	-17017
▁technic	-17018
▁긴팔카라티셔츠	-17019
▁샛	-17020
건식	-17021
구역	-17022
눈이	-17023
동서	-17024
르고	-17025
리끄	-17026
만화	-17027
무복	-17028
비전	-17029
사라	-17030
슈슈	-17031
앨리	-17032
에게	-17033
왕자	-17034
캣츠	-17035
639	-17036
▁나우	-17037
▁리트	-17038
▁마인	-17039
▁마제	-17040
▁발송	-17041
▁샛별	-17042
▁스킵	-17043
▁엑셀	-17044
▁웰라	-17045
▁이고	-17046
▁자루	-17047
▁쟈니	-17048
▁토리	-17049
스노우	-17050
스트리	-17051
집게핀	-17052
1032	-17053
7864	-17054
erry	-17055
▁295	-17056
▁903	-17057
▁aut	-17058
▁edi	-17059
▁hub	-17060
▁jmm	-17061
▁lpg	-17062
▁qhh	-17063
▁vmv	-17064
▁마라톤	-17065
▁마이비	-17066
▁마이스	-17067
▁번아웃	-17068
▁블랜드	-17069
▁비달사	-17070
▁아르메	-17071
▁에르게	-17072
▁유리컵	-17073
스에비뉴	-17074
스텐레스	-17075
슬림셔츠	-17076
▁bbgt	-17077
▁camo	-17078
▁구매대행	-17079
▁기획상품	-17080
▁블랑블랙	-17081
▁세바스챤	-17082
▁수화물용	-17083
▁정품베어	-17084
▁주방가위	-17085
▁타카타카	-17086
▁트렉스타	-17087
▁패션모자	-17088
▁한국생산	-17089
남성드로즈	-17090
디스플레이	-17091
▁fresh	-17092
▁걸스데일리	-17093
▁니트베스트	-17094
▁레노마골프	-17095
▁팬티스타킹	-17096
▁홈트레이닝	-17097
트레이닝바지	-17098
포인트티셔츠	-17099
▁ladies	-17100
▁maison	-17101
▁발렌티노루디	-17102
▁펫파라다이스	-17103
▁모이스처라이징	-17104
▁dsquared	-17105
▁standard	-17106
▁clearcase	-17107
▁toughcase	-17108
nx	-17109
sx	-17110
▁닉	-17111
검정	-17112
그룹	-17113
리언	-17114
리폼	-17115
바다	-17116
배경	-17117
소뇨	-17118
식판	-17119
지는	-17120
집개	-17121
홈바	-17122
572	-17123
576	-17124
duk	-17125
fbs	-17126
▁녹색	-17127
▁라팔	-17128
▁마일	-17129
▁문일	-17130
▁버섯	-17131
▁수중	-17132
▁아다	-17133
▁아틀	-17134
▁어벤	-17135
▁워치	-17136
▁장비	-17137
▁최고	-17138
▁해머	-17139
▁혼수	-17140
세이션	-17141
속바지	-17142
쏘렌토	-17143
화이바	-17144
0105	-17145
0600	-17146
1014	-17147
1207	-17148
1823	-17149
6101	-17150
8241	-17151
▁137	-17152
▁317	-17153
▁835	-17154
▁880	-17155
▁arc	-17156
▁bbq	-17157
▁dmx	-17158
▁dvc	-17159
▁jpt	-17160
▁ked	-17161
▁kwt	-17162
▁sgl	-17163
▁늘푸른	-17164
▁라보떼	-17165
▁면소재	-17166
▁샌더기	-17167
▁스파크	-17168
▁이펙트	-17169
▁인터넷	-17170
▁착용감	-17171
▁칠드런	-17172
▁케미컬	-17173
▁케이바	-17174
▁코니스	-17175
▁프릴넥	-17176
▁하이스	-17177
▁헤어끈	-17178
▁히말라	-17179
남여공용	-17180
액자세트	-17181
elden	-17182
▁2950	-17183
▁3471	-17184
▁7812	-17185
▁bbtg	-17186
▁fish	-17187
▁sing	-17188
▁갤럭시윈	-17189
▁리빙데코	-17190
▁미드나잇	-17191
▁비달사순	-17192
▁사방스판	-17193
▁삼정시계	-17194
▁아임토이	-17195
▁에어공구	-17196
▁엘르골프	-17197
▁여성신발	-17198
▁오드퍼퓸	-17199
▁전기렌지	-17200
▁절단공구	-17201
▁진영가구	-17202
▁테디베어	-17203
▁테라코타	-17204
▁하프부츠	-17205
brough	-17206
colors	-17207
▁contr	-17208
▁goduk	-17209
▁ncore	-17210
▁olzen	-17211
▁국내수제화	-17212
▁라이브워크	-17213
▁블루독아동	-17214
▁에너자이저	-17215
▁오디오테크	-17216
▁오피스큐브	-17217
▁허리스트링	-17218
▁celden	-17219
▁closet	-17220
▁curved	-17221
▁protec	-17222
▁매트리스커버	-17223
▁북유럽의겨울	-17224
▁트렁크정리함	-17225
▁티엔지티우먼	-17226
▁hooangs	-17227
▁디지털테스터기	-17228
▁메이드웰케이스	-17229
▁영업장전문설치	-17230
▁페이퍼플레인키즈	-17231
▁vanbrough	-17232
군모	-17233
답터	-17234
배변	-17235
브론	-17236
빨대	-17237
스무	-17238
없이	-17239
온스	-17240
음마	-17241
코인	-17242
테슬	-17243
827	-17244
832	-17245
889	-17246
fff	-17247
fhp	-17248
ndk	-17249
psc	-17250
uaw	-17251
▁vx	-17252
▁xf	-17253
▁레아	-17254
▁로켓	-17255
▁샌더	-17256
▁세모	-17257
▁세정	-17258
▁식도	-17259
▁절연	-17260
▁지구	-17261
▁천장	-17262
▁청록	-17263
▁추동	-17264
▁키움	-17265
▁토치	-17266
단행거	-17267
슬렉스	-17268
질랜드	-17269
피규어	-17270
0700	-17271
1114	-17272
1604	-17273
4420	-17274
pink	-17275
▁152	-17276
▁254	-17277
▁833	-17278
▁abs	-17279
▁dus	-17280
▁dwv	-17281
▁jhn	-17282
▁joq	-17283
▁que	-17284
▁sst	-17285
▁wux	-17286
▁더스킨	-17287
▁돌침대	-17288
▁무드등	-17289
▁벨로아	-17290
▁빅카라	-17291
▁스터디	-17292
▁엣지스	-17293
▁장의자	-17294
▁전기식	-17295
▁제이크	-17296
▁1275	-17297
▁aman	-17298
▁dogs	-17299
▁nass	-17300
▁wiha	-17301
▁가스토치	-17302
▁남성런닝	-17303
▁넥스토치	-17304
▁레쉬가드	-17305
▁바우머스	-17306
▁브이라인	-17307
▁사만사타	-17308
▁사용모델	-17309
▁소매프릴	-17310
▁실험뚝딱	-17311
▁아프리카	-17312
▁어프어프	-17313
▁와이파이	-17314
▁일로딜로	-17315
▁조지루시	-17316
▁학생백팩	-17317
▁해피슈가	-17318
추가금없음	-17319
▁dubot	-17320
▁flash	-17321
▁stone	-17322
▁러브하우스	-17323
▁무선랜카드	-17324
▁버츄얼스킨	-17325
▁오피스디포	-17326
▁일반냉장고	-17327
▁축구스타킹	-17328
▁didier	-17329
▁hoodie	-17330
▁업무용무전기	-17331
▁newbalance	-17332
가집	-17333
기니	-17334
백질	-17335
아크	-17336
어쓰	-17337
엘로	-17338
일렉	-17339
컷터	-17340
474	-17341
483	-17342
989	-17343
aca	-17344
ila	-17345
ism	-17346
paa	-17347
plp	-17348
wsw	-17349
▁대명	-17350
▁데스	-17351
▁선경	-17352
▁아쉬	-17353
▁헤더	-17354
다이나	-17355
롱셔츠	-17356
면스판	-17357
미들힐	-17358
바이벌	-17359
블로퍼	-17360
사파리	-17361
1742	-17362
2005	-17363
8442	-17364
eaml	-17365
ente	-17366
ival	-17367
omax	-17368
smbt	-17369
▁163	-17370
▁182	-17371
▁309	-17372
▁645	-17373
▁990	-17374
▁bld	-17375
▁cdc	-17376
▁dac	-17377
▁dcd	-17378
▁gps	-17379
▁has	-17380
▁rmg	-17381
▁tmd	-17382
▁경찰차	-17383
▁공구류	-17384
▁릴렉스	-17385
▁바코드	-17386
▁비스코	-17387
▁오드리	-17388
▁웅장한	-17389
▁제스파	-17390
▁카리스	-17391
▁파이브	-17392
▁파테크	-17393
▁포스터	-17394
▁회전식	-17395
이불커버	-17396
철주전자	-17397
▁2006	-17398
▁hssw	-17399
▁swmr	-17400
▁가구엠디	-17401
▁로프나인	-17402
▁바이더알	-17403
▁블랙스완	-17404
▁소파베드	-17405
▁슈퍼하드	-17406
▁아보카도	-17407
▁양면시계	-17408
▁튤레이스	-17409
▁포인트꽃	-17410
▁퓨어코튼	-17411
▁hyper	-17412
▁kovea	-17413
▁보풀제거기	-17414
▁뷰티레스트	-17415
▁제임스마틴	-17416
▁푸스테픽스	-17417
▁dicubo	-17418
▁nassau	-17419
▁레노마넥타이	-17420
▁사만사타바사	-17421
▁스위스밀리터리	-17422
▁오디오테크니카	-17423
▁american	-17424
zi	-17425
▁굵	-17426
▁얀	-17427
▁팅	-17428
밀라	-17429
보더	-17430
비데	-17431
속의	-17432
시에	-17433
어리	-17434
인디	-17435
콥터	-17436
피드	-17437
후크	-17438
681	-17439
729	-17440
780	-17441
929	-17442
csh	-17443
dsn	-17444
eph	-17445
low	-17446
wdw	-17447
wpu	-17448
▁곰솥	-17449
▁구운	-17450
▁급속	-17451
▁동백	-17452
▁로커	-17453
▁모비	-17454
▁뮤럴	-17455
▁보기	-17456
▁빈백	-17457
▁뽀삐	-17458
▁사탕	-17459
▁색동	-17460
▁스베	-17461
▁신혼	-17462
▁앳홈	-17463
▁원룸	-17464
▁위켄	-17465
▁제냐	-17466
▁중청	-17467
▁추출	-17468
▁킹덤	-17469
▁토퍼	-17470
▁패스	-17471
▁피톤	-17472
▁하림	-17473
광택기	-17474
그래피	-17475
롱니트	-17476
믹싱볼	-17477
발육기	-17478
보카시	-17479
울타리	-17480
홈쇼핑	-17481
1117	-17482
1708	-17483
3003	-17484
6006	-17485
play	-17486
▁086	-17487
▁bif	-17488
▁hdr	-17489
▁jhd	-17490
▁더허브	-17491
▁라이스	-17492
▁람보르	-17493
▁루돌프	-17494
▁루시아	-17495
▁바레온	-17496
▁박스핏	-17497
▁벽선반	-17498
▁부티힐	-17499
▁블레스	-17500
▁사랑의	-17501
▁소녀의	-17502
▁스카시	-17503
▁스피닝	-17504
▁아이빈	-17505
▁야구화	-17506
▁에꼴드	-17507
▁옵티컬	-17508
▁유캐슬	-17509
▁캐비어	-17510
▁탈취제	-17511
▁페플럼	-17512
동서가구	-17513
토크렌치	-17514
ankie	-17515
jonak	-17516
▁iron	-17517
▁merc	-17518
▁nwbl	-17519
▁oupa	-17520
▁qalg	-17521
▁tomm	-17522
▁마마스룸	-17523
▁슬링백힐	-17524
▁아이디어	-17525
▁올라운드	-17526
▁일자팬츠	-17527
▁전정가위	-17528
▁폴라리스	-17529
▁핑크체리	-17530
리본원피스	-17531
채널스피커	-17532
체크원피스	-17533
카라원피스	-17534
▁edfby	-17535
▁moder	-17536
▁photo	-17537
▁scarf	-17538
▁담배케이스	-17539
▁디지털체중계	-17540
▁라이트올리브	-17541
▁삼천리자전거	-17542
▁옵션추가금없음	-17543
▁[	-17544
▁댑	-17545
▁때	-17546
▁옻	-17547
▁움	-17548
라파	-17549
링글	-17550
면적	-17551
모유	-17552
본능	-17553
사슴	-17554
성비	-17555
엔틱	-17556
오크	-17557
와플	-17558
작기	-17559
적용	-17560
플레	-17561
헤븐	-17562
571	-17563
886	-17564
akp	-17565
ami	-17566
anf	-17567
ath	-17568
fbc	-17569
ind	-17570
▁vm	-17571
▁yi	-17572
▁고운	-17573
▁나는	-17574
▁대양	-17575
▁레조	-17576
▁리비	-17577
▁본연	-17578
▁분유	-17579
▁세레	-17580
▁알루	-17581
▁액상	-17582
▁엄지	-17583
▁엑사	-17584
▁오바	-17585
▁오자	-17586
▁욕조	-17587
▁주주	-17588
▁컨츄	-17589
▁코렉	-17590
▁테잎	-17591
▁토미	-17592
▁필수	-17593
▁하스	-17594
▁하얀	-17595
▁홀릭	-17596
▁휘슬	-17597
거펠트	-17598
부슈트	-17599
삑삑이	-17600
상여우	-17601
초대형	-17602
토피아	-17603
화장실	-17604
0030	-17605
3103	-17606
8111	-17607
9970	-17608
▁384	-17609
▁523	-17610
▁532	-17611
▁912	-17612
▁920	-17613
▁png	-17614
▁rex	-17615
▁roc	-17616
▁vgn	-17617
▁더플백	-17618
▁라이팅	-17619
▁박시핏	-17620
▁브릴리	-17621
▁비비텍	-17622
▁에일린	-17623
▁인도어	-17624
▁측정기	-17625
▁카렌스	-17626
▁티뷰크	-17627
▁편리한	-17628
▁프로모	-17629
▁프롬비	-17630
▁화이바	-17631
캐쥬얼화	-17632
포크세트	-17633
▁0115	-17634
▁1602	-17635
▁7164	-17636
▁afmr	-17637
▁hupa	-17638
▁keep	-17639
▁vedi	-17640
▁땡큐파머	-17641
▁르슈크레	-17642
▁수저받침	-17643
▁승용완구	-17644
▁안티고나	-17645
▁어드벤처	-17646
▁인기상승	-17647
▁타운젠트	-17648
▁하와이안	-17649
▁히말라야	-17650
미니스커트	-17651
ophone	-17652
▁공구몰닷컴	-17653
▁라디에이터	-17654
▁러빈코티지	-17655
▁여성반지갑	-17656
▁오피스멀티	-17657
▁지갑케이스	-17658
쉬폰블라우스	-17659
vn	-17660
▁땀	-17661
▁옛	-17662
광고	-17663
독스	-17664
라쿤	-17665
로더	-17666
바트	-17667
빈카	-17668
이하	-17669
944	-17670
dco	-17671
els	-17672
▁가르	-17673
▁달리	-17674
▁마을	-17675
▁버디	-17676
▁빗살	-17677
▁스팔	-17678
▁시리	-17679
▁심슨	-17680
▁애녹	-17681
▁영진	-17682
▁쥬욕	-17683
과함께	-17684
리시버	-17685
스마일	-17686
스트릿	-17687
싸이클	-17688
안테나	-17689
에이징	-17690
크라운	-17691
테릭스	-17692
하네스	-17693
0015	-17694
0111	-17695
1506	-17696
4002	-17697
5102	-17698
6500	-17699
7103	-17700
7325	-17701
▁036	-17702
▁159	-17703
▁226	-17704
▁314	-17705
▁895	-17706
▁aer	-17707
▁lha	-17708
▁sap	-17709
▁til	-17710
▁tmp	-17711
▁ufo	-17712
▁멀버리	-17713
▁면모달	-17714
▁새제품	-17715
▁스베누	-17716
▁스티유	-17717
▁안다르	-17718
▁에폭시	-17719
▁웨이크	-17720
▁컨텐더	-17721
▁키체인	-17722
▁파워봉	-17723
▁화물용	-17724
당일배송	-17725
▁1156	-17726
▁1900	-17727
▁4218	-17728
▁고객만족	-17729
▁맥시팬티	-17730
▁삼각티백	-17731
▁샌트밴드	-17732
▁어반프랑	-17733
▁우쿨렐레	-17734
▁유니언잭	-17735
▁절삭공구	-17736
▁goose	-17737
▁phone	-17738
▁storm	-17739
▁table	-17740
▁라인레이저	-17741
▁배드민턴화	-17742
▁세미와이드	-17743
▁진주목걸이	-17744
▁집들이선물	-17745
▁padded	-17746
▁sandal	-17747
▁원더풀라이프	-17748
▁웨스트에비뉴	-17749
▁hitachi	-17750
▁조르지오아르마니	-17751
ai	-17752
cz	-17753
eh	-17754
▁랭	-17755
개념	-17756
넨탈	-17757
레일	-17758
렌스	-17759
반동	-17760
상판	-17761
센느	-17762
신사	-17763
추출	-17764
치드	-17765
카모	-17766
469	-17767
669	-17768
829	-17769
835	-17770
lia	-17771
nca	-17772
tsq	-17773
uer	-17774
▁sz	-17775
▁uf	-17776
▁검은	-17777
▁로빈	-17778
▁리젠	-17779
▁밀대	-17780
▁비상	-17781
▁엘룸	-17782
▁이도	-17783
▁침형	-17784
▁클림	-17785
그라미	-17786
글로시	-17787
나그랑	-17788
나이키	-17789
르마늄	-17790
사이트	-17791
편지지	-17792
0014	-17793
1025	-17794
1112	-17795
amic	-17796
▁048	-17797
▁221	-17798
▁811	-17799
▁905	-17800
▁930	-17801
▁app	-17802
▁bff	-17803
▁ens	-17804
▁hpb	-17805
▁mvp	-17806
▁nma	-17807
▁ret	-17808
▁spr	-17809
▁usd	-17810
▁xxl	-17811
▁겟유어	-17812
▁까리제	-17813
▁꽈베기	-17814
▁미포함	-17815
▁밸런싱	-17816
▁아이롱	-17817
▁어센틱	-17818
▁에밀리	-17819
▁전조등	-17820
▁콘서트	-17821
▁타라바	-17822
▁통바지	-17823
드레스룸	-17824
뷔스티에	-17825
알레그레	-17826
호이스트	-17827
▁1176	-17828
▁1350	-17829
▁atsk	-17830
▁cone	-17831
▁dcsc	-17832
▁keen	-17833
▁laco	-17834
▁open	-17835
▁sugg	-17836
▁고세제화	-17837
▁글로리아	-17838
▁남자셔츠	-17839
▁뉴질랜드	-17840
▁닭가슴살	-17841
▁딜라이트	-17842
▁리본타이	-17843
▁못주머니	-17844
▁무선포트	-17845
▁실크혼방	-17846
▁엣지마인	-17847
▁유러피안	-17848
▁카라배색	-17849
▁카라빈카	-17850
▁컴파운드	-17851
▁티라이트	-17852
▁헤드밴드	-17853
▁힙합모자	-17854
보행기덧신	-17855
아이스크림	-17856
▁antic	-17857
▁fendi	-17858
▁거리측정기	-17859
▁써지컬스틸	-17860
▁아이클레이	-17861
▁올뉴프레임	-17862
▁칼라거펠트	-17863
▁casaon	-17864
▁chikao	-17865
▁겟유어스타일	-17866
▁노와이어브라	-17867
▁미러선글라스	-17868
▁슈퍼싱글침대	-17869
▁lanstar	-17870
▁heritage	-17871
▁쑥	-17872
▁씬	-17873
달린	-17874
르테	-17875
리지	-17876
물산	-17877
소아	-17878
야채	-17879
조림	-17880
턴트	-17881
662	-17882
918	-17883
alt	-17884
dat	-17885
fox	-17886
ysw	-17887
▁fq	-17888
▁rr	-17889
▁xt	-17890
▁과도	-17891
▁광목	-17892
▁꼬냑	-17893
▁네로	-17894
▁뚜시	-17895
▁라스	-17896
▁렐리	-17897
▁리베	-17898
▁마호	-17899
▁모크	-17900
▁비체	-17901
▁사료	-17902
▁서스	-17903
▁스머	-17904
▁씽씽	-17905
▁아벨	-17906
▁유어	-17907
▁캐주	-17908
▁킨더	-17909
▁통기	-17910
▁티앤	-17911
▁홀리	-17912
바가지	-17913
벨티드	-17914
온풍기	-17915
정수기	-17916
캔버스	-17917
트리스	-17918
1743	-17919
agon	-17920
iers	-17921
▁024	-17922
▁095	-17923
▁316	-17924
▁612	-17925
▁akg	-17926
▁apl	-17927
▁bac	-17928
▁bjp	-17929
▁ccb	-17930
▁dun	-17931
▁hpa	-17932
▁twh	-17933
▁거위털	-17934
▁구매시	-17935
▁귀달이	-17936
▁노래방	-17937
▁닛타쿠	-17938
▁데버스	-17939
▁비앙스	-17940
▁비오비	-17941
▁쁠루모	-17942
▁슬로우	-17943
▁아동복	-17944
▁아이템	-17945
▁자연의	-17946
▁중대형	-17947
▁클리브	-17948
▁트윙고	-17949
▁파머스	-17950
▁핑크룩	-17951
넥티셔츠	-17952
메이크업	-17953
▁1080	-17954
▁beat	-17955
▁fire	-17956
▁tgsh	-17957
▁thur	-17958
▁wild	-17959
▁감각발달	-17960
▁고급스런	-17961
▁뚜시베베	-17962
▁매스노운	-17963
▁모이스쳐	-17964
▁바디엑스	-17965
▁반하이넥	-17966
▁악세서리	-17967
▁오토바이	-17968
▁외장하드	-17969
▁위드베베	-17970
▁패션백팩	-17971
스키니팬츠	-17972
stract	-17973
▁guell	-17974
▁나비넥타이	-17975
▁샛별하우스	-17976
▁아크테릭스	-17977
▁오토크로바	-17978
▁가죽서류가방	-17979
▁정품빠른배송	-17980
▁healing	-17981
▁lacoste	-17982
▁abstract	-17983
▁deepcool	-17984
▁underwear	-17985
▁viviennew	-17986
ej	-17987
qd	-17988
vk	-17989
xq	-17990
▁닷	-17991
▁먹	-17992
▁멍	-17993
▁텍	-17994
라기	-17995
리플	-17996
미싱	-17997
뽀요	-17998
에몽	-17999
작가	-18000
전통	-18001
제일	-18002
촌점	-18003
565	-18004
582	-18005
838	-18006
926	-18007
afe	-18008
isk	-18009
khx	-18010
msp	-18011
ram	-18012
shx	-18013
sta	-18014
▁uk	-18015
▁광고	-18016
▁권총	-18017
▁리코	-18018
▁마나	-18019
▁마법	-18020
▁미사	-18021
▁새들	-18022
▁수압	-18023
▁심쿵	-18024
▁용수	-18025
▁탈취	-18026
▁티볼	-18027
▁패널	-18028
▁피트	-18029
▁화섬	-18030
만드는	-18031
습도계	-18032
식회사	-18033
통가죽	-18034
티넨탈	-18035
포대기	-18036
0400	-18037
2015	-18038
ffel	-18039
iser	-18040
sday	-18041
▁417	-18042
▁425	-18043
▁904	-18044
▁apt	-18045
▁btd	-18046
▁mss	-18047
▁ssc	-18048
▁stb	-18049
▁uci	-18050
▁way	-18051
▁wsr	-18052
▁굿모닝	-18053
▁끌로에	-18054
▁더바디	-18055
▁라이즈	-18056
▁러브리	-18057
▁루루스	-18058
▁모기장	-18059
▁무반동	-18060
▁버튼온	-18061
▁보증서	-18062
▁뽄제이	-18063
▁숏사각	-18064
▁스모키	-18065
▁아이몰	-18066
▁이중지	-18067
▁인증점	-18068
▁지퍼형	-18069
▁찍찍이	-18070
▁체리쉬	-18071
▁케라틴	-18072
▁파일럿	-18073
▁펠리체	-18074
긴소내의	-18075
마이더스	-18076
anche	-18077
▁hick	-18078
▁lnnt	-18079
▁모든비용	-18080
▁샹들리에	-18081
▁아이모던	-18082
▁아코디언	-18083
▁엣지스쿨	-18084
▁욕실선반	-18085
▁정품판매	-18086
▁클라비아	-18087
▁홀하우스	-18088
슬림넥타이	-18089
슬림케이스	-18090
▁creat	-18091
▁pique	-18092
▁프로모릭스	-18093
▁프리사이즈	-18094
▁피스메이커	-18095
▁경복궁시리즈	-18096
▁노리개젖꼭지	-18097
▁오성마이더스	-18098
▁카메라스트랩	-18099
▁concept	-18100
▁microsd	-18101
▁thursday	-18102
▁싹	-18103
공부	-18104
국화	-18105
매칭	-18106
보레	-18107
뻬레	-18108
산후	-18109
소금	-18110
수경	-18111
수도	-18112
수연	-18113
신생	-18114
주파	-18115
투기	-18116
핀턱	-18117
585	-18118
596	-18119
775	-18120
bav	-18121
les	-18122
▁구즈	-18123
▁동축	-18124
▁등급	-18125
▁리아	-18126
▁리진	-18127
▁머핀	-18128
▁목화	-18129
▁밀짚	-18130
▁비씨	-18131
▁샤샤	-18132
▁선도	-18133
▁소라	-18134
▁슬로	-18135
▁월계	-18136
▁젊은	-18137
▁키위	-18138
▁태엽	-18139
▁패트	-18140
▁픽셀	-18141
▁헤븐	-18142
가오리	-18143
메리카	-18144
볼루션	-18145
세이프	-18146
작업복	-18147
청결제	-18148
초콜릿	-18149
터니티	-18150
3005	-18151
8264	-18152
anne	-18153
flip	-18154
itch	-18155
ssac	-18156
zone	-18157
▁611	-18158
▁dur	-18159
▁fsm	-18160
▁gha	-18161
▁idc	-18162
▁jkt	-18163
▁kom	-18164
▁거실등	-18165
▁골드링	-18166
▁디앤디	-18167
▁래글런	-18168
▁마벨엘	-18169
▁번호키	-18170
▁베이킹	-18171
▁보석함	-18172
▁블랑조	-18173
▁블로썸	-18174
▁블루핀	-18175
▁빛나는	-18176
▁뽀글이	-18177
▁속커튼	-18178
▁스킵합	-18179
▁스트롱	-18180
▁신도리	-18181
▁아트인	-18182
▁알뜨리	-18183
▁에라토	-18184
▁에릭칼	-18185
▁올포유	-18186
▁쿨링팬	-18187
▁터키석	-18188
▁톤다운	-18189
단장지갑	-18190
스키니진	-18191
▁1110	-18192
▁coat	-18193
▁inch	-18194
▁ocwa	-18195
▁stan	-18196
▁tgts	-18197
▁갤러리김	-18198
▁라끄베르	-18199
▁러그랜드	-18200
▁무료설치	-18201
▁배색라인	-18202
▁압력밥솥	-18203
▁익스텐션	-18204
▁주름개선	-18205
▁주방잡화	-18206
▁커피포트	-18207
▁특가할인	-18208
▁풀백주행	-18209
▁38112	-18210
▁hello	-18211
▁robot	-18212
▁stcom	-18213
▁강아지용품	-18214
▁라움에디션	-18215
▁람보르기니	-18216
▁백화점정품	-18217
▁브리지스톤	-18218
플레어스커트	-18219
▁디지털도어락	-18220
▁블루문넥타이	-18221
▁슬라이딩장롱	-18222
▁여성플랫슈즈	-18223
▁쯔	-18224
남녀	-18225
등어	-18226
라드	-18227
바둑	-18228
본넬	-18229
세코	-18230
소니	-18231
야마	-18232
야뿌	-18233
에보	-18234
우트	-18235
자임	-18236
지미	-18237
클릭	-18238
퍼드	-18239
583	-18240
690	-18241
dct	-18242
kao	-18243
wbk	-18244
wbr	-18245
▁rv	-18246
▁덴탈	-18247
▁디테	-18248
▁똑똑	-18249
▁모리	-18250
▁배관	-18251
▁변색	-18252
▁생강	-18253
▁세수	-18254
▁센트	-18255
▁양피	-18256
▁오공	-18257
▁오랄	-18258
▁오케	-18259
▁인생	-18260
▁정성	-18261
▁정육	-18262
▁컬링	-18263
▁헌터	-18264
가디언	-18265
꼴리끄	-18266
높이스	-18267
미에르	-18268
변기기	-18269
수저통	-18270
앤아이	-18271
입니다	-18272
정사각	-18273
존독립	-18274
[...]
